<s>
<pad>
</s>
<unk>
,
de
.
in
a
si
la
@-@
sa
ca
din
&quot;
care
cu
o
pentru
pe
un
nu
au
mai
este
se
fost
:
al
)
(
va
ce
-
fi
sunt
am
s
ar
sau
dupa
are
acest
aceasta
dar
vor
i
iar
ale
prin
ani
lui
trebuie
daca
intr
e
dintre
le
/
ne
Romania
%
cele
doua
fie
cand
cum
ii
pana
unui
cel
ei
fata
poate
declarat
foarte
despre
ul
insa
mult
?
cei
el
toate
unei
!
timp
doar
l
at
euro
multe
mare
ata
ati
intre
astfel
1
UE
acum
potrivit
spus
catre
urma
noi
putea
ai
acesta
ului
an
peste
face
privind
area
asemenea
fara
isi
facut
avea
ate
anul
ceea
fiind
asa
&apos;
cat
lei
pot
avut
luni
unor
aceste
loc
parte
chiar
cadrul
lucru
exista
milioane
trei
lor
cea
tot
2
3
unde
tara
ea
Bucuresti
asupra
il
presedintele
era
alte
2015
ele
bine
persoane
decat
trebui
uri
;
data
perioada
ia
nici
precum
acestea
faptul
inca
atat
re@@
and
celor
impotriva
10
in@@
Europa
doi
atunci
prima
ma
6
mod
putin
ora
unul
sub
...
arii
as
te
primul
4
Ponta
avem
ne@@
arata
nou
Romaniei
politica
spune
5
­
zile
stat
zi
cred
S@@
viata
ori
eu
asta
presedinte
una
30
eaza
afla
cazul
cateva
nevoie
trecut
vom
20
cauza
ilor
multi
mi
fiecare
anuntat
vedere
ari
Europeana
ci
zona
mari
membre
oameni
PSD
dat
inainte
acord
spre
problema
deja
aproape
European
munca
noua
tari
ita
timpul
partea
urile
eze
luna
iti
acestui
ie
important
15
locul
echipa
it
ajuns
baza
astazi
anului
fel
piata
T@@
inceput
nivel
sale
da
C@@
alta
ministrul
Comisia
bani
europene
aici
special
ica
buna
ales
elor
prezent
2014
B@@
DNA
priveste
acestei
vineri
faca
Comisiei
orice
conform
Europene
privire
12
i@@
Victor
presa
11
patru
7
desi
fac
moment
numai
m
miercuri
urmare
deoarece
printre
ite
M@@
seara
toti
n
2016
marti
ala
u
P@@
n@@
situatia
octombrie
primit
Uniunea
probleme
joi
afirmat
duminica
reprezinta
drept
aproximativ
decembrie
A@@
general
D@@
fostul
G@@
acelasi
noiembrie
ar@@
numarul
z@@
apoi
oamenii
Rusia
ceva
bun
SUA
luat
Uniunii
putem
publice
Iohannis
spun
0
statele
afaceri
pare
N@@
criza
H@@
noastra
vorba
premierul
L@@
s@@
ice
masuri
continua
inclusiv
8
cinci
precizat
impreuna
miliarde
importanta
autoritatile
sambata
de@@
saptamana
R@@
noastre
Colectiv
al@@
acolo
suntem
K@@
prea
scris
scrie
Consiliului
Iasi
F@@
25
13
Parlamentul
toata
momentul
masura
c@@
septembrie
alaturi
V@@
Turcia
nivelul
varsta
reusit
dori
punct
guvernul
unele
rand
plus
14
at@@
lume
18
numele
sustine
european
venit
PNL
andu
tarii
t@@
ator
ti
avand
acestia
ic
on
iunie
d@@
vrea
16
ile
ore
domeniul
politice
mea
cerut
langa
ere
tarile
imi
raport
urilor
viitor
caz
24
Grecia
dolari
totusi
Unite
p@@
lumea
legatura
9
lupta
ministru
er@@
informatii
crestere
17
I@@
Steaua
esti
00
O@@
romani
tuturor
incat
siguranta
fapt
an@@
l@@
iei
economica
Kosovo
E@@
ina
Parlamentului
Ministerul
ara
copii
Consiliul
b@@
r@@
erau
proiect
inseamna
k@@
g@@
acestor
v@@
acestora
pus
aiba
pre@@
atie
comunicat
voi
public
site
decizia
Germania
economice
Mediafax
ultima
21
doresc
puncte
Facebook
exemplu
sistemul
50
ramane
noul
er
19
Serbia
conditiile
or
mici
apa
valoare
proiectul
2013
respectiv
alt
sase
importante
o@@
Franta
roman
erii
Parlament
clar
forma
ac@@
iulie
decis
unii
state
ta
as@@
seful
e@@
3@@
procurorii
or@@
bune
100
j@@
aflat
National
nimic
probabil
en@@
Siria
procesul
statului
suma
politic
vazut
Mihai
primele
afara
el@@
stiu
functie
it@@
extrem
&#91;
castigat
ire
nicio
h@@
murit
financiare
cine
Marea
u@@
ianuarie
urmeaza
atii
acestuia
ajunge
&#93;
Dragnea
im@@
ic@@
itate
ana
informeaza
sfarsitul
membru
mii
22
raportul
NATO
ind
prezenta
--
locuri
40
aceea
prim
2@@
august
doilea
m@@
termen
atoare
inceputul
on@@
aceeasi
TV
serie
devenit
votat
asigura
I
europeana
t
calitate
cresterea
ici
4@@
persoana
nostru
meci
publica
intreaga
pierdut
surse
meu
departe
continuare
grade
anunta
un@@
dreptul
securitate
randul
sistem
Basescu
par@@
eri
pune
am@@
ur@@
Z@@
is@@
nationale
banii
ajuta
Paris
permite
2012
niciun
iu
The
dosarul
singura
Islamic
intra
os
adaugat
Klaus
greu
f@@
atul
il@@
finala
intampla
23
direct
ultimele
casa
et@@
arilor
facem
A
ultimii
a@@
incepand
dea
jumatate
ultimul
Oprea
final
dezvoltare
posibil
metri
vine
5@@
produse
sursa
situatie
lege
Dan
atia
drepturile
Simona
urgenta
dimineata
Moldova
numar
om
omului
Dle
locale
mine
AFP
27
putut
sociale
totul
minute
dintr
anta
legea
raspuns
privinta
aplicare
masina
internationale
activitatea
ant
ul@@
cate
favoarea
Gabriel
legate
reprezentantii
dez@@
necesare
meciul
compania
nationala
im
teren
oficial
Cluj
erea
st@@
dezvoltarea
esc
conditii
ag@@
op@@
Halep
usor
intrat
eni
bugetul
dosar
is
saptamani
J@@
succes
plan
american
sustinut
recent
2009
adevarat
vederea
imediat
presedintelui
ad@@
Europei
trecuta
arile
considera
control
TAGURI
cuvant
guvern
ofera
niciodata
ONU
prezentat
tip
2010
national
av@@
statul
programul
sens
26
decizie
date
sustin
totodata
nimeni
W@@
total
ramas
Ciolos
Liviu
en
anumite
majoritatea
partid
realizat
car@@
itatea
clubul
FC
acasa
poti
lista
schimb
sef
tine
Agerpres
28
diferite
lipsa
modul
explicat
motiv
incepe
cetatenii
martie
cursul
aratat
social
6@@
cere
ziua
anii
gasit
irea
Nationala
co@@
stare
ura
serviciu
cetatenilor
altfel
servicii
mediu
2008
stie
liderul
atori
razboi
lucruri
vreme
obtinut
2011
sanatate
sai
ti@@
jurul
problemele
iz@@
ase
sprijinul
em
functia
printr
multa
arul
drepturilor
niste
trimis
aduce
60
irii
energie
ulterior
dl
mar@@
mondial
scopul
atiile
pozitia
anti
plata
acuzat
ap@@
atiei
ab@@
online
7@@
Italia
dus
alegerile
deschis
propunerea
easca
strada
scurt
ol@@
Guvernului
incheiat
refugiati
citat
afirma
referitoare
circa
centrul
ali
sectorul
ieri
actiune
azi
ant@@
statelor
alti
transmis
Adrian
persoanele
lucrurile
simplu
intrucat
adica
adus
U@@
lunii
ante
posibilitatea
p
om@@
enta
produs
abil
atorii
Statele
facute
Mircea
sapte
vot
ot@@
grup
pas
procedura
Ungaria
.@@
media
aprilie
crescut
atentia
vin
semnat
29
ez
.ro
lansat
31
relateaza
y@@
os@@
director
proiecte
multumesc
c
europeni
externe
firma
masurile
zece
comuna
8@@
acesteia
Reuters
financiar
90
directorul
international
iata
Ioan
um@@
mentionat
membri
conducerea
sper
In@@
ajutorul
rolul
acordul
vedea
sedinta
inchisoare
judecata
iile
Craciun
consider
us
inregistrat
Gheorghe
masa
Traian
ine
C
duce
acordat
declara
regiune
copiii
poata
tr@@
sta
Andrei
ch@@
votul
9@@
doreste
experienta
presedinta
Bulgaria
asistenta
nostri
adresa
atiilor
primarul
k
Foto
program
proces
mana
et
lua
Curtea
publicat
tineri
legii
deci
ut
pl@@
Times
Constanta
lung
subliniat
companiei
Sorin
d
condus
membrii
fonduri
itatii
Ion
Spitalul
vreau
companii
puternic
Popescu
es@@
incercat
Bogdan
Britanie
transmite
Guvernul
Nationale
participa
personal
asteapta
ente
China
solutie
demisia
Mar@@
spital
premier
atorul
Croatia
putere
Nicolae
grupul
etapa
Bruxelles
inter@@
vina
singur
punctul
vara
rezultatele
Capitalei
Republica
investitii
200
v
viitorul
organizat
us@@
Dinamo
stabilit
D
sediul
abile
participat
intamplat
Alexandru
500
sub@@
orasul
odata
Liga
ete
video
ed@@
oc@@
ec@@
contextul
ajutor
vorbit
reducerea
sistemului
tul
finalul
primi
financiara
cazuri
tocmai
2007
comerciale
sprijin
propus
politici
necesar
sute
conferinta
principal
atorilor
destul
valoarea
femei
rapid
ridicat
int@@
45
actiuni
ist
viitoare
judetul
Brasov
comisar
influenta
guvernului
joc
mama
opt
rol
macar
zeci
nr
diverse
ezi
persoanelor
contract
exact
citeste
incearca
internationala
merge
creste
rau
februarie
con@@
institutii
mica
intrebat
eau
echipei
jucat
eveniment
mic
Mare
g
Maria
instanta
tii
35
domnul
Florin
80
urmand
zilei
li
coruptie
TVA
curand
sigur
abia
masini
aj
iul
seama
confrunta
strainatate
oasa
eti
rus
z
comune
Ministerului
escu
abila
initiativa
Macedonia
000
WTA
ov@@
intermediul
incredere
familia
aparut
oras
Ucraina
opinia
actuala
Piata
sociala
h
partidului
jos
auto
ma@@
pretul
liderii
adoptat
isti
cap
ir@@
domeniu
az@@
solutii
Al@@
em@@
politia
complet
Cristian
International
id@@
trafic
omul
ane
vad
crearea
Primaria
ideea
banca
transport
romanii
dau
vigoare
rezultate
70
BiH
militare
cineva
Spania
cont
buget
analiza
mita
urmatoarele
local
Vasile
Radu
comun
raniti
Daniel
ambele
pagina
E
discutii
ocupa
mesaj
alegeri
Timisoara
of
medicale
plecat
eficienta
sansa
forta
carora
alul
tarziu
economic
finantare
cal@@
ut@@
motive
inc@@
AGERPRES
societatii
&amp;
Universitatea
institutiile
Capitala
af@@
br@@
speciale
curs
solicita
necesara
crizei
cetateni
ig@@
km
iilor
oferit
oferi
S
trece
proiectului
col@@
y
folosit
barbat
itoare
ro@@
itor
vizita
celelalte
cererea
Rusiei
ajunga
lucreaza
An@@
po@@
atac
b
interne
pacate
societatea
tema
marcat
politicii
sp@@
serviciile
com@@
fotbal
autoritatilor
acea
uc@@
poarta
ing@@
dumneavoastra
vremea
situatii
altor
prezinta
interimar
cunoscut
Putin
oare
II
film
cul@@
Ziare.com
altii
oase
eta
Guvern
George
jucatori
+
ancheta
limba
est@@
Sud
german
Astra
deveni
ene
ciuda
familie
scena
obtine
oamenilor
eforturile
stim
iarna
cativa
dreapta
activitati
imigranti
di@@
parti
scor
evident
ba
B
aprobat
orul
orasului
activitate
sud
noaptea
Judetean
ista
atentie
propunere
teroriste
min@@
initial
ian
prevede
ex@@
suta
ada
indiferent
anterior
sala
protectie
partidul
New
datorita
solicitat
enii
cre@@
protectia
politistii
dezbatere
Nord
declaratii
fiscale
rata
caruia
anume
facuta
300
dorim
teritoriul
atului
clasa
discutie
liber
anti@@
economia
erul
ocazia
doamna
studiu
oara
normal
Externe
politie
angajati
altele
Lisabona
orii
iri
Ar@@
Arad
adevar
fiscala
femeie
ev@@
est
totala
acces
mediul
grupului
ist@@
actualizare
copiilor
discutat
cariera
treilea
rezultat
scazut
Marius
dorit
uta
zone
inteles
fortele
vedem
Becali
cale
ila
oficiala
scoala
limita
istoria
Domnule
Stefan
spatiul
09
erilor
acel
pozitie
intalnit
Udrea
General
Interne
cur@@
vorbim
kilometri
lider
M
vrut
R
conduce
lumii
vizeaza
numeroase
SETimes
iesit
schimba
2006
ini
pericol
es
numara
firme
frontiera
primar
aspect
premierului
acesti
zilele
grava
castiga
cercetare
careia
cer
Turciei
partida
restul
domnilor
depus
discuta
intotdeauna
izare
sotia
regiunea
inaintea
pietei
Ch@@
joaca
relatiile
iste
grave
-@@
O
puna
Moscova
precizeaza
morti
fim
parlamentare
Y@@
FMI
cooperare
practic
discutiile
ui
P
Belgrad
Re@@
Volkswagen
judiciar
St@@
to
repede
detine
ent
pas@@
lasa
intrarea
internet
Constantin
romanesc
lea
nume
tarilor
cl@@
durata
agentia
act
subiect
condamnat
creat
fi@@
18@@
per@@
itati
pur
PIB
za
Oprescu
2020
ez@@
vezi
Dacian
referitor
scorul
tinut
risc
echipe
aflate
pret
CE
numit
Statul
practica
Southeast
faci
Catalin
faptului
IT
exprimat
faza
desigur
accident
lasat
estul
rezultatul
cooperarea
man
zonele
devina
nascut
si@@
descoperit
mereu
actiunile
partidele
interviu
medie
na
declaratie
penala
centru
rec@@
Romane
enti
suprafata
08
invins
dis@@
man@@
accesul
copil
iv@@
sc@@
tie
mers
rea
scop
guvernare
contra
romanesti
post
trebuit
stanga
singurul
Targu
partide
asadar
calea
cadru
vechi
dovada
industria
inv@@
urmat
oficialii
su@@
ras@@
serviciilor
atorului
francez
apel
celui
medicii
reg@@
Polonia
club
planul
armata
ent@@
meciuri
icii
2004
Elena
erile
izat
crede
aspecte
grav
aeriene
19@@
sus
mandat
schimbat
decizii
calitatea
doamnelor
datelor
07
refugiatilor
colegii
citate
moartea
cr@@
drum
ast@@
Greciei
muzica
juca
propune
acorda
anual
sfarsit
puternica
controlul
antrenor
Andreea
izarea
victime
Albania
ac
explica
naturale
postul
Ploiesti
noapte
Cor@@
recunoscut
corect
starea
usa
eg@@
spatele
parcursul
fiscal
dispozitie
barbatul
ridica
specifice
suplimentare
intalnire
05
arului
Universitatii
vi@@
independenta
0@@
detalii
Londra
sine
inalt
companie
mei
suficient
punerea
existat
mon@@
vreo
r
iza
vrem
SC
ai@@
securitatea
nord
Ligii
aplica
sezon
societate
conformitate
americane
interesul
considerare
maine
dispus
include
32
bl@@
Paul
Ultima
vietii
eficient
penal
economiei
Con@@
femeile
citata
deloc
fosta
bugetului
fr@@
propuneri
luate
drumul
fostului
multor
Mures
perspectiva
fondul
Obama
esential
natura
negocierile
ramana
TVR
noile
Politiei
ise
reforma
locala
interes
plati
oficiale
etc
utilizarea
pen@@
Justitie
apare
mele
lungul
cuvinte
aza
tanara
datele
evenimente
ep@@
gaze
acte
lucrarile
sti
considerat
gr@@
iau
voturi
Deputatilor
Sibiu
procesului
Alina
ANAF
Vladimir
SA
asigure
Statului
gol
penale
bi@@
ban@@
chestiune
Stat
retinut
varianta
Irak
legislatia
Merkel
do@@
capitala
Al
L
existenta
totii
antrenorul
format
altul
veti
adoptarea
Vlad
tului
Codul
televiziune
Br@@
cap@@
raportului
N
of@@
cauta
principala
indu
presei
companiile
distanta
ministrului
des@@
obiectiv
str@@
climatice
imp@@
economie
contracte
minim
confirmat
Craiova
barbati
puteti
conducere
Marian
familiei
organizata
turc
urmatoare
schimbare
ceilalti
victimelor
propriu
rezolutie
legale
aderare
articolul
aveti
incendiu
clubului
mesajul
purtatorul
adauga
dec@@
populatiei
impact
venituri
ologie
suferit
capacitatea
UNPR
puterea
arestat
le@@
Car@@
ati@@
dr@@
obiectivul
speranta
gasi
.com
T
desfasoara
platit
Fiscal
fondurile
York
veni
felul
principalele
fortei
Camera
are@@
Par@@
re
par
conflict
nordul
G
istii
aveau
lucrari
Tribunalul
ni
cultura
izate
puse
trebuia
tinerii
motivul
and@@
Sanatatii
2005
uit
locului
noului
ismul
efectuate
li@@
Austria
oferta
victorie
SRL
aur
03
atacuri
refuzat
06
documente
apara
diferenta
bar@@
context
secretarul
educatie
productie
te@@
realitate
respectiva
produsele
cam
dna
uz@@
obiective
Muntenegru
finantarea
lovitura
angajat
urmatorul
militara
libertatea
Imagine
absolut
vei
imagini
intentioneaza
asteptam
informatiile
femeilor
turi
intr@@
plateasca
ad
organizate
ind@@
itul
respins
33
arest
britanic
fundamentale
simt
w@@
tu
Schengen
mediului
Urgenta
ativ
Serbiei
ajul
reduce
domenii
CFR
jucator
functioneaza
itare
Curtii
model
04
asigurari
institutiilor
promovarea
riscul
incendiul
ISU
luata
vacanta
zis
performanta
respecta
relatia
posibila
the
avion
tare
realizate
fer@@
titlul
iat
granita
crea
onul
Partidului
bal@@
stiinta
militar
postat
romana
izata
folosite
critica
organizarea
sarb
fapte
toamna
abuz
premiera
buni
declaratia
aderarea
aer
intrebare
intai
lovit
filmul
leg@@
aplicarea
anilor
ofere
inapoi
americani
capat
Pr@@
categoria
situatiei
iunea
deosebit
Tariceanu
anu
femeia
refera
inte
populatia
dorinta
jur
cheie
politiei
unitati
parintii
34
mentine
Romana
realizarea
deputati
produselor
des
tia
civile
sustinerea
americana
alului
og@@
tin
se@@
1.@@
rele
procurorilor
prezenti
inregistrate
dezbaterea
evaluare
ib@@
1@@
sume
constituie
400
top
materiale
intrebari
muncii
acele
Roman
real
orase
fizice
treia
not@@
libera
2000
bucura
ute
azil
pro@@
milion
36
aru
sanse
contractul
goluri
arme
romanilor
55
alitate
carui
ing
cas@@
Palatul
fin@@
auzit
gen
iului
transparenta
por@@
calificat
Gorghiu
atele
Alba
pregatit
ter@@
devine
tin@@
Atena
permis
cu@@
grija
tur
politisti
David
ordine
primeasca
Mondial
spera
ion@@
grupa
Finantelor
bat@@
tanar
Co@@
abordare
gh@@
Republicii
responsabilitatea
to@@
programe
Apararii
dublu
spatiu
strategie
aj@@
sal@@
necesitatea
reala
preventiv
minutul
alegerilor
romaneasca
CSM
emis
Comisie
etul
Tr@@
loc@@
www.@@
interna
interese
Tudor
traficul
Marii
pacienti
jucatorii
editie
implica
violenta
F
luam
lucrat
ean
Apel
aflati
Sova
imbunatatirea
art
Frantei
post@@
externa
resurse
interventie
obiectivele
mi@@
Ac@@
momente
promis
Educatiei
scadere
port@@
sport
uti
deocamdata
uneori
tatal
El@@
speciala
75
eforturi
combaterea
revenit
Tratatul
drepturi
Radoi
introducerea
continuat
cazut
parere
alimente
productia
raman
Razvan
activitatile
itatilor
eanu
dlui
libertate
Dumnezeu
straini
Est
reteaua
Olanda
Banca
societati
istul
relatii
asigurarea
foto
tragedia
victimele
arta
uita
merita
une
activ
interiorul
itat
alimentare
X@@
tau
form@@
mn
efectuat
marea
UPDATE
ang@@
efect
deputatul
Gr@@
gener@@
alele
reprezentanti
gata
preluat
afectate
Robert
aparare
ren@@
private
costa
securitatii
apar
telefon
semnificativ
49
serios
ri@@
deschisa
pr@@
suspendat
document
Presedinte
Un@@
degraba
Bosnia
evenimentul
apropierea
eliminarea
strategia
Vest
Directiei
Bar@@
stau
vota
Stelei
majore
Partidul
medical
ajung
for@@
editia
no@@
caror
negocieri
icul
sint
be
f
erele
fiu
programului
cer@@
48
lumina
pace
plin
tratament
Africa
schimbarile
incerca
datoria
hi@@
activitatii
aerian
Camerei
existente
viteza
fii
raspunde
alizarea
majoritate
ida
foc
incheierea
schimbarea
mandatul
afecteaza
Centrul
propria
impus
can@@
Antena
1.000
asca
raspunsul
verbal
atacurile
beneficia
vada
imagine
America
evita
continue
materie
io@@
sar@@
ra
celei
acela
In
sensul
10.2015
convins
sur@@
aceleasi
ob@@
asteptat
ov
ka
condusa
studii
infrastructura
BBC
puternice
bo@@
ip@@
regionale
ordinea
implementarea
camera
implicat
apropiere
vanzare
implicate
sange
clasamentul
x
atilor
fil@@
inchis
scos
negocierilor
ost@@
administratia
articol
Madrid
gar@@
preturile
produce
povestea
mearga
semn
turneul
Institutul
1990
vorbeste
Grupului
Open
instrument
pedeapsa
consolidarea
juridice
ocazie
valorile
sectorului
sector
contine
infractiuni
amb@@
spuna
stiri
oficiali
ative
privat
relatie
turneului
tina
istorie
declaratiile
vede
Asociatia
3.@@
tur@@
costurile
cor@@
deschiderea
ativa
socializare
publicului
legi
dincolo
dle
bugetar
Casa
pozitiv
ism
disputa
37
V
ridicate
turul
procurorul
Or@@
ere@@
1,@@
respectarea
serviciul
parteneriat
umane
od@@
Williams
Belgia
urmarit
informat
fiul
Cod
campanie
Giurgiu
pierde
enilor
Publicat
calcul
structura
dificil
autor
x@@
deplin
traiesc
petrecut
banci
ucis
solicitarea
mas@@
accepta
directia
maxima
valori
Sch@@
X
150
AN@@
ilegal
putine
pun
crime
01
place
desfasurat
directiva
abilitate
fondurilor
integrarea
Securitate
38
tehnice
actualul
disponibile
acuza
inima
contribuie
imaginea
treaba
tehnica
taxe
depinde
militari
zilnic
incendiului
risca
aflata
Irlanda
sarcina
legal
justitie
n.r.
39
cresterii
proiectele
aia
intalnirea
eram
fur@@
mat@@
lunga
profit
civila
apar@@
cursa
incheie
ochii
Euro
merg
aje
principalul
intre@@
AS
5.000
votului
ama
acceptat
urmatoarea
prioritate
bancile
aduca
schimbari
pro
participarea
Campionilor
entei
contractului
capital
lu@@
Cotroceni
Bistrita
ci@@
sezonul
Chisinau
medic
justitiei
Bal@@
ver@@
coruptiei
legat
orele
tenis
bineinteles
Google
inteleg
viz@@
apropiat
redus
Centrala
John
46
consilier
consecinta
business
SRI
intalni
600
modelul
Cupa
precedent
regiuni
energiei
Justitiei
anc@@
prevazute
ide@@
solidaritate
contribui
presupune
asi
amiaza
aut@@
reducere
vorbesc
obtina
alizat
schimbul
deschide
terminat
Vaslui
frumoasa
angajatii
Statelor
spitale
intors
locurile
chestiuni
intrebarea
taxa
energetica
constatat
autostrada
adoptata
dovedit
increderea
numarului
prieteni
inei
trimite
cheltuielile
net
campania
res@@
legislatiei
Senatului
existe
unica
Ex@@
aca
Popa
electrice
candidat
avertizat
decide
generala
lansarea
publicul
65
perfect
ilegale
investitiile
origine
medicala
acordului
prezentate
11.2015
ajute
invatamant
alt@@
ela
actiunea
desemnat
bu@@
rezolva
ol
2.@@
show
contr@@
posibile
nes@@
actorul
42
regula
02
gruparea
grupuri
juridica
reactie
vedeta
Mijlociu
►
mo@@
prins
gruparii
surpriza
cind
plece
atr@@
aprobarea
inscris
Jean
pachet
val@@
depuse
efectele
consumatorilor
salariile
spate
lideri
impactul
stabili
Fondul
Democrat
obtinerea
interesele
itii
veniturile
tem@@
piesa
noteaza
marile
43
cit@@
cont@@
unitate
cerere
circulatie
stiti
companiilor
tinerilor
stabilite
Cr@@
meciului
bugetare
fortelor
44
obtinute
rapida
profesor
global
aparitia
incep
Orientul
speram
Ovidiu
corecta
ion
credit
agricultura
proba
filme
organizatii
masurilor
nec@@
boala
Horia
premiul
necesita
bunuri
iana
La
imb@@
concert
impune
spunea
ovic
Hertegovina
dificila
Lucian
supraveghere
Gigi
arie
US
joace
Botosani
2017
etele
atura
2003
comunicatul
Ankara
fac@@
dezvoltarii
dialog
luare
implicati
stii
prim@@
radio
SI
pu@@
sf@@
ial
comunicare
relatiilor
clara
institutiei
legislative
Assad
cifra
entele
firmele
adesea
grec
dreptate
trecute
Ana
treaca
rezerva
antei
comercial
De@@
marca
record
41
comunitatii
IN@@
terenul
agricole
pietele
Cristina
oi
reale
adaugand
elevii
BNR
clare
frumos
10.000
clientii
ou@@
Sh@@
verde
solutia
carte
set
domiciliu
colegi
salariul
comunitatea
adevarata
regim
mijlocul
ure@@
Napoca
ova
for
ona
Monica
subliniez
elemente
fiindca
indoiala
consumul
0,@@
realiza
itatile
obicei
aduse
tinta
nucleare
Legea
cumparat
eam
partidelor
Com@@
scurta
central
Le@@
documentul
cati
regimul
vir@@
intelege
arestare
atrage
Dumitru
firmei
mentioneaza
pal@@
ament
titlu
deputat
Barcelona
pi@@
ur
inf@@
mondiala
Iliescu
terorismului
salut
culturale
abilitatea
vandut
ah@@
ocupat
judiciare
vestul
medici
Calin
cealalta
Parchetul
stea
mp
simpla
devreme
9,@@
ko
opozitie
uite
4.@@
povestit
atins
Min
nevoia
ruse
atras
ajutat
atic
case
tor@@
Afacerilor
cota
statutul
infiintarea
atica
regimului
aturi
pauza
alizare
fond
Washington
adoptate
Angela
antul
jocul
Erdogan
use
exclusiv
asigurat
League
vicepresedintele
institutie
don@@
cheltuieli
anuntul
alege
Primariei
acordarea
ios
U
oprit
plina
cat@@
executiv
provocat
construit
orului
News
perchezitii
parlamentari
idei
urcat
sudul
lucrarilor
pusa
Suedia
majora
ena
fusese
operatiuni
miscare
prezinte
topul
modificarea
47
modificari
deschise
legata
contul
atelor
medicul
ranite
la@@
istilor
stabilirea
ea@@
presedintia
resursele
85
Suceava
iere
gresit
patr@@
arestarea
centrala
tanarul
pensii
locali
ministrii
energia
imigrantilor
hotarat
personale
ton
responsabilitate
fiica
gandit
pregateste
responsabil
au@@
2.000
progrese
uitam
energetice
demonstrat
regiunile
anchetatorii
Consiliu
rap@@
Getty
itei
pozitii
recomanda
2002
organizatiei
urii
scandal
platforma
2001
urmatorii
itori
folosi
determina
functii
non
prietenii
so@@
campioana
turneu
situat
ers
alitatea
alegerea
altceva
reforme
Sectorului
ot
io
Decembrie
Ilie
duc
victoria
colaborare
Cal@@
Pristina
victima
clienti
Elvetia
scandalul
6.@@
cant@@
permita
amentul
micro@@
preventiva
ce@@
Mondiale
ari@@
gaseasca
semn@@
zonei
dezvolta
fotografii
Norvegia
Mil@@
HotNews.ro
Images
800
acuzatiile
parerea
politicieni
traficului
if@@
straine
subliniaza
problemelor
desfasura
salarii
vicepresedinte
punctele
Marin
transportul
Mondiala
credite
tata
sufera
entul
lo@@
avionul
globala
actual
membrilor
similare
partenerii
sunteti
cuprinse
sanatatea
itorul
concurenta
locuinta
vrei
dezvaluit
cumpara
actuale
idee
presiune
evolutia
scoli
eficiente
primesc
sanatatii
carei
fl@@
51
Pro@@
dam
mentinerea
copilul
capul
oferite
creasca
pic@@
grad
actrita
me
carne
sotul
vreun
comise
apreciat
criticat
cuvantul
specialitate
reprezentat
dura
retea
aduc
ud@@
inta
CS
termenul
obligatia
Nastase
metoda
orilor
constructia
lucra
fanii
tragediei
ze
atice
Sebastian
cetatean
5.@@
evenimentele
domnului
dreptului
juridic
antii
Twitter
isa
Tsipras
cod
8,@@
deputatii
tar@@
protest
6,@@
asiguram
mie
sisteme
ASA
folosesc
stabilitate
iunii
Viitorul
cenzura
discutiilor
RE@@
primarului
istoric
partener
deciziile
unic
cooperarii
Galati
beneficiaza
specialistii
preturi
mesaje
continuarea
discutam
oricum
Finante
construirea
irile
Bancii
negativ
iala
salariilor
3.000
reusi
secretar
propriile
efecte
competitie
ajului
ese
atmosfera
etape
medicamente
participe
Canada
politicile
rutier
formatia
Irina
resurselor
revista
gen@@
acordate
spectacol
entelor
extinderea
ja
rosu
infr@@
um
orei
scaderea
oz@@
Danemarca
moneda
mass
nota
misiunea
democratice
ismului
detin@@
principiul
Sport
instrumente
primeste
intreg
ier
maxim
cunoscuta
gre@@
precizand
comparativ
implicarea
retelele
mil@@
migranti
propunerile
credem
fals
Di@@
evaluarea
erului
entii
echipele
pan@@
folosirea
ONG
utilizate
decedat
realizata
ans@@
timpului
arma
agenda
standardele
instantei
Digi
Afganistan
larga
co
atinge
iasa
informare
Val@@
concrete
ici@@
planurile
54
Ionut
Bo@@
del@@
Politie
functionare
permanent
Ziua
FIFA
premii
secunde
Ucrainei
centrale
17@@
inchise
romane
teama
cam@@
sch@@
franceza
ef@@
larg
ug@@
respective
antilor
sprijini
Bacau
Video
ir
pacientii
corec@@
familiile
noii
textul
rog
animale
reveni
mandatului
trupei
Istanbul
recunoaste
concurs
eza
inceapa
respecte
Bank
ambasadorul
iale
Hagi
ula
corespondenta
iune
generale
sol@@
usi
ern@@
hotarare
1989
dr
fo@@
normele
proprii
osi
familii
reglementare
rusi
democratie
piese
moarte
Presedintele
globale
izarii
weekend
cladiri
boli
primii
respect
coloana
Doamna
IMM
intentia
competenta
elevi
voie
12.2015
acorduri
Tratatului
Pro
linie
apararea
subiectul
7,@@
intelegere
masinile
India
Federatia
inalta
arate
cancer
depasit
destinate
locuinte
prevederile
Prahova
Col@@
profesionala
tone
blocat
galben
picioare
preturilor
biserica
meciurile
parlamentarii
greseala
spunem
tele
avioane
cot@@
prezidentiale
munte
egal
coeziune
ALDE
onor@@
ou
MEDIAFAX
52
ins@@
priv@@
rapor@@
scapa
Regulamentul
pregatita
ISIS
aveam
crezut
vreodata
cultural
temperaturile
reprezenta
56
Baia
aria
cheltuielilor
directe
Pre@@
rez@@
major
sim@@
Japonia
exprima
tiei
guvernamentale
rusa
petrol
ser@@
tat
mobile
observat
disparut
aflau
parlamentar
etului
germana
Eugen
Tur@@
atoarea
Agentia
ten@@
marginea
reactia
afectat
simtit
Viorel
acuzati
punem
alii
sirian
institutia
material
Sal@@
transforma
politicienii
by
tragedie
comisiei
publicatiei
purtator
candidati
criterii
scrisoare
organizatia
AP
trupa
caz@@
bomba
Federatiei
Stanciu
integral
procedurile
red@@
ach@@
conteaza
confirma
sem@@
curent
potential
clas@@
Dna
Germaniei
educ@@
dosare
definitiva
reprezentant
Serviciului
schimbe
exercitiu
intregii
1,5
sanctiuni
AR@@
domnule
procurori
reprezentand
é@@
tehnic
dati
primavara
scrise
forte
ses@@
completa
pozitive
iesirea
ay@@
regionala
reze
esentiala
avocatul
consum
legislativ
sumele
pleaca
avere
Blaga
democratiei
trai
faceti
populatie
ich@@
impiedica
consideram
ranit
Israel
itele
componenta
intervalul
caracter
agentii
carti
urat
competitiei
facand
poporul
up@@
formarea
specialisti
64
esentiale
invitat
alitatii
ung@@
minime
antului
duca
DIICOT
adjunct
Arafat
refuza
Iulian
iti@@
cercetatorii
soferul
Tecau
Publice
aflam
angajamentul
slab
strans
proteja
mor@@
directa
Codului
tim@@
informatiilor
renuntat
Am@@
efort
jucatoare
Mon@@
spalare
transformat
publicate
fizica
Sp@@
me@@
turisti
bancar
determinat
Parchetului
Reg@@
Directia
III
documentele
7.@@
municipiului
maxime
2,@@
dezbateri
magazine
banilor
fund@@
ven@@
putini
juc@@
nastere
Rad@@
Ad@@
marii
itorii
eria
raz@@
Sofia
Transporturilor
ota
numita
Slovenia
4,@@
intoarce
cum@@
sportiva
teme
Anglia
calificarea
Transilvania
administratiei
parinti
apararii
atentatele
Man@@
Festivalul
depasi
ule
amenintare
alizata
ies@@
razboiul
intreprinderile
revine
crima
propuse
sil@@
rel@@
impuse
Pal@@
K
rei
ceara
deb@@
misiune
atacul
10@@
scara
obligatorii
incheia
interventia
comisarul
compromis
autoritati
ava
pregatiti
Buzau
bazeaza
cunosc
experti
spunand
semnal
fruntea
constructii
incident
stabilitatea
provocari
Dacia
centre
Radio
Valentin
one
cartea
tras@@
be@@
Iordanescu
modele
Inspectoratului
anumita
reguli
iuni
alizate
studenti
convenit
Balcani
vest@@
Hollande
sedintei
Ilfov
bil@@
poveste
Petrolul
editor
parasit
linia
semnificative
ect@@
recente
der
Per@@
ministri
noroc
electrica
Ghita
agentiei
dvs.
proceduri
som@@
intern
personala
Gu@@
parea
ace
j
Laura
Le
cuprinde
evidenta
text
DE
imaginile
antele
&gt;
autoritatea
planuri
Serena
Ci@@
sustinere
comanda
pat@@
700
sarbi
Grupul
Martin
ra@@
renunta
referire
Sfantul
intele
propriul
intalniri
salvare
invata
pleca
super@@
constant
sprijina
medii
Alex
circula
pasageri
atata
der@@
privata
activa
rezolutia
enti@@
patrati
rece
foloseasca
stat@@
vis@@
marc@@
teatru
camere
95
pragul
credinta
mal@@
evaziune
57
up
FRF
totalul
dele
dist@@
adopta
53
licitatie
Rom@@
inculpatul
principale
Agentiei
etei
retelei
tai@@
pregatire
studiul
droguri
Har@@
centr@@
Im@@
met@@
folosita
expertii
arestati
localitatea
ha@@
itara
adevarul
considerata
terte
Uniune
invatat
gestionarea
definitiv
principiu
imbunatati
Anghel
tal@@
functionarea
scri@@
strategic
Am
Asociatiei
electorale
och@@
inde@@
investitiilor
ain@@
forme
CNADNR
emisiilor
multumit
zero
dul
itata
100.000
lac@@
dor@@
gest
indica
dispozitia
fetita
De
secrete
uni
num@@
James
sos@@
romanca
IS@@
motivele
majorarea
colegilor
personalul
Viena
Real
ific@@
fabrica
sec@@
58
facea
sex
mobil@@
aloc@@
Min@@
medi@@
sin@@
Cupei
incercam
Orban
indicat
UN@@
tehnologie
vest
ed
asigurare
Cehia
piete
aferente
mecanism
succesul
mus@@
actul
structurale
soldat
depune
ru
suficiente
cop@@
armatei
personalului
apartine
nem@@
complicitate
izeze
Finlanda
reprezentantul
59
Barack
acorde
revina
turile
semne
dem@@
intreprinderilor
alelor
Clubul
runda
inscrie
aruncat
anda
identificat
Americii
ator@@
Anticoruptie
dar@@
copilului
sustina
Petre
spitalele
vorbi
uman
tipuri
cercetari
standarde
ke
proprietate
angaj@@
Berlin
pina
scapat
ordonanta
prevenirea
City
off
negative
discursul
ard
cunoscute
ker
anticoruptie
undeva
eliberat
independent
producatorii
marele
neagra
Matei
aparea
inceperea
manifest@@
reun@@
active
Pl@@
Mirel
modificare
Casatie
test@@
pic
Severin
demonstreaza
tura
gradul
RA@@
sirieni
jocuri
ru@@
ley
ola
deciziei
primite
Internet
referendum
preia
saptamanii
vizat
anticipate
datorii
jurnalistii
tras
pres@@
50.000
play
integrare
ASF
iva
comertul
afecta
rest@@
primului
usoara
chestiunea
per
scoate
regulament
prabusit
exceptia
ta@@
bancare
Legii
pacientilor
dedicat
trecerea
vizitat
prieten
uc
conflictul
du@@
zbor
gura
terorist
sustinuta
promovare
spor@@
arg@@
jurnalisti
abordarea
poporului
H
uitat
egalitate
Brazilia
excelenta
estimeaza
guvern@@
emisiunea
provinciei
Social
foloseste
MAE
ak@@
nic
fotografie
trad@@
evenimentului
elul
accidentului
sunat
pol@@
ajungand
senatorul
dvs
intreprinderi
Petr@@
ure
termin@@
Wimbledon
reduse
ridicata
comis
coruptia
permanenta
temperatura
comparatie
deasupra
Valeriu
feminin
intregul
liberalii
Serviciul
1999
italian
99
trecere
invat@@
66
Ministru
schimbarilor
actor
20@@
tei
surprins
judetele
lucreze
principiile
gandesc
Slovacia
gasesc
inform@@
mingea
contributia
viol@@
pamant
randuri
250
refugiatii
itar
tratat
astepta
castige
punc@@
internationali
th@@
Celsius
religioase
Dezvoltare
conf@@
Arena
63
retras
proiectelor
he@@
judecatorii
consecinte
unea
deficit
cai
corespunzator
durabila
accidentul
activitatilor
Fr@@
presiunea
Pi@@
adopte
durat
parteneri
ologice
vanzarea
pornit
contribuit
salariu
sefii
noilor
clientilor
mit@@
gratuit
provocare
obiectul
frica
probe
Fondului
Pitesti
art@@
retele
indic@@
atacat
utului
olul
constructie
procedurii
programele
lin@@
Apple
locuitori
*
lic@@
UEFA
inclus
inteleaga
mijlocii
conditiilor
decenii
criteriile
ner
domeniile
presiuni
dubla
pregatirea
mijloace
lux
politicilor
iub@@
Pandurii
8.@@
detinut
reformele
sosit
categorii
polit@@
16@@
mer@@
aminteste
electorala
comert
bucur
tel@@
oper@@
urg@@
grea
partile
vin@@
ima
67
remis
reaza
ratat
similara
angajatilor
aplicate
Film
frumoase
opozitia
finalizarea
obisnuit
anumit
protejarea
conflictului
publicata
cereri
lupte
ino
generatie
Fl@@
formata
competitia
ca@@
conturile
beneficii
aspectele
sun@@
regulile
Niculescu
avertizeaza
Roma
itorilor
bugetara
izeaza
contact
trait
trans@@
justitia
incidentul
municipiul
creeaza
tratamentul
neaparat
sistemele
ide
echipamente
mancare
cata
legislativa
Australia
acuzatii
acces@@
fratele
med@@
directie
72
arm@@
tre@@
vehicule
postului
regia
62
Institutului
parca
educatiei
Municipiului
Str@@
profesorul
Portugalia
costuri
strazile
Oana
libertatii
conv@@
popul@@
erelor
electoral
insolventa
Nu
son
inchisa
arele
RS
Tribunalului
natural
armate
Senat
aci
fic@@
intervenit
diesel
renunte
tit
razboiului
&lt;
ax@@
ME@@
dispune
profesionale
ameninta
calatorie
concerte
atitudine
Campionatul
20.000
coalitie
Sala
hotel
bilaterale
Ionescu
iesi
riv@@
ucisi
guvernele
insemna
rusesti
Luc@@
ade
CJ
competente
Politia
felicit
lunar
reflecta
estimat
spatii
distr@@
cercetat
creeze
biroul
prost
gasim
astea
adunat
sefa
solutionarea
val
istorice
Curte
importanti
garanta
Victoria
reprezent@@
simti
pa
organiza
realitatea
progresul
cazurile
jur@@
Mc@@
secret
rezolvarea
accepte
consult@@
parlament
Michael
fenomen
controlului
jumatatea
intei
Conturi
ies
industriei
fericire
memoria
deplasare
franceze
pasi
tarea
turci
terorista
sursei
id
caldura
#
vointa
economii
turism
batut
astept
imposibil
incalcarea
kg
inele
erie
tate
oricine
circulatia
slabe
inul
CSMS
eliberarea
crize
clasament
aspectul
tendinta
tale
imagin@@
alb
democratic
celalalt
ter
ziarul
icilor
aplicat
salv@@
introdus
UDMR
mentionate
croat
supr@@
proces@@
corespunzatoare
Alin
Departamentul
serioase
intocmit
aminte
izolat
Turneul
amenda
alin@@
sursele
primei
totalitate
comisie
noptii
Coreea
utilizat
gol@@
bilete
Be@@
pe@@
anunt
corpul
imprumut
inchiderea
pachetul
consecintele
diferit
apropie
negru
CNA
relativ
soci@@
judete
iubita
pozitiva
dificile
lip@@
anterioare
deosebire
partidei
ram@@
individuale
favor@@
aparat
cererii
energetic
ui@@
organizatorii
fe@@
saraciei
summit
dezvoltat
tinand
publici
consta
Un
opinie
desc@@
rul@@
prioritatile
miliard
incluse
sefia
las@@
evoluat
mag@@
operatiunile
icului
comunitar
cumva
itorului
admis
demonstr@@
van@@
Ministrul
posturi
secunda
colectiv
SE@@
Club
efectuarea
sarbatori
jurnalistilor
Ioana
concret
artisti
anca
CE@@
actiunilor
Se@@
France
sansele
banda
consumatorii
calitatii
culoare
deze
ibil
bancilor
promova
redusa
ocuparea
telefonul
comentat
pui
ali@@
cunostinta
initiative
abil@@
semnificativa
actu@@
chemat
eana
cluburi
ologic
aliza
ri
Zagreb
aga
Centrului
bul@@
Bulgariei
Asia
acordata
Organizatiei
seria
compar@@
puteri
bel@@
regional
5,@@
onoare
sefului
izati
Mo@@
gl@@
age
onului
bloc@@
Budapesta
Piedone
ge
din@@
stiut
ho@@
observa
administrative
11.@@
En@@
elaborarea
ferm
ajelor
adecvate
stadion
Octombrie
reprezentantilor
engleza
Alexandra
actele
vandute
obligatiile
capacitate
adun@@
contractele
coalitia
administratie
util@@
86
cos@@
monitorizare
efectiv
favorabil
itiei
alerta
management
practici
soarta
tabara
generalul
Teatrul
cunoaste
rezerv@@
lichid@@
fa
inregistreaza
remarcat
net@@
dragoste
grele
victorii
incercarea
desfasurate
sportive
elaborat
reduceri
Bel@@
12.@@
politist
idul
Gal@@
indeplinirea
Iulia
entului
az
ater@@
candidatura
audiat
soldati
fete
1995
scuze
proteste
parlamentara
suspendare
78
obligatoriu
anei
Ur@@
avantaj
Tar@@
izbucnit
comertului
Claudiu
jucatoarea
ah
invitati
minte
depusa
ber@@
insula
lemn
deosebita
calda
mur@@
ordin
ovici
turca
transferul
elui
turilor
Aliantei
Informatii
Comitetului
omologul
vicepremierul
legaturi
Er@@
alcool
sat
smartphone
emisiune
sportiv
similar
apartament
litri
68
savarsirea
kilograme
..
detin
Croatiei
caci
campionat
simte
Grand
conducerii
MA@@
fel@@
Ber@@
adecvat
vi
partial
muz@@
emise
organizatie
legislatie
mobil
No@@
organizatiile
permiteti
nucleara
Administratiei
den@@
Anca
urmareste
traditionale
cred@@
utilizatorii
buc@@
Ag@@
concluzia
verifica
Ev@@
Macedoniei
element
barbatii
ceata
Zilei
electronice
Black
civil
afirmand
ier@@
motiunea
construi
Emil
recenta
infiintat
uriasa
liderilor
unda
Gh@@
oni
Gar@@
creditorii
ilegala
prevazut
ort@@
terenuri
democratia
veniturilor
patronul
cercetarea
ech@@
cerintele
3,@@
titluri
minoritatilor
bate
gama
transfer
Ros@@
sprijinit
incetat
fructe
urmarire
sexuale
ofici@@
Mos
fiecarui
lansata
membra
solidaritatea
stabileasca
stiintifice
sezonului
IC@@
numirea
unice
urmata
generat
bord
person@@
raspunda
gandim
Muncii
educatia
mes@@
semifinale
Dragos
Ter@@
dialogul
itarea
focul
vari@@
invinsa
interzis
platite
alimentara
ay
San@@
nice
Mor@@
pet@@
neg@@
vo@@
termeni
maximum
oportunitati
somajului
procuror
respectat
romanul
ade@@
scrisa
profund
Ungariei
multi@@
intreb
Razboi
auto@@
medicilor
iunile
ochi
obiecte
Natiunilor
trec
Dr@@
invent@@
bas@@
emisiunii
stul
elimina
rachete
Situatii
armon@@
dai
economici
plat@@
responsabili
inat
discurs
89
continutul
dei
reuseste
declansat
motiv@@
provin
devin
ministerul
aviz
executare
ano
del
har@@
acordurile
top@@
div@@
Roland
gaz
atate
itarii
Bute
itului
salariale
cladire
pofida
judetului
germane
opera
arsuri
multime
tehnologii
distributie
ero@@
incalca
83
consultari
modalitate
cotidianul
drumuri
suspect
mainile
revenirea
modificarile
prefera
ey
comentarii
71
formula
proprie
universitar
grupurile
statutului
interventii
deputatilor
reactionat
MAI
cumpar@@
ran@@
sprijine
cautat
coalitiei
intelor
cantareata
ga
procent
Ed@@
intrare
mijloc
vinde
ua
initiat
mondiale
extraordinar
opozitiei
Facultatea
RADET
Libia
beneficiat
absenta
interesati
rezulta
CO@@
Mihaela
Comitetul
prevederilor
regiunii
inregistra
strategii
let@@
mac@@
purtat
oficialul
contin@@
programata
but@@
negociere
120
vizelor
incep@@
norme
9.@@
61
Ban@@
avionului
trag@@
filmului
desfasurare
Poli
cresteri
Chinei
tiile
Valcea
14@@
Daily
Skopie
cumpere
functiona
afectata
urmator
afacerile
standard
violente
alternativa
ment@@
magazin
trec@@
ATP
74
ub@@
libere
campion
sofer
ridicarea
autoturism
luati
solicit
avocat
preferat
atitudinea
vanzari
Group
mil.
intereselor
lase
deschidere
consens
teroristi
Moldovei
rot@@
ariu
sincer
industrie
reuniunea
articole
Te@@
inregistrare
parlamentului
rezistenta
preveni
n.red.
apropiate
potentialul
lucratorilor
ansamblu
cad@@
afle
spiritul
hotararea
supus
frauda
dinspre
referinta
reuniune
legala
considerate
10.@@
Iran
destinatie
problemei
minut
Nichita
uiti
Barroso
surselor
Cipru
break
deficitul
semnarea
World
Internationala
Haga
oricand
prezente
oportunitate
desfasurarea
alocate
informatia
pierderi
echilibru
inving@@
bilantul
finalizat
utul
greva
parcurs
a.ro
olului
star@@
eri@@
uiesc
oane
identitate
comisia
Egipt
69
interesant
indeplineasca
Autor
cumparare
numeste
conditia
abili
opus
dans@@
cerul
autorul
nevoile
alizarii
bag@@
doctor
sigura
test
vorbeasca
ha
vit@@
mergem
riscuri
Voluntari
ocup@@
stabileste
participantii
men@@
interior
stadionul
Belarus
Q@@
cautare
profesori
introduce
Inalta
ingrij@@
Noiembrie
perioade
Saraievo
Copenhaga
negoci@@
Grigore
Ge@@
periculoase
distribu@@
atare
judec@@
Alianta
dur
di
amendamente
amente
programat
obiectivelor
AT@@
adresat
permit
rezerve
Culturii
asumat
gu@@
ajele
dovezi
CN@@
conferinte
amenintari
tun@@
aduc@@
afacere
insot@@
Executiv
Su@@
erei
folosind
voteze
Tanase
calcul@@
PE
urca
Britanii
contributie
he
76
internati
zic
Microsoft
animalelor
88
Ro@@
Bur@@
televiziunea
sondaj
normativ
obligat
stil
dest@@
software
finale
concertul
imigrantii
pacii
dificultati
scolar
depuna
Cameron
Sanatate
dnei
datoriei
gasite
urmaririi
calificare
ex
granitele
obiect
casele
platesc
vantul
optim@@
trimita
controale
efectueaza
actioneze
totale
propunerii
temporar
far@@
rezultatelor
73
publicatia
urmarirea
aur@@
reformelor
crimin@@
participanti
stabilita
britanica
obligatorie
Bashar
Mal@@
viza
placut
eliminat
prezentata
a.@@
anim@@
iene
bursa
PL
costurilor
ER@@
conced@@
flori
ataca
realiz@@
distrus
Pol@@
automat
Raluca
fotbalul
doctorat
pierderea
raspundere
AS@@
start
Biserica
apei
Bi@@
urias
dependenta
atent
poz@@
bloc
modernizarea
cautarea
oferte
extrema
incercare
angajament
Administratia
gal@@
77
solicitare
subiecte
retragerea
instruc@@
incheiate
locuitorii
Li@@
Cimpeanu
Laurentiu
roman@@
completat
factori
lire
lov@@
4.000
Sel@@
fosti
handbal
baz@@
act@@
valor@@
provincia
vedeti
raza
conditie
qu@@
tehnologia
trimisi
lotul
modern@@
brut
metode
13.@@
inii
superior
proasta
liga
veste
summitul
Raed
dragi
do
cifre
democratica
efectul
vis
intarziere
actiona
plaja
carbon
patra
decisiv
costul
domn@@
Bor@@
Reprezentant
grav@@
nivelului
particip@@
Ashton
alocat
fis@@
vinovat
org@@
audieri
84
grad@@
exceptie
Serban
reduca
TE@@
ins
Ivan
Mihail
luarea
bordul
evenimentelor
consumului
conduc@@
traieste
exp@@
anumitor
viitorului
Internationale
bunurilor
itelor
sferturile
J
hi
lovituri
estim@@
itari
spitalul
demisionat
piele
Star
deplina
actioneaza
premiu
Reghecampf
greci
dezvoltate
puterii
bun@@
auz@@
replica
trez@@
pompieri
pescuit
ologica
bazata
put@@
explicatii
recomandat
ST@@
DE@@
ationala
Fotbal
corecte
Braila
Ne@@
atacurilor
ros
uriase
datoriilor
impactului
fizic
Mercedes
inst@@
principii
extr@@
fericit
aeriana
umana
ole
Ciprian
ania
uale
nel@@
lipsit
Tadic
Drag@@
favorita
hectare
vanzarile
categorie
birou
detinute
82
electronica
sesiune
unitatea
eul
cadou
gratie
cazare
afectati
marilor
pusi
consolida
studentii
populare
Mat@@
acc@@
Garros
sugereaza
atatea
inchide
organism
mijloacele
PDL
usul
opri
Carmen
iera
contrar
medic@@
alesi
Mir@@
extindere
mic@@
adresata
ret@@
FR
trage
6.000
ro
bancii
hot@@
tea
Muzeul
Bucurestiului
tu@@
Jiu
arb@@
frecvent
Niculae
faliment
campaniei
bin@@
realizeaza
politistul
atentate
Beijing
producatori
irilor
misiuni
islam@@
responsabila
mut@@
refer
actori
manager
casei
inov@@
Neagu
PC
cuplu
pac@@
organizeaza
aturile
repriza
nation@@
turistii
aman@@
87
relor
Chelsea
tipul
vocea
declar@@
continut
SMURD
extraordinara
substante
artistul
indeplini
alerg@@
riscurile
prop@@
judecatorul
investit
achizitii
112
horoscop
CNN
ust@@
maniera
Chiajna
fundamental
parintilor
ruta
Pen@@
eroare
lim@@
orile
DPA
tren
gand@@
past@@
FOTO
inculpati
mort
moderne
Spitalului
chin@@
valabil
tranz@@
tra@@
rock
retinuti
treime
eforturilor
producator
pescuitului
diplomatice
luand
NASA
nevoiti
satul
cote
plenul
comand@@
termina
sfert
nunta
avans
familiilor
nomin@@
iesire
asul
cladirea
judet
Arges
apartinand
suspendarea
lucram
moda
respinge
rapoarte
afacerilor
Po@@
indeplinit
facil@@
faptele
perioadei
Europe
unitatile
structuri
sexuala
excelent
prelua
spectacole
raportat
coordonarea
extins
ploi
uti@@
dezvolte
scape
amentului
....
Kar@@
strict
conect@@
oarea
recunoasterea
Cosmin
productiei
statut
TA
trupe
iv
fug@@
ajungem
25@@
depaseste
comerciala
strategice
Qu@@
pregatite
reusita
Mas@@
ionul
vol@@
tinere
analize
Georgia
hartie
IV
ezii
transmise
lapte
intern@@
rusesc
agentiile
progres
ioase
Manchester
ministerului
all@@
specific
raf@@
unt@@
vieti
procedurilor
profesion@@
aturii
Ab@@
comun@@
etica
Gabriela
79
create
proc@@
austeritate
sistemelor
BMW
producatorul
volumul
succes@@
capitolul
sen
pot@@
Sar@@
privitoare
judetene
Fil@@
bulgar
Alexis
salvat
lanseaza
liberal
tem
castigatoare
Neagra
normelor
efortul
slab@@
Judecatoria
ibile
Dunarii
atentat
album
ulei
planeta
corp
stia
utilizare
Plumb
studiului
observ@@
managerul
planului
secolul
egala
agre@@
aprobata
genul
incuraj@@
fotbalist
Gi@@
Teodorovici
duc@@
serviciului
can
ei@@
CI@@
veche
taxele
emotii
stransa
varste
internat
analistii
camp@@
ik@@
ale@@
constienti
apele
strad@@
Cl@@
emisii
atributiile
aeroportul
gestiune
termice
Prim@@
zi@@
analizat
130
dep@@
anuala
inaltime
infrastructurii
comp@@
concluziile
ime
incredibil
fetele
serioasa
istorica
furnizarea
Unit
Ungureanu
cererile
martor
haine
Medicina
rat@@
coordonare
fant@@
cancelarul
capit@@
plecarea
normala
considerabil
min.@@
document@@
stabil@@
sustinem
serv@@
actului
efectua
coasta
vot@@
orasele
Begu
Dorin
finele
Campioanelor
Colegiul
istic
Siriei
Mediului
izi
aliz@@
Adevarul
B1
jucatorul
Mediterana
ICCJ
relax@@
suna
Floreasca
sufletul
reglementari
eliminata
aplice
pagini
petrece
Festivalului
francezi
natiuni
det@@
investitori
United
suficienta
marturisit
Bisericii
dimensiuni
Satu
bot@@
locurilor
administrativ
aseara
fugit
sustinand
Nou
descris
antelor
transferat
amintim
Bucurestiul
anuale
Business
prime
chim@@
Jocurile
plagiat
zapada
Zgonea
ult@@
bronz
motor
Ceausescu
OSCE
atrag
fotograf@@
cucerit
spectatori
munc@@
lansate
ioasa
nic@@
premi@@
tiv
insusi
icile
paralel
nuclear
curtea
trimise
2,5
mosten@@
fani
sustinute
acul
min
sectoare
desp@@
etr@@
oiu
Academiei
Hol@@
VW
ili
Timis
intoarca
presedintiei
amenzi
bucurie
atac@@
ore@@
culturii
CM
Rapid
lansa
Iranul
participare
Th@@
conduca
Bir@@
etnice
cursuri
continuam
00@@
bazat
infractional
cercetarii
sanatos
resc
Palatului
ace@@
incidente
Guardian
iese
SP@@
critici
slujba
prepar@@
ocol@@
nu@@
modului
emisiile
ak
veniti
complex
util
13@@
uz
licenta
tor
investigatii
dedicata
Cas@@
puteau
obliga
administr@@
Biroul
combin@@
Valea
sup@@
1998
consuma
telor
ariile
bac@@
Tom@@
simple
studiile
zii
destinat
sprijinirea
consumatori
anchetei
discutia
sol
Inspectoratul
frag@@
tion@@
senz@@
partenerul
esec
strategiei
Pop
tab@@
lot
simpl@@
informatie
temperaturi
democratii
identificarea
SA@@
Realitatea
ame
urmari
acopera
programate
eci
decor@@
periculos
prezentarea
ocupe
canta
impl@@
construita
Enescu
Generala
asume
salva
intample
responsabile
ape
var@@
intelegem
deven@@
gaseste
situata
inalte
30.000
alitati
disputat
atacantul
ituri
prevazuta
aud
atei
ectii
sumei
plen
ioara
cifrele
alb@@
trimisa
asez@@
operatiune
finantarii
ache
ico
restaurant
Ol@@
Academia
cafea
ly
Noua
Renault
independente
factor
Energiei
Generale
cut@@
Constitutiei
legile
teste
Kovesi
defin@@
actionat
credeti
biletele
RO@@
oferim
conturi
sedinte
argint
unuia
preluarea
gasirea
Dezvoltarii
actorii
diferita
asigur@@
propaganda
ministrilor
Donald
Diana
viziune
locuiesc
spectacolul
indreapta
arunc@@
unitatii
Asigurari
Buc@@
ACS
RI@@
á@@
accesului
Pop@@
81
instrumentele
incal@@
promoveaza
time
cauzele
putina
apreciaza
confruntam
Unirii
construiasca
condamnati
lungi
rev@@
grupurilor
intregi
articolului
dare
tent@@
vanda
C.@@
frontierele
migr@@
suflet
independentei
disponibil@@
trupele
pastreze
datoriile
urm@@
contin
AL@@
etelor
interzice
unt
alista
comisii
valorilor
vizitei
mobila
iate
14.@@
varf
teritoriale
Oradea
nica
Neamt
sentinta
EC@@
itia
intreaba
Arabia
van
ofiteri
inlocuit
alilor
finantat
creata
minim@@
tentativa
societatile
formul@@
TI@@
Cer@@
profil
impresia
insistat
studi@@
Presedintia
abandon@@
pietelor
comerci@@
autoturisme
acuz@@
atingerea
Tirana
obligati
continuata
traim
.000
asociat
Bu@@
Inter@@
ge@@
Balcanii
Sharapova
NA@@
frontierei
sel@@
examin@@
Filip
chest@@
britanici
prez@@
San
Stoica
datoreaza
activ@@
egal@@
pap@@
alternative
Programul
controlate
investitie
reviz@@
optiune
Ford
ectie
USD
mentina
ili@@
magistratii
comportament
insotit
Med@@
producerea
unile
firmelor
pompierii
Simonei
integrarii
dev@@
estimata
primarii
Balan
aplicata
•
infractiunii
compl@@
1992
ars@@
patrulea
spatiului
programelor
inare
incalcat
modifica
dimpotriva
salutat
sm@@
evolutie
Hunedoara
scriu
cutremur
publicitatii
artista
Trump
coment@@
cost@@
aie
slov@@
dure
ulescu
exprim
fa@@
musulmani
aplicatia
inch@@
elevilor
conserv@@
Mag@@
greseli
ev
serii
prof@@
ajut@@
liceu
asului
straluc@@
Sim@@
pensie
contest@@
aren@@
unu
ation@@
grecesti
eli
portarul
formare
plasat
Remus
combatere
Cre@@
plateste
initiala
prefer@@
tic
festival
liderului
investitorii
mis@@
conform@@
doctor@@
povesteste
casatorit
Lu@@
false
interesate
intereseaza
ologia
Francois
arbitr@@
Nobel
PKK
macedonean
includ
Leg@@
uala
treptat
Media
Tiriac
asuma
amenintat
comunitate
vorb@@
uma
standardelor
stabila
eric@@
inregistrarea
cond@@
sav@@
inregistrata
RCA
promot@@
specialist
dieta
grab@@
Acordului
jurnalistul
alizeaza
furat
exemple
solicitam
relevante
compens@@
dict@@
prec@@
repar@@
caracter@@
tiz@@
comis@@
tru
extinde
specifica
disponibil
antreprenor@@
Omului
1991
Mergea
evite
sferturi
slaba
dezbaterii
mutat
continu@@
stilul
scazute
sare
aud@@
Vrancea
ond@@
consultati
0.000
ler
misiunii
ambii
deleg@@
gasita
speci@@
organiz@@
nave
plangere
icul@@
instalat
intens
monitorizarea
comportamentul
publicitate
scolile
ascunde
Biroului
occidentale
consultanta
poza
rezolve
preventive
piarda
migratiei
elementele
plac@@
Papa
ampl@@
conving@@
pom@@
corespondentul
lum@@
Primul
judecator
sul
presus
revizuirea
procente
concluzie
doborat
Predoiu
strazi
Saudita
bunurile
comunicarea
pozitiile
discut@@
2018
iPhone
Nasaud
Administratie
raportor
jurnalist
pensiile
parut
oarele
contractelor
aderarii
rar
Dar@@
autorizatie
Ger@@
citit
singuri
pastra
vizate
variante
ch
primita
colect@@
profesionisti
asera
subliniind
Messi
terorism
ive
culturala
tinuta
implicare
Bil@@
petrec@@
sora
individual
infractiunilor
Bot@@
aproba
Protectia
bucurat
control@@
fapta
datorie
Sumudica
comunist
refer@@
gand
Lucescu
purta
limitele
gasiti
Ver@@
Afaceri
scenariu
stiam
ferma
sen@@
despagubiri
organizatiilor
semnata
golul
Patr@@
modificat
mot@@
violentei
Chir@@
vremuri
Stan
protectiei
masinii
invest@@
metrou
Mic@@
propusa
21.@@
vs
dureaza
sarbe
cost
vizite
semnul
itie
stele
vre@@
secolului
desfasurata
aranj@@
bol@@
cartierul
acuzare
printul
guvernanta
alei
Spaniei
ariei
fum@@
spaniol
constituit
suspecti
nevoit
anulat
anuntata
amploare
celorlalte
prevederi
insista
semifinalele
tranzitie
functiile
dezastru
entie
necon@@
sigure
Ambasada
penalty
Dan@@
aler@@
abilitatii
inteligenta
pacient
strazii
ord@@
export@@
live
liv@@
difuzat
zice
pielea
Loto
mam@@
nefericire
vii
dului
amen@@
semnate
fundament@@
pilot
functionarii
repet@@
aparatul
explic@@
port
Petrescu
demarat
functionari
celebra
lipsei
cauze
turn@@
mortii
cert
perfecta
functioneze
Slam
Ma@@
public@@
unora
traseul
corpului
terenului
For@@
EURO
verificari
arc@@
admir@@
comunic@@
proprietatea
deciziilor
teroristii
Kr@@
televizor
fat@@
seturi
1,2
formatiei
Sz@@
ref@@
produsul
acuzata
pasa
menite
bere
ers@@
Trans@@
legume
utilizarii
He@@
umul
comunei
dobanda
gazda
anuntate
exercita
deschida
list@@
Olimpice
contract@@
debutul
masur@@
end@@
egalitatea
populara
hotar@@
dosarului
teritoriu
Calea
taxelor
celebrul
arunca
ars
candidatii
é
Gica
metru
evolua
El
fot@@
avi@@
artificii
aer@@
Revelion
concursul
land
baiatul
supra@@
cin@@
descoperite
alin
23.@@
imediata
combate
autorii
promoveze
repetate
separat
parlamentarilor
Bol@@
putand
Saint
parcur@@
intrerupt
Muntenegrului
delor
dur@@
Constantinescu
Dor@@
propun
ie@@
sti@@
cel@@
Fo@@
repetat
americanii
religioasa
redresare
demers
san@@
Air
Radwanska
Ce
Oltean
ANI
explozie
linii
Friday
15@@
Costin
Ben@@
filmat
AC@@
pasul
extrem@@
instal@@
osul
sensibil@@
raspunsuri
adecvata
strategica
bile
pre
drama
Albaniei
ual
Francisc
uirea
eului
At@@
piatra
reclam@@
coleg@@
Autoritatii
apl@@
proportie
saracie
dan@@
implin@@
pensiilor
sesizat
lucrare
femeii
constata
gandul
acumul@@
presup@@
revin
alarma
lauda
luptat
action@@
psih@@
primirea
core@@
incap@@
diviz@@
rurale
actiunii
vaccin@@
Parcul
provocarile
metr@@
temeiul
pai
1.500
ry
cantat
denunt@@
plec@@
Sam@@
cro@@
scopuri
Acordul
dem
Autoritatea
padure
utele
Singapore
cantitati
atit
relatat
fuga
plan@@
magazinele
mail
profes@@
Vo@@
IM@@
afir@@
exclus
dispozitiv
soferii
prinde
recuper@@
proprietarul
nev@@
itam
prot@@
judecatori
trimiterea
pat
sarbatoare
Vi@@
petrolului
judecat
gestul
inda
Mladic
inaintat
recunosc
punctat
Cristi
stabilitatii
ascuns
dic
eur@@
termic
incercand
design
retrage
aste
transmit
industriale
colaborarea
politician
Pas@@
copresedintele
suplimentar
deaza
integr@@
schi
judecatorilor
colegul
alba
ificare
furnizate
consilierul
Mac@@
transportului
reprezentata
unc@@
apr@@
cresc
supravegherea
nor@@
sotie
Voiculescu
enorm
Ronaldo
tinem
transportat
Italiei
bazele
conduse
avizul
devenind
prognoza
Sil@@
cerem
profunda
structurile
reform@@
les@@
incas@@
alist
3,5
expertiza
sat@@
amendament
ki
Regatul
calatori
profesorii
1996
doamnei
Sandu
supar@@
nationalei
prioritati
capacitatii
liberali
Maramures
sticla
Armatei
oricarei
incalcare
no
disper@@
utilizatori
secur@@
dic@@
produc@@
recuperare
itiilor
precis
prest@@
normale
pretului
ocazii
ger@@
depaseasca
caderea
8.000
organizare
accidente
900
autovehicule
dubl@@
operatiunea
10,@@
moderna
oriunde
marcate
Cornel
Presedintiei
spaniola
audi@@
Can@@
lucrul
rutiere
ã
AN
creditelor
pastr@@
infiintata
identificate
luc@@
suferinta
celorlalti
povesti
jocului
Sectia
drumurile
Banicioiu
exprimare
eventual
festivalului
cuvintele
ej@@
sigurantei
reusesc
intalnirii
inculpat
Regele
BCE
execut@@
reus@@
clipa
hrana
origin@@
astia
uie
16.@@
0.@@
campionatul
voc@@
amintesc
interzicerea
fratii
rezolutii
implice
plang@@
lipseste
Intern@@
construite
prob@@
referendumul
reusind
colon@@
fal@@
cinematograf@@
lat@@
alegere
invita
granitelor
Campionatului
Audi
difuz@@
oricarui
etate
sarba
economiile
nea
iunilor
alismul
medalii
obi@@
tribunalul
respectate
cerand
afirmatiile
Tara
urban
electronic
sh@@
achizitionat
Victoriei
miscarea
provocate
critic
intamp@@
Mamaia
Budescu
salariului
Sf
inspectorii
diminu@@
reunit
California
ick@@
recomandari
Popular
eva
pericolul
reteta
contact@@
scoata
So@@
elului
incendi@@
constient
stag@@
angajamentele
ridic@@
aratand
parc
Departamentului
generatii
beneficieze
vedete
paraseasca
dezvaluie
Van
instit@@
Boris
bog@@
Rap@@
tit@@
gazelor
Ram@@
SIE
britanice
presedintii
Peter
scolii
all
executat
sarace
lasati
Filat
contactat
asteptati
Congresul
dimensiunea
stricte
pes@@
Nita
personaj
concediu
incur@@
fiecarei
destin@@
discute
ski
Lazar
ritm
asist@@
7.000
limitat
executie
aleg
tehnicianul
publicarii
rosie
jucatorilor
cercetarile
Av@@
Pan@@
restrictii
Libertatea
urgent
amintit
identifica
Oscar
PMP
editii
etice
veter@@
picior
pastrat
prezent@@
egale
aprobate
profesional
Fundatia
frecvente
atu
dispozitive
achizitie
rate
manifesta
chem@@
Sarbu
Isarescu
popor
respectul
rudele
interval
zilor
curs@@
finantate
stirile
popular
sut
diferitele
garantii
hal@@
utilizatorilor
Bihor
lucratorii
realizeze
vecinii
categoric
arh@@
cercetatori
instr@@
fum
comunitati
Recep
rugat
retraga
ee
25.000
atentatelor
ibila
rusine
invatamantul
rapide
decida
esenta
convocat
senator
controlat
lup@@
Bas@@
sanatoasa
baiat
potrivita
dedicate
sie
alatura
ambasador
voce
trezit
implicata
sanctiunile
aliment@@
dezvolt@@
transporta
detect@@
beneficiile
clasei
proprietarii
dom@@
deceniu
complet@@
ceremonia
siv
placere
Telekom
atorie
domin@@
indepart@@
incuraja
guvernamant
secund
rosii
identitatea
centrele
intrun@@
und@@
coleg
finante
citand
scazuta
Rednic
unilor
bio@@
anterioara
conduc
paza
icat
traditie
mandate
Juncker
revizuire
Pet@@
pastreaza
ridice
Stiinte
incantat
nav@@
societatilor
prev@@
naturala
PO@@
clinica
memor@@
kosovari
sefi
dirij@@
impuscat
telefoane
sfera
pozition@@
suplimentara
relaxare
opreasca
incasat
utilizeaza
birouri
cast@@
Domnului
17.@@
Ser@@
ordon@@
@
depunerea
Concordia
sugerat
anchetatorilor
focuri
implicit
nr.@@
92
cladirii
onia
gestionare
ban
castig
apartamente
fostii
Cat@@
duri
Sin@@
aparate
primelor
aleaga
imprumuturi
impozite
testele
oria
opereaza
tran@@
obisnu@@
antren@@
Rovana
agricola
impuna
organizeze
reactii
rac@@
elen
coada
ecologice
investig@@
niveluri
cuprins
paras@@
Tunisia
celebr@@
350
ulat
Militar
rupt
optimile
lansare
foc@@
Noroc
carierei
amendamentele
Economiei
pline
sanction@@
jucam
Iancu
dovedi
15.@@
avertiz@@
pregatesc
cauzate
imbunatatire
electricitate
eb@@
esecul
tati
reciproc
Penal
clasat
masinilor
crimei
plo@@
consolidare
restaurante
procese
harta
Strategia
spirit
Lituania
Rec@@
verificarea
impus@@
Pav@@
arbitru
culpa
As@@
lungime
esuat
justifica
politistilor
masculin
Libera
Petru
aliste
guverne
lucrarea
uca
comisiile
campanii
umil@@
targ@@
Hor@@
teze
Viktor
constitu@@
cursurile
regizorul
ritmul
sarcini
ambulanta
rare
Casei
promovat
Des@@
cadouri
literatura
reducerii
detaliu
93
eficientei
raul
Grupa
Mexic
compet@@
capabil
fotografia
anularea
unanimitate
aplauze
arsi
rup@@
detentie
avantaje
comunitare
son@@
game
ignor@@
Investitii
oricare
turce
Federer
program@@
ek
frontierelor
pozitiei
confruntat
recuperarea
Mail
copil@@
oanele
98
amendamentul
vreti
Her@@
agres@@
distrug@@
ungar
CEO
antiracheta
Bul@@
oti
impresionat
luptei
benzina
genera
documentelor
torul
Pap@@
controleaza
orat
alaturat
1000
examen
reclama
Tiberiu
DN
inlocu@@
albanez
vorbind
delegatia
box@@
_
traditional
ass@@
protejeze
antrenament
Mutu
depart@@
perechea
alizeze
pasagerilor
armat
stap@@
ofiter
enc@@
tv
ificat
sufer@@
indraz@@
operatie
Calarasi
bazate
Munteanu
ereaza
votare
agricol
regret
soc@@
my
Corina
administrator
echilibrat
audienta
favorabila
1.0@@
paz@@
avioanele
Aparare
rep@@
platiti
exploz@@
Senatul
sesiunea
Por@@
Stelian
experiment@@
1,6
canicula
semnatura
Unirea
marcheaza
Pavel
mijlocasul
oci@@
Rojer
constitutionale
introduse
soare
referindu
curaj
solicitari
complexe
hai
migrantilor
iubesc
ag
meteo
AT
titul@@
sprijinim
oman@@
minus
Constitutionala
candidatul
curajul
EUR
PPE
bon@@
reprezinte
minima
reiese
Prima
lam@@
import@@
infect@@
radio@@
PT
transmisa
energ@@
versiunea
rest
lan@@
Teodor
bec@@
garantie
ingrijorare
depoz@@
asociere
conditionat
cauzat
CA
formeaza
Los
scadea
moldov@@
DA
tranzactii
atea
includa
optiuni
ves@@
Dem@@
mand@@
aplicatii
Il@@
acoperi
asii
principalii
carii
apel@@
stoc@@
facilita
suspiciuni
CSU
berg
zahar
Jose
aparute
electric
transform@@
germani
bogate
Craciunului
nefiind
arat
Mark
Premier
folos
privesc
greutate
note
ks
180
parul
trimestru
modernizare
Rus
profesionist
administrarea
imobiliare
DI@@
conceptul
Sk@@
Mourinho
Elenei
Mi@@
candida
inundatii
Dec@@
operatorii
itura
Centrale
pun@@
finant@@
Boc
parcare
Monitorul
22.@@
profita
ich
Cultural
96
operatiunilor
decesul
ON@@
rid@@
ton@@
salvarea
viitoarea
ome
varful
indeaproape
alianta
Agriculturii
viziunea
prezidential
Nor@@
fon@@
cada
autoritate
uieste
altora
intitulat
Mer@@
guvernamentala
Go@@
numerosi
ploaie
revolution@@
rating
automobile
adaugata
trat@@
oferita
sfat@@
rus@@
isl@@
aducem
investeasca
91
fericita
marfa
expl@@
Gigina
urgente
prejudiciu
97
universitati
suspectat
primari
distruge
posibilul
traiasca
executia
arte
filmele
glob@@
fenomenul
civili
oul
exterior
Scoala
200.000
clarific@@
Fin@@
intercept@@
AP@@
super
tilor
opinii
desfasoare
alineatul
demonstra
fanilor
apartin
amenintarea
fron@@
YouTube
Data
Andr@@
gospod@@
du
istica
obligatiilor
ens
pierd
ezilor
inti
18.@@
anchet@@
Tayyip
MI@@
anga
hiper@@
sufl@@
fundamentala
dotat
expert
apelul
subi@@
prom@@
corpor@@
real@@
faptelor
genereaza
comandantul
FI@@
declarand
iga
supuse
albanezi
deseurilor
Oltenia
ris@@
poze
zand
fruc@@
bogat
radic@@
detinuta
volum
oferind
chir@@
soc
comprom@@
niciunul
umanitar
castigator
Dinu
morala
pretins
Oficial
12@@
cantitate
1997
Bl@@
functiei
aparent
client
suport
edilul
dosarele
expozitie
cio@@
emisiuni
acoperit
asteptarile
NU
asculta
mul
spitalului
parlamentul
amentele
esul
starnit
oportunitatea
coborat
urmeze
spori
venite
studentilor
ES
directorului
interveni
amana
prejudiciul
majoritar
vecine
controlata
Anton
alisti
monetara
distrugerea
localitati
urs@@
coerenta
fotbalisti
intrebarile
Cap@@
raspund
ste
marketing
Monetar
Inaltul
situate
modern
Is@@
Mariana
grupari
Organizatia
eventuala
elei
cit
organismul
autor@@
ros@@
insasi
stel@@
Napoli
Resita
Mit@@
turistice
lectura
artist
mir@@
prieten@@
Cultura
eca
aborda
rug@@
Feroe
bulevardul
AF@@
bat
itiile
martori
demis
procurorului
provoaca
ioane
continuu
incet
performante
amentelor
exprimate
patron@@
majorare
rezolutiei
epoca
durabile
dialogului
profitul
scut@@
salveze
acelor
alitatile
diferentele
consolidat
lasam
locuintele
asistat
sustin@@
fiti
guvernatorul
segmentul
idului
exercitiul
specul@@
prelung@@
curata
plans
oh@@
opune
procesele
verzi
ash@@
Roman@@
medicina
vinovati
Cretu
sfaturi
capitalei
administrare
retrogr@@
efectuata
interesat
Moscovei
explo@@
surprinzator
intervina
fe
arelor
umului
respinsa
str
tiva
drag@@
franc@@
prezentare
momentele
situatiile
drep@@
poluare
platile
ucise
sporita
prelungirea
Ziarul
bataie
int
Franc@@
sac@@
Belgradul
spui
Local
avocatii
accidentat
instituirea
stiintifica
analiz@@
reven@@
ang
proiect@@
pil@@
norm@@
deseori
inflam@@
vac@@
logica
interesante
centura
dispusi
scumpe
stai
ve
intregului
rii
flu@@
hip@@
baie
usoare
atrag@@
ann@@
selectie
firesc
impar@@
amp@@
valabila
amant
Blatter
afacerea
Dolce
convinga
apropiata
raportorul
italiana
Kim
ezul
orient@@
sl@@
obligatii
vestea
agenti
Festival
ira
plas@@
asociate
nava
Liberal
Mel@@
ucrainean
imbunatatit
scen@@
function@@
parintele
Chirica
rezolvat
malul
operare
testelor
taie
Em@@
pedep@@
evre@@
gala
minister
fine
arestarii
prestig@@
Caras
imbunatateasca
rad@@
generate
1,3
log@@
faceau
dovedeste
end
rusii
20.@@
conflicte
atraga
Top
monitor@@
finantelor
impozitul
NL
autoriz@@
revolta
diaspora
mentionez
apere
punere
sacrific@@
protestele
exercitii
Vanghelie
discriminare
Macovei
putinta
numer@@
concurentei
secret@@
Constitutia
includerea
Charles
numarat
uia
ulare
motoare
periculoasa
executi@@
afectiuni
fundasul
avertisment
tribunal
inacceptabil
lit@@
Bloomberg
12,@@
Conventia
vic@@
Tri@@
solutiile
acordurilor
primire
transferuri
suc@@
proprietati
Novak
versiune
arbitri
bara
Anul
Bica
gin@@
actionar
exercitarea
15.000
umanitare
primiti
cuplul
recunoastere
Plus
miza
ES@@
hol@@
medalia
liniste
500.000
localitate
gheata
sexy
gas@@
folositi
soferi
icele
calatorii
Eur@@
apt@@
furniza
pretin@@
iesc
ifica
civiliz@@
politicienilor
prelungit
fix
convingerea
circul@@
isul
produca
bilet
impartas@@
protestatarii
Universitar
Ap@@
lans@@
astr@@
durere
agent
mentinut
dificultate
primaria
obtinerii
gard
ziar@@
praj@@
chi
siune
apropiati
=
Georgescu
Angeles
inlocuirea
impozit
Gravity
anticip@@
reflect@@
comunica
bar
liber@@
spuneti
rescu
19.00
promite
restaur@@
Bug@@
Bac@@
tox@@
Carol
concentrat
trenul
olog
catal@@
ajutoare
imper@@
democrat
FM
aeroport
impoz@@
conver@@
ell@@
startul
ecran
leaga
mecanismul
dureri
ordinul
Rehn
Kiev
Tv
oricat
avantajul
haideti
regiunilor
uitati
motiune
pacientul
Du@@
grecii
Central
recomandarile
Cam@@
Serghei
previz@@
competitivitatea
Mis@@
sion@@
decol@@
handicap
avansat
Del@@
AKP
chinez
caini
multiple
interpre@@
atoriu
analizeaza
afis@@
echip@@
capatul
Tan@@
pret@@
reuniunii
urmariti
inchir@@
strain
repet
ans
radi@@
argumente
transformarea
Denis
groapa
reia
achizitionarea
contrac@@
94
accident@@
maini
asp@@
term@@
domnia
intention@@
apta
A.@@
posturile
exemplul
Ghencea
lucr@@
aw@@
dus@@
Harghita
inaint@@
fotbalului
sterline
umbra
iosi
Octavian
Antonescu
ranitii
BCR
sistem@@
vecinatate
osp@@
19.@@
practice
benefici@@
privileg@@
bi
atacului
instalarea
ovski
maghiara
diplom@@
reluat
prevenire
detaliile
EN@@
kosovar
valul
Apa
personaje
Roger
select@@
picioarele
ell
bre@@
teritoriala
oblig@@
retinerea
folosim
ANRP
pul@@
Arsi
Truica
povest@@
Ramnicu
Adam
achizition@@
riscului
adusa
recol@@
scrisoarea
ema
simbol
inovare
mesajele
cabinet
Chipciu
concentreze
componente
Vol@@
ingrijiri
bauturi
reporter
aplicarii
ep
bet@@
mamei
Negoita
utile
Lup@@
concept
recurs
asas@@
majoritatii
tinte
ben@@
carnea
ajutam
Mitu
Goodbye
califica
supliment@@
constanta
Etica
utiliza
Champions
emisa
Geoana
fondatorul
postura
otul
tir@@
judiciara
vulner@@
capitol
baietii
purtate
trecem
sorti
bucur@@
produc
ulterioare
oo@@
pierdere
Statistica
ful@@
posibilitate
publicarea
grame
democr@@
service
semneze
medalie
starii
inmatricul@@
jocurile
incasari
imobile
iubit
istoriei
ori@@
intru
eala
simp@@
finalizate
abandonat
regulat
cheltuit
adreseaza
agrav@@
sponsor@@
leu
sit@@
od
sap@@
increderii
sanitar
repros@@
rural
Aurescu
baieti
pension@@
producatorilor
rutiera
negat
sexual
cotidianului
invete
semna
procentul
agriculturii
G20
alocarea
ploua
mecanisme
regulamentul
mentionand
multum@@
povara
West
incetin@@
discrimin@@
asumate
aglomer@@
descoperirea
inteligente
denum@@
pedepsei
purt@@
W
PE@@
diferente
Sur@@
indeplinite
indeosebi
SI@@
paine
pi
Eva
je
Tehn@@
illa
brusc
investitorilor
¬
Sfanta
animalele
interpretat
Mos@@
oua
aleasa
arestul
mina
Israelul
tori
lot@@
sk@@
lumin@@
faim@@
Igor
Hollywood
patrat
iare
rezist@@
castig@@
garanteze
erate
spec@@
CP
exploatarea
Cos@@
consecutiv
ultimelor
neur@@
extinsa
remarca
echilibrul
controla
ote
Si@@
manifestat
lucratori
gazdu@@
specific@@
icol@@
brand
verificare
alimentele
beneficiul
cream
teritoriului
mann
sed@@
usurinta
dan
cladirile
TE
Marte
Dancu
crucial
ical
Nov@@
viitoarele
OR
bogata
Regina
tratate
olog@@
icl@@
trimestrul
didactice
den
fiz@@
obisnuita
1994
probele
asigurarilor
Occident
sanitare
refuz@@
plic@@
voci
gust@@
intelegerea
depist@@
prezentei
chimice
140
scria
Do@@
negre
major@@
listele
rost
constitui
semnala
vanatoare
nereguli
const@@
scade
valorii
sporirea
indicele
tabere
bata
terorismul
panica
asteptare
sectoarele
cantitatea
aferent
export
turismului
taiat
cere@@
fortat
pacea
interesanta
ieseni
masiv
reglementarea
Buz@@
calendarul
salariati
protestul
realizare
Vel@@
anchete
administratorul
opiniei
rilor
op
sum@@
transp@@
incerce
ow@@
box
asemanatoare
formatiunii
trim@@
exporturile
abuz@@
anovic
lem@@
abordat
entia
retelelor
implinit
arei
mld.
utilizata
ideile
religie
Radulescu
fostei
incurajeaza
CO2
racheta
scoase
emis@@
figureaza
rude
cabinetul
vietile
confrunt@@
deplas@@
Judetene
eh@@
activeaza
transmita
amor@@
29@@
deplasat
ghi@@
frecventa
tiuni
tac@@
asoci@@
tricol@@
atributii
inate
mint@@
aliat
Pennetta
castigarea
atur@@
personalitati
analizam
nea@@
asteptari
concentr@@
tulbur@@
posesia
ras
impre@@
To@@
baze
caut@@
Inaltei
siriana
aceleiasi
locuieste
ingrijire
ü@@
petrecere
modalitatea
sosirea
primarie
ampla
preced@@
student
dezbaterile
ectiile
acei
amint@@
ya
trimit@@
veget@@
Richard
istor@@
intorc
red
persoanei
stop
litoral
determin@@
Aur
Revolutiei
integritate
ky
OUG
combat@@
aleg@@
civil@@
Tineretului
ingrijorarea
accent
iveala
initi@@
legilor
subordon@@
conferintei
ieftin
platita
Comertului
minge
disc@@
fetei
caracterul
40.000
daune
costat
strig@@
absoluta
amestec@@
voia
caf@@
Tin@@
frunte
indemn@@
Jos
comentariu
cald
postare
operat
naz@@
voluntari
dul@@
executa
Comert
Curti
dezamag@@
genunchi
incepem
miz@@
depas@@
CET
decont@@
gig@@
pranz
ail@@
examenul
ierea
ocupate
uim
recunoastem
extinse
og
princip@@
albastru
Luxemburg
Tulcea
Ali
rapoartele
entilor
Az@@
stadiul
vinde@@
capabila
fier
cladirilor
inovatoare
opiniile
nivelurile
descrie
limitata
evitarea
santaj
mod@@
optiunea
Daniela
incinta
atiuni
go@@
armament
usului
Digi24
Doilea
sectiunea
aba
Wars
adulti
oza
ign@@
cerinte
fir@@
Cur@@
sanatoase
monedei
optimi
doliu
electr@@
vize
organele
deplasarea
Sol@@
iaza
Rez@@
fere@@
orizon@@
festiv@@
partenerilor
implementare
stimul@@
Sfantului
Tal@@
Pakistan
superioara
legitim@@
ascul@@
tehnocrat
administrativa
Badea
Chris
terapie
tis@@
Roxana
circuitul
limbi
Lum@@
oarecare
scrutin
tranzactiile
setul
blogul
Nova
subordinea
suporterii
precipitatii
saracia
Executivului
inspirat
decit
trupul
Rarinca
sportivi
cuprinsa
achitat
guvernamental
nenumarate
sarbii
guvernelor
Chi@@
disciplina
intrarii
resedinta
vinov@@
disponibila
ilegali
gandeste
venirea
itor@@
ationale
venita
achizitia
comunitatile
politistului
subiectele
anele
superioare
rani
indeplineste
imensa
Mus@@
proportii
sarit
cadrului
fort@@
asigur
modalitati
Pad@@
plang
fix@@
ain
chestiunile
falsific@@
planetei
rit@@
desch@@
CIA
tat@@
barb@@
urmaresc
Jan@@
prietena
cererilor
exploat@@
dispuse
evaluat
Directiva
Miron
precizeze
adanc@@
Arhiva
nul
restitu@@
iment@@
obtinuta
Islanda
stre@@
regulilor
trai@@
amanat
Gol@@
aeronava
Kir@@
sumelor
expuse
blocate
masive
curat
atas@@
Comis@@
testat
managementul
UNMIK
ber
ado
Nicusor
Bayern
momentan
Pod@@
platilor
indicii
aprins
esa
umanitatii
S.@@
Cum
banc@@
Premiul
solicitate
adat
atenti
caute
mobilizarea
transferati
cedat
ö@@
Director
Eduard
con
casator@@
single
scand@@
Contr@@
pilotul
asistentei
blocuri
acordam
Teatrului
opun
intarzi@@
adere
precedenta
bil
pasagerii
patronii
parada
orie
tineret
out
cunostinte
capitalului
oc
antica
insulei
Street
nas@@
implementat
demersurile
consum@@
las
dominat
nit
Jo@@
pregati
compus
frustr@@
degrad@@
Var@@
neces@@
tax@@
indivizi
Corneliu
inj@@
Sahtior
ine@@
impresion@@
feroviar
rang
RATB
stiintific
solida
Thomas
tot@@
tes@@
actionam
Sa
plac
modelele
executarea
urmau
demisioneze
sot
progre@@
determinata
solicit@@
aparitie
provoca
primariei
Tre@@
autostrazi
uman@@
mars
cistigat
comunitatilor
consolideze
dispozitiile
turismul
comentariile
explicatie
Bern@@
Ce@@
reste
lunile
spectaculos
concluzii
Samsung
cobor@@
grupele
directive
decap@@
gres@@
Cir@@
asociatii
vant
miezul
bucata
suporta
ograf@@
martorii
astepte
disponibilitatea
Nadal
Auto
licitatia
comemor@@
adresez
reglementarile
bilant
avantajele
termica
mel@@
vizibil
bugetele
emite
romilor
revenire
ierul
atiz@@
insarcinata
promov@@
portile
EL@@
debutat
Adunarea
uk@@
statiunea
pit@@
adapost
romano
existand
cadre
invitatia
inaugurat
Craciunul
Alexandrescu
Voicu
tratati
vanz@@
Aurel
accentu@@
situa
Cop@@
senatorii
Cristiano
ourile
situeaza
televiz@@
AICI
pacal@@
izari
uire
bor@@
prabusirea
ga@@
atiunile
alimentar
echipaj
ill@@
Tim@@
ajung@@
ia@@
substanta
tive
prilej
coordon@@
acred@@
discutate
graf@@
Negre
timp@@
telefonie
ologii
atoarele
intensificari
prietenul
prostitu@@
Rio
formatii
convinge
recompens@@
William
minune
Tat@@
ramase
muta
Post
ionat
3D
alunec@@
Dumitrescu
nemultumiti
Fortelor
Kostunica
directivei
digitala
saraci
supusa
ieni
reamintim
pri@@
Lukoil
fre@@
cazurilor
Michel
milit@@
siriene
confer@@
visul
VIDEO
Ru@@
demonstreze
transfrontaliere
Sf@@
bur@@
incl@@
scump
acceler@@
uciderea
prejudici@@
orb@@
entitati
18.00
inel
imea
expozitia
ident@@
verifice
Clinton
Fiscala
capitalul
adevar@@
somn
distruse
adaug@@
cardul
DigiSport
planu@@
recrut@@
fericiti
institu@@
amandoi
secol
asigurata
spatiile
erg@@
neutr@@
explozia
saluta
feder@@
CR@@
perspectivele
scolare
ped@@
specializate
potrivite
adele
consili@@
localitatii
ieftine
enum@@
dispusa
ational
Sem@@
Pir@@
ni@@
Claude
ipoteza
traditionala
Dragomir
pilda
econom@@
PS
aduna
citi
On@@
Armata
Antonio
stal@@
respectarii
posibilitati
colabor@@
bulet@@
progres@@
doriti
06.@@
our
adop@@
specializat
indirect
Arsenal
neglij@@
recunoasca
locatii
retr@@
favorabile
Ionel
proaspat
episod
dezvalu@@
ziarului
puteam
alism
guvernarea
adresate
moara
muzicale
abon@@
Sav@@
biz@@
alimentelor
liter@@
actelor
AM@@
motorul
ajutorului
tren@@
transforme
jandarmi
ize
dramatic
Adunarii
ren
erat
startup
ioanele
tip@@
oreaza
Ak@@
aspir@@
sanctiunilor
specii
celebru
declarate
desfiint@@
plecare
mor
certific@@
echilibrata
daun@@
read@@
refuzul
vec@@
kovic
prilejul
onat
Mehedinti
pier@@
intarirea
mol@@
teza
Strelet
principiului
evolutii
navig@@
citeaza
IPJ
tragerea
consultare
ascultat
regenerabile
solutionare
evidenti@@
placuta
consilierii
protestatari
investitia
repeta
reluarea
transparent
aventura
piciorul
Cost@@
viol
miting
actualei
calificata
ificarea
adapt@@
Murray
contestat
analizate
condamna
Regulamentului
cotelor
mansa
Strategiei
capitanul
amuz@@
Delta
metod@@
ocupare
preliminar
solicitarile
supusi
dinainte
inchida
tigari
Instagram
Loredana
aplicatie
mului
Agr@@
cancerului
30.@@
vizion@@
greaca
pastrarea
cincea
vand
avans@@
Orange
Costel
estr@@
Societatii
ede@@
verific@@
aplic@@
declaratiilor
formulate
ferata
industriala
intregime
investigatie
incendiilor
vulnerabile
PAC
spaga
crearii
monetare
BH
trebuiau
istului
Stan@@
jurn@@
violent
teroristilor
campionatului
ideal
tranzit
14,@@
contesta
competitivitatii
imunitatii
vizand
und
Mihalache
creditele
disparitia
Economice
imbunatatiri
reabilitare
dinamica
tatalui
toare
adevarate
Liceul
depasesc
protestat
tratarea
ample
respectiv@@
pacat
inlocui
binele
Dambovita
ambitios
tratamente
Srpska
nov@@
sarbatorilor
gresita
trateaza
comiterea
aliatii
alegatorii
organ@@
osc@@
cardi@@
izol@@
ajustare
limitate
diplomatiei
controalele
cui
utila
furt
camp
supravegh@@
improv@@
indeplin@@
ofensiva
transporturilor
fos@@
manast@@
foloase
ibili
cetat@@
austriac
stranse
parteneriatul
negociat
intrebarii
oficialilor
condoleante
masurii
Rotaru
consilieri
Argentina
accept@@
Arta
cartile
functionat
fan
preliminariile
ok@@
credibilitatea
incetarea
praf
regret@@
Bosniei
icu
Marcel
incalzire
elev
descuraj@@
factorii
vesti
mar
lig@@
jihadiste
inculpatului
sectia
Hans
Hot@@
Directivei
portofoliul
etatea
Vocea
detrimentul
robot@@
constructiilor
retrag@@
hotarari
tensiunile
drag
intar@@
concentra
I.@@
st
mortal
insel@@
infrangere
interim@@
concentram
Nicol@@
simultan
cartier
itu@@
ordin@@
partilor
polonez
brate
minimum
temporara
eda
castigate
intensific@@
impozitare
fondator
ANM
republic@@
Irakului
Poloniei
ician
dans
expunerea
mafi@@
protejeaza
NA
obstacole
producerii
intoarcerea
simta
traditia
Letonia
Far@@
Munchen
cunoscuti
pur@@
respingerea
Insulele
proviz@@
Tel@@
volan
izam
furnizorii
￢
statia
determinarea
concentreaza
indeplinesc
surprinzatoare
ariilor
eni@@
garantarea
lo
zonelor
gluma
autoritatii
mentinere
pregat@@
coordonat
descar@@
Ret@@
amplu
remedi@@
alizati
obisnuite
diminuarea
cult
bro@@
reuniuni
ster@@
verificat
regasesc
IT@@
liste
enesti
CV
Bopanna
exclusivitate
raportorului
proi@@
intel@@
preluata
revistei
contrav@@
Chiliman
imigratiei
sportul
flagrant
imbatran@@
rolului
IS
adusi
clip@@
uda
Rutiera
her@@
materialul
releva
Zoran
introduca
inclusa
constituirea
destinatia
arestului
oarecum
BEI
stres
inscrisuri
asista
evalua
hidr@@
protocol
tiv@@
asi@@
destinata
venitul
disp@@
Secret@@
judeca
ianu
colectarea
tehnologiei
obtinem
constat@@
Elisabeta
bombe
DN@@
stand
plastic
AI@@
scene
mun@@
impartit
ologul
1,4
gradina
prinsi
senatori
insotita
Mediu
turcesti
incredibila
CA@@
demol@@
sentimentul
intensificarea
sali
ciudat
absolv@@
Z
anivers@@
istr@@
echipament
interzise
Gre@@
Deutsche
absolvit
oral
Bat@@
garanteaza
Toba
Gen@@
judetean
Teleorman
reloc@@
convoc@@
puscarie
cov@@
golurile
toler@@
station@@
stam
Georg@@
alature
miere
ilele
rab@@
Djokovic
ok
PR
nevoita
degeaba
escal@@
moderat
principiilor
B92
institutionale
ologi
doved@@
vital
ve@@
Gaza
dre@@
afili@@
scenariul
turnee
adoptarii
sectii
conchis
atinga
etic
unem
digitale
omen@@
clim@@
Charlie
Adriana
trecutul
siuni
sugest@@
transportati
mentionata
reformei
salarizarii
derea
solicite
Permanent
Cel
Cad@@
incalz@@
europenii
ius
evolutiile
starul
Pace
spectaculoase
reusite
senzatia
Poporului
seze
descoper@@
amical
recuperat
Sa@@
pel@@
ital@@
singurele
arit
Tade
prov@@
arena
restructurare
anex@@
1,8
voturile
diferitelor
epu@@
1993
actualului
RO
clauza
ert
devi@@
israelian
bosniac
porn@@
demiterea
litig@@
Chiriches
condamnarea
echivalentul
denumirea
Alexander
careului
http
cluburile
Bre@@
municip@@
rurala
originea
labor@@
24@@
Div@@
studiat
irlan@@
judecati
muzicii
referendumului
apucat
arhitect@@
actia
marci
licitatii
suf@@
Electr@@
ELCEN
competitii
facult@@
acoperite
camerele
Drepturile
ican
intalneasca
CCR
Estonia
deseuri
onic
politic@@
asigurarii
ast
poarte
gasesti
Pot@@
laborator
LE@@
simbol@@
multumim
adjunctul
relatiei
amantul
armelor
rand@@
achizitiile
Supraveghere
asum@@
card
Strasbourg
defic@@
interdictia
operatii
chemati
critice
creierul
furniz@@
lipsesc
integrat
ave
insist@@
combustibil
cinst@@
aja
brut@@
sediile
Iordache
uneia
refl@@
Democratilor
cipri@@
RA
constructiei
ecologica
globalizare
invitatii
nerespectarea
Piatra
scandalului
Ferrari
autostrazii
mergi
moral
bila
Neg@@
SU@@
decurs
limitarea
segment
cul
amanarea
somajul
rugam
atribu@@
desemnarea
procentuale
evolueaza
conducea
oarei
vacante
intim@@
iubitul
scum@@
mintea
conflictelor
ã@@
ramanem
dragostea
Oficiul
notat
confirmata
Ciprului
extern
angajeze
scurte
potriv@@
feminina
durerea
bea
ajust@@
adversar
Rares
asteptate
diplomatic
biserici
delegatie
gazduit
uiasca
imbog@@
zamb@@
lux@@
Silviu
serialul
KFOR
sit
ascun@@
economis@@
15,@@
ratei
vazuta
averea
mult@@
conceput
reiterat
limite
Windows
impun
get@@
comenteaza
traseu
operationale
HIV
ze@@
UL
Olt
erori
jign@@
constat
araba
corup@@
imbracat
echipaje
autobuz
Direc@@
radical
sera
oana
agentiilor
efectueze
uri@@
pregateasca
evalu@@
plante
catastrof@@
interviul
Secuiesc
parasi
Bataclan
Crimeea
Met@@
ZF
stins
protejate
invin@@
Si
pensi@@
imbr@@
Loteria
permanente
Porsche
numere
internate
ab
Nikola
integrala
obos@@
SN@@
pierderile
agr@@
Mari@@
nevoilor
Burleanu
mam
procedat
Luna
sir
carilor
obisnuiti
eriei
indrepta
siguri
intalnesc
bosniaci
Galca
implic@@
crezi
selectionerul
07.@@
elicopter
trupelor
vice@@
documentului
totdeauna
atl@@
respectam
posibil@@
olandez
ani@@
inculpatii
imobil
ambal@@
intor@@
margin@@
propag@@
extreme
ativele
regulamentului
Stef@@
puternici
avertizare
moder@@
Geneva
Stockholm
lasand
utilizeze
voteaza
EULEX
afirm@@
cercetarilor
micul
formatiunea
iubire
teaza
critic@@
zboruri
BRD
Balcanilor
progresele
Pe@@
hart@@
traum@@
fusesera
aprobare
condition@@
Compania
ap
derulat
Wall
descarcarea
emotion@@
Rosie
Miha@@
plangeri
Stancu
dand
competentele
amenint@@
complicat
etaje
Toronto
pronuntat
matematica
Enache
Mot@@
cent@@
pereche
traga
oda
temporare
implementarii
set@@
stad@@
Hidroelectrica
fuz@@
we@@
efectelor
Android
fet@@
elvetian
Crestin
riscurilor
1,7
iu@@
jihadisti
analizeze
anal@@
detinuti
artistic
ue
democrati
pod
referit
Andy
achite
diferenti@@
Karadzic
mist@@
ph@@
adera
restriction@@
intampina
vila
geam@@
Pel@@
Camelia
erv@@
gest@@
scol@@
invaz@@
australi@@
regizat
incalcari
granitei
reprezentativa
arest@@
magazinul
diversitatea
deosebite
Ionita
rugby
Oper@@
demar@@
Mad@@
4,5
incoace
return@@
web
pus@@
Petra
consultarile
onii
educational
ocr@@
privatizare
toc@@
Administrare
scada
Covasna
provine
balcanice
dispar@@
ating@@
functiune
apropi@@
restante
Es@@
proprietari
RON
sotiei
Marg@@
capitan
muncitori
Rosu
complicata
asistenti
itat@@
Miss
lanseze
risc@@
regas@@
avantaj@@
angajare
aviatia
tut@@
dezamagit
Iranului
oaie
300.000
liberalizarea
Bro@@
linistit
elig@@
reglementarilor
lumanari
adoptam
drumului
schimbam
sculp@@
internetul
dispute
pedepse
Kvitova
tica
Vas@@
ucrainene
Super@@
Tu@@
criteriilor
propriilor
Aeroportul
initiale
liberalilor
Rep
surprize
grafic
reamintesc
colectare
extern@@
comunicatii
legisl@@
Varsovia
e.ro
multumita
colaborat
Banc@@
consumat
Otelul
Iasului
accentul
atribuit
evitat
Cercetare
complexa
gunoi
Ham@@
curente
que
ultr@@
filiala
vop@@
singure
160
arde
FBI
primim
magn@@
accesibile
FE@@
apelat
Ul@@
Clinic
Cot@@
grupelor
bolnavi
nita
cicl@@
cumparaturi
over
fotbalistul
antrenori
LIVE
Financiar
demnitari
evaluari
guvernarii
prietenilor
ciu
iesean
Flavia
magistratilor
maxim@@
VI@@
antreprenori
cancerul
lant
teoretic
ectia
integrata
vatam@@
refugiat
Codruta
gratuita
Milosevic
belgian
Sto@@
tarie
evidentiat
AD@@
influent@@
productiv@@
fili@@
colective
scur@@
ordinii
conservator
istice
blocata
hran@@
televiziunii
arbitrul
Mugur
tri@@
bloca
reinno@@
Executivul
Marinescu
prudenta
ucide
Gazprom
rasturnat
atile
patrimoniul
ug
2019
149
magistr@@
agentul
pon@@
seamana
Programului
Milano
produsa
egip@@
etea
impartasesc
fotografiile
Rovinari
controalelor
Orastie
bicicleta
atizare
cotele
amenaj@@
cresc@@
reporterilor
recordul
negativa
importurile
percep@@
agentie
propunem
emiterea
creditorilor
creada
fascin@@
circulatiei
domina
suparat
antic@@
diploma
acoperire
Toma
Hristos
1.200
Don@@
copilarie
intretinere
stimularea
ong@@
alesii
armele
incluz@@
ance
zic@@
alimentatie
infi@@
hidro@@
titular
preocupare
scandal@@
cuiva
interzisa
Bit@@
emigr@@
BA
retroced@@
alismului
egalitatii
exploatare
60.000
ation
Sti@@
tabloul
urs
gazdui
domiciliul
Laz@@
imigr@@
preluate
usii
fab@@
flux@@
elita
Kon@@
plecati
Adi
punerii
nici@@
condamn@@
Res@@
inalti
entiilor
exercitiului
we
ordonat
extinda
avent@@
moldovean
tiale
rem@@
liniile
privatiz@@
tific@@
pahar
Cu@@
scriitorul
bagat
activi
iceanu
ocuparii
stabilim
Cazanciuc
dispozitiilor
dauna
seceta
Dubai
intentie
preciza
barbatilor
olimpic
viu
Mol@@
vede@@
deprec@@
indi@@
imigratia
abtinut
tai
dezi
direc@@
juniori
exclude
ipa
lacrimi
Rus@@
Olimpiada
vedetele
declansarea
deficitului
provincie
atar
curen@@
muncesc
constructorul
candidatilor
vamale
mall
ipocr@@
Complexul
editiei
cerute
turii
imile
adapost@@
centrului
unitatilor
retinere
Marica
participantilor
Meteorologie
garantat
advers@@
separ@@
separate
pronunt@@
omagiu
universitare
tensiuni
Ca@@
supl@@
sentiment
chestion@@
tehnocrati
etapei
piet@@
ariul
clasamentului
sufla
vecina
incolo
verii
SF
chelt@@
capabili
110
Gala
ferme
libertati
AC
doctorul
senzatie
petrecute
investi
Ganea
surpr@@
pachete
ingreun@@
achita
Bos@@
prefectul
premiile
ingrijorati
ansamblul
ec
san
obligate
vehicul@@
Ceha
invinge
contamin@@
13,@@
nei
ignora
summitului
jurnalista
Ju@@
croata
expulz@@
umb@@
votez
legaturile
Superior
Avram
obstacol
ept
ned@@
numiti
embr@@
gara
suporteri
rabdare
parti@@
cunoastem
transparente
destabil@@
descoperi
reparatii
explice
vas@@
Fer@@
Reprezent@@
culori
acoperirea
astronom@@
evaluate
Liverpool
ecte
organismului
acopere
convinsi
declarata
muncit
calificari
hel@@
sinuc@@
meciurilor
detas@@
aceluiasi
complete
relevanta
rezolvata
Iacob
beneficiari
sechestru
facultate
avocati
numelui
probei
aloca
ident
ariat
garda
frig@@
arhitectura
bijuterii
comuniste
declaratiei
retail@@
audio
sarbator@@
rezista
medicamentele
culoarea
patruns
semifinala
vehicul
tipar@@
submin@@
maritime
Registrul
capabile
distinc@@
taxei
videoclip
dinam@@
atention@@
consiliului
reabilitarea
bucurestenii
completarea
16,@@
exempl@@
One
Gorj
respir@@
reprezentate
reculegere
privim
bucatarie
renov@@
chineza
ingh@@
usile
Management
Cuza
precon@@
q@@
insemnat
asalt
cheia
rom
stabil
organe
Sen@@
indreptat
retinute
integrate
votarea
Donetk
Vic@@
Africii
Conferinta
ceremonie
barbatului
inile
scuti@@
ganduri
consultat
Lupu
concursului
achizitionate
variaza
simplificarea
vanzarilor
grupe
venea
e.@@
antrenat
tum@@
figura
functional
intervalului
furnizat
ek@@
prizon@@
suport@@
Comunic@@
camion
grupare
Varela
Studii
Park
calific@@
comisiilor
personalitate
sperante
ech
Papp
constiinta
rebelii
stram@@
coordonata
supravietu@@
Juventus
revolt@@
cuantum
cucer@@
abordari
recomandarea
cuprinzatoare
materialele
Avi@@
bucati
raspunderea
tinere@@
sic
atoarei
enul
Moisescu
audioviz@@
predat
donatii
ambul@@
comandant
pag@@
manul
comport@@
prioritatea
inteleg@@
codul
Drepturilor
lan
imente
Pers@@
kov
Bianca
Ben
corporala
torilor
dizabilitati
CEDO
vechime
Iugoslavie
Pamant
sprijinului
Bon@@
estic
PD
traduc@@
menit
alistilor
10.00
chineze
ultimului
plut@@
20.00
perio@@
echitabil
excesiv
recunoscuta
exclu@@
avocatura
arab@@
Educatie
sportului
cauzata
Dobrogea
lag@@
acu
Den@@
nopti
modelului
ju@@
bunastarea
soldatii
militarii
miscari
judecatoresti
oportunitatile
numi
Telegraph
turistilor
dobanzii
urbane
infractiune
altcineva
toleranta
mixt
responsabilitatile
injur@@
destinatii
prezint
initiativele
calatoresc
infrangerea
muzical
revendicat
reglementeaza
cronica
voluntar
conflictele
rig@@
26.@@
ong
Publica
interventiei
Dr
Marina
despartit
asteptata
servi
soft
leul
expira
acordare
tensiune
Agnieszka
Mazare
schema
uza
valid@@
Economic
Islam@@
facilitati
sediu
antice
demisie
mananca
multumiti
cincilea
provenite
rai@@
italiene
jurnalist@@
week
vehiculele
Manuel
promisiunea
imbolnav@@
protagon@@
elev@@
instalatii
motiunii
democratilor
Cocos
ucidere
Univers@@
Voda
autoturismul
punand
inteligent
omor
insp@@
pielii
ey@@
Sergiu
complic@@
urn@@
0,5
neasca
angajamente
fond@@
manifestari
prost@@
stiau
Pa@@
desemn@@
cerintelor
metal@@
amenintarile
imens
insum@@
oli
practic@@
telefonice
profitat
tam
IP@@
adres@@
plant@@
inarea
Sportiv
Comun@@
recunoscute
abordate
angajata
inscri@@
izia
Societatea
gimnastica
Luca
ulos
prezentam
directori
cultiv@@
profilul
Kerry
avi
comunismului
operator
socat
aerul
apro@@
aratam
tinute
crimele
indeamna
Ir@@
tiilor
numitul
exprime
Gabi
CJ@@
Ren@@
informati
institutional
indign@@
profunde
Music
batr@@
dejun
sesiuni
ts
televiziunile
mention@@
vizitatori
avansate
ostatici
Au
anunte
scaun
reusim
existent
arga
n.
dezvaluiri
jo@@
piesele
Diaconu
intelectual
construire
jihadistii
avoc@@
24.@@
Nitu
bombardi@@
Inform@@
pir@@
Muguruza
tribuna
sarb@@
Ras@@
intentiile
enia
08.@@
Ke@@
01.@@
incet@@
tarifele
arna
preocuparile
Aer@@
manipul@@
ular
coordonator
activat
constientiz@@
demult
somaj
buz@@
fermierii
preconizeaza
savarsirii
Dis@@
formate
ificata
concer@@
Lin@@
uzie
Piturca
urna
dezastr@@
pornind
repartiz@@
ae
expresie
doband@@
Sec@@
Ha@@
desen@@
Cuba
gandeasca
bogati
inconjurator
bulgari
farmac@@
obligata
abol@@
durile
Pat@@
UL@@
sporit
consider@@
vechiul
Ra@@
testul
Opel
fas@@
portii
OMV
restabil@@
enea
Sarapova
travers@@
Barb@@
aceia
uzina
ect
urne
frig
suprap@@
fondului
Bush
vam@@
falsa
croati
air@@
Muresan
debut
contributii
exemplare
Est@@
haos
relat@@
mecanismele
embl@@
cumparate
federal
meteorologii
ort
part@@
09.@@
Independent
condamnare
pietre
raiduri
dusi
acoper@@
intrebata
blocarea
Cup
lectie
Din@@
colectie
viet@@
generatia
inului
Joe
eai
Klemm
combinatie
ny
Proi@@
extraordinare
torii
conditionata
eficace
insu@@
ranita
substantial
intentionat
dil@@
AG@@
clase
reciproca
ierii
kurzi
brad
ick
bucuria
recicl@@
preajma
Toyota
inregistrari
Turceni
gratuite
stadiu
europarlament@@
Ahtisaari
prinda
voturilor
plasa
convinsa
nerabdare
catorva
catastrofa
deputatului
provocarilor
angajeaza
ajungi
inata
Targoviste
islamic
elele
Simion
Info
Turnu
adi
institutionala
remuner@@
ierarhia
Dana
asc@@
cutremur@@
Prezidentiala
distribuirea
Sul@@
gir@@
sech@@
japon@@
inam@@
alarm@@
raspunsurile
pros@@
inscrise
cluj@@
formulata
prognoz@@
dateaza
Cojocaru
trofee
convers@@
incerc
finaliza
arat@@
mancarea
emergente
indemnat
lactate
talent
Rac@@
coopereze
interpretarea
participante
Constitutionale
ambelor
sang@@
ector@@
Mant@@
simt@@
intrebati
discre@@
contribuabililor
intersectia
presedinti
contestata
Eroilor
Om@@
iciu
Dolj
vie
finanta
razbo@@
spectaculoasa
gat
Control
cm
pagube
af
Kremlin
portocaliu
obligatie
izand
informatice
Suarez
Plat@@
demersul
ilul
indator@@
majorat
denumit
utat
albe
adep@@
Bab@@
numite
Congres
indata
oanelor
eventuale
constienta
intervine
frontiere
Nica
ponderea
ij@@
mecan@@
ultimilor
resping@@
radicala
lucrez
def@@
sluj@@
bucure
fabrici
dansul
ary
constituire
Mai
simul@@
careu
minori
semestru
materi@@
May@@
baut
mul@@
Matache
direction@@
Drumuri
marfuri
ecti@@
intermedi@@
Davutoglu
planific@@
statisticile
norma
imparti@@
lunare
Praga
clasice
pasiunea
retur
insul@@
interdictie
27@@
furnizeaza
consiliere
Constitutie
responsabilitati
vitamina
faze
agi
inflatiei
esu@@
Presedintelui
propuna
stres@@
generali
Transport
cumpararea
cruciala
intitulata
denuntat
susten@@
adversara
stil@@
bolilor
automob@@
varst@@
poluante
ambitioase
Claudia
tol@@
Organ@@
competentelor
Anti@@
locuit
atenta
adei
voastra
Liber@@
non@@
Joseph
necuvenit
2.500
ebr@@
Istvan
impiedic@@
actionarii
1,1
islamisti
reexaminare
suveranitatea
performantele
iati
Madalina
vestiment@@
spal@@
P.@@
intampl@@
dum@@
gust
Pac@@
ING
UNESCO
cade
construim
cantaretul
urmate
hoteluri
eele
formulat
inarii
continent
ingrijoratoare
aniversare
promisiuni
participarii
muzicala
Force
banch@@
reactiile
montane
trib@@
localnicii
ess@@
Deva
blocului
statii
pest@@
so
considerati
Hal@@
bucuram
ziar
efectiva
interog@@
derulate
turistic
ectiei
strange
deal@@
numerar
telefonica
LI@@
dorea
incurajarea
transmiterea
factura
Miscarea
Magistraturii
rusoaica
hotelul
exag@@
supravietuit
Abdullah
sefilor
finalizata
profite
impiedicat
pirotehnice
aerului
momentului
dica
tex@@
dispozitivul
straina
vicepremierului
Journal
ilustr@@
curte
Platini
roc@@
bunul
Lov@@
res
menita
lun@@
kin
gestiona
minc@@
fun@@
CU
Pamantului
sindicatele
cistig@@
yl@@
sensibile
campioanei
metodele
Milan
cheltui@@
Marc
Hel@@
porc
confiscate
dificultatile
intelegeri
abilitati
solidaritatii
ger
piept
ultim
demon@@
curse
17,@@
specialistilor
patrimoniului
elimine
academ@@
Nicolas
incer@@
rile
instituit
ocaz@@
Teodorescu
cautam
Dunarea
cooper@@
absolventi
umanitara
Primarie
descoperire
show@@
efectu@@
ingrediente
scris@@
sustinatorii
indepartat
sentim@@
Lau@@
urmareasca
rezi
regizor
combaterii
Op@@
Fi@@
Livia
intensifica
Proc@@
contempor@@
proprietar
argumentele
intarzieri
Vodafone
semnalat
ill
Me@@
S.A.
Joh@@
furnizori
ativ@@
casatorie
9.000
stim@@
ty
itr@@
Dre@@
preciz@@
loviturile
barca
anuntand
decizional
abuzuri
Qaida
opt@@
amanata
interesului
PA
catol@@
Parisului
culturi
substantiale
ess
comunista
report
organelor
constitutional
Spati@@
incasarile
portul
orata
Dosarul
unti
ten
sarbilor
nest@@
02.@@
Smith
precadere
Kazahstan
eren@@
preda
bautura
misca
intinde
abordeze
decl@@
fluxul
capete
capacitatile
restranse
categoriile
jihadistilor
treimi
get
experiente
impozitelor
depozite
Ordonanta
respondenti
sarbatorile
programare
pierdem
Cern@@
rezervele
stop@@
Cincinnati
iment
actionari
imprim@@
fran@@
contrabanda
migratia
mancat
05.@@
zb@@
telespectatori
adolescenta
coordonate
bacalaureat
targ
atacant
Stanescu
sic@@
analistul
80.000
regim@@
rez
libertatilor
facilitarea
aflandu
Pascu
andei
ciocolata
durilor
Iisus
mila
greselile
isc@@
inchisoarea
ilia
inchiriere
impunerea
imen@@
170
Sarkozy
Sha@@
Malta
circumstante
Center
candideze
citeva
Avoc@@
dezbatut
Financiara
Julien
anulate
practicile
invocat
derularea
bazeze
spir@@
andra
impresionanta
echipelor
cupr@@
afirmatii
gestion@@
german@@
gaz@@
line
uci
icate
varstei
universitatile
ful
dinamov@@
demnitarilor
petroliere
identificare
desfasurarii
S.C.
brazili@@
ieftina
spit@@
morale
gat@@
opreste
slabici@@
Socialist
considerabile
profesorilor
capcana
operational
deficiente
inci
rom@@
scap@@
scr@@
Marele
vizibile
frati
incadreaza
secretul
autos@@
abilitatile
deoparte
solide
Tom
iranian
Carta
cuc@@
transparentei
palestinian
buzunar
perspective
dos
ini@@
existau
HU
\
dator@@
petrec
transportate
Energetic
responsabilitatii
descur@@
Sab@@
if
iubeste
terestre
Bond
francezii
decese
deplasa
But@@
folos@@
largul
ieze
abordeaza
autorizate
legenda
atacata
The@@
intreprinse
igh@@
minunat
iuc
descoperita
Capital
ISIL
Bec@@
pensionare
lib@@
original
albumul
utiliz@@
spart
nasterea
distributia
tro@@
sectie
vremii
demersuri
expertilor
LT
VIII
inedit
lu
Live
emot@@
delegat
integritatea
rezolvate
candid@@
celule
televiziuni
imin@@
propor@@
dispozitii
Profes@@
zid@@
cheama
Se
rati@@
felic@@
directii
operatori
relig@@
elene
Srebrenica
cosmar
tehnologice
ifice
statie
Ciobanu
imposibila
mandru
cursului
Syriza
Max
comenteze
Baku
extin@@
miscarii
Damasc
intil@@
medicului
analisti
acuzatia
flexibilitate
atoarelor
Carter
conspir@@
estimate
deal
Regionale
imobil@@
isului
mixte
Patriarhul
atributiilor
motor@@
bucuresteni
nim@@
Cartea
incurajat
ont
transmis@@
euro@@
protest@@
bugete
ionului
pers@@
infectii
che@@
Art@@
auda
rebelilor
clima
marja
viziteaza
Andre@@
Imper@@
criticile
via
Af@@
Municipal
Petrom
coma
ingrijorat
gazduieste
prelungiri
Van@@
M.@@
tehnici
suspendata
Sevilla
orare
mediile
vizati
introdusa
furtuna
muri
Ang@@
tripl@@
coples@@
retail
textile
functionala
indrum@@
Facultatii
niciuna
cons@@
arhe@@
Procur@@
recupera
meteor@@
agresiv
depasirea
SO@@
ameli@@
criminale
regiz@@
explozii
aver@@
iul@@
Haiti
DS
ourilor
7,5
Hertegovinei
consecutive
sporite
actorului
Financial
votam
opr@@
estimarile
autonomie
colega
comunitara
regl@@
prevedea
Press
terminarea
Anton@@
centimetri
partii
revolutie
industrial
ador@@
postate
trofeu
Las
bit@@
regretabil
ofer@@
av
University
parcul
000.000
forului
verificate
sondaje
justific@@
Ba@@
suprema
w
trenuri
cea@@
lez@@
palmares
ologiei
suspectul
suedeza
ceas
crest@@
anunt@@
deranj@@
Pri@@
Frontex
IA
CANCAN.ro
atarii
Ivo
lasi
Medic@@
iarba
Wil@@
privati
culmea
existentei
ratele
rezonabil
nedrep@@
TR@@
radicale
asezat
disputate
stran@@
ramburs@@
dimensiune
Cinema
ics
chirurg@@
ble
dedic@@
nemultumit
acceptata
pondere
transfer@@
natiune
ariatul
exercite
intaln@@
maritim
MP
bebel@@
religios
enele
icianul
acii
Inspectia
aurul
Tro@@
Mur@@
semnale
s.@@
profit@@
DJ
privit
artistii
gandi
pop
remarc@@
PI@@
Targul
discriminarii
oy@@
aiele
ceai
bolile
telecomunicatii
Vadim
schimbarii
Secretarul
exporturilor
apartamentul
invers
auti
dez
Fundatiei
Israelului
realizam
campion@@
trata
aful
provenind
Sarb@@
traverseaza
mini
cron@@
alegatori
nas
Soci@@
modificate
Sector
opta
CSAT
explicit
consul@@
numeroasele
sesizarea
cauzei
Y
cercetati
ste@@
poloneza
atatia
CD
alese
marturis@@
explodat
impusa
parch@@
Pentru
cunost@@
Bd
cupl@@
vern@@
natur@@
inspre
puterile
incluzand
municipalitatea
UTI
dinti
Stream
sarbatoarea
retragere
Gor@@
engle@@
fragment@@
anj@@
lin
dezbate
domniei
serveste
ascunse
gran@@
dat@@
suferi
jucarii
daram@@
finantari
instabilitate
viteze
naturii
Inaltului
osa
universitate
reprezentanta
intensiva
baga
inaltimea
Muntii
gros
costisitoare
Ruse
TS
necl@@
Kur@@
reuneste
Ri@@
Partizan
depline
cetateanul
Princip@@
turistica
depind
asistent
Fe@@
impozitele
ament@@
18,@@
muzeu
coast@@
condamnata
staff
vici@@
inregistr@@
afirmatia
calendar
consti@@
Electrica
provocarea
limiteaza
aber@@
medicamentelor
poses@@
Airlines
coordonatorul
All@@
Vis@@
sarbatorit
Hu@@
administrate
Dom@@
tal
lupt@@
migratie
Transilvaniei
castigam
eanul
caros@@
crestine
minoritati
erna
argent@@
conta
posibilitatile
iot@@
pere@@
inutile
numar@@
Populara
Jul@@
adare
copi@@
optiunile
sotii
inginer
inse
univers@@
Dusa
dramatica
Angel@@
Bad@@
intensa
severe
beau
cerea
pariuri
concuren@@
analist
caldur@@
depun
subventii
Mob@@
dy
majorari
laudat
pos@@
inventat
placea
LO@@
tiu
Cel@@
ver
felicitat
intamplare
Lo@@
sensibil
ange
caine
mute
avute
probabilitatea
demis@@
nat@@
autorizatia
mijloc@@
progresului
intelectuala
urme
a.c.
adancime
sia
intoc@@
Sanader
derby
plec
ney
Rusa
intrec@@
presiunile
Dunare
Judecatoriei
ectului
intampinat
acceptarea
excesiva
concep@@
plimb@@
tragic
Bill
Gazeta
spaniole
frumusetea
propunerilor
instigare
teror@@
aparatului
spuse
La@@
baschet
libertatile
Abu
locuitor
mest@@
Doc@@
matur@@
circumstantele
curaj@@
Iosif
speriat
accesorii
pachetului
Jovanovic
omolog@@
nete
cititi
admitere
incidentului
asigurate
santi@@
Kal@@
inar
Minsk
trecuti
arbitraj
pelicula
ucig@@
apartenenta
umpl@@
aportul
inge
dov@@
alia
job
rav@@
moduri
Ahmet
eliminate
militanti
marit
impozitului
ificarii
antrenamente
Iasul
jihadista
gazdele
proaste
preliminare
manifestantii
Lavrov
Ay@@
Florian
FS@@
fura
delegatiei
CH@@
solistul
Galilor
Gher@@
studiilor
decursul
nominalizat
internetului
Aut@@
maghiare
Sporturilor
Maior
incalzirea
Mah@@
oului
Rohan
alcoolice
evidente
localitatile
coltul
functionarilor
Dobre
persista
cipriot
obtin
uim@@
canal
Cosma
platim
deopotriva
eliberare
consiliul
blocheaza
maghiar
RL
BC
informatic
ium
pomen@@
inceteze
demn@@
CC
Kelemen
facebook
intense
pregatim
angajate
USL
strigat
Angliei
mirac@@
petrecerea
formarii
contestatia
formele
propriei
NO@@
detaliat
ous@@
lovita
Campionatele
uf@@
solid
incendii
urez
Planul
Prezidentiale
manu@@
contribuabilii
Nast@@
amin@@
capital@@
Rezerve
suspectati
seasca
aderat
personajul
audit
PLDM
redresarea
email
Abdeslam
blocul
aval@@
regular@@
scoasa
schimb@@
transfera
New@@
castigatorul
TO@@
2,8
EU@@
speri@@
crestini
alitatilor
Concurentei
Chirila
creditare
cubi
neam@@
tricoul
ulp@@
irakian
beneficiarii
gratii
inevitabil
Gelu
19,@@
Polit@@
musulmana
stru
iasca
suspect@@
organizarii
afisat
Baneasa
fiinta
audiati
extremiste
argument
oprirea
SMS
Operational
motocicleta
operatorul
valabile
news.ro
victimei
functionale
descopera
Cannes
grafie
canalul
respectivul
clientul
colabora
bo
Canc@@
ofertele
vic
alcat@@
permitem
Rafael
SUV
eol@@
cutie
750
ultimei
auzi
croate
informa
apelor
executate
ulterioara
contribu@@
TA@@
Bucharest
incurajeze
ega
publicatii
circuit
fiecaruia
Soseaua
marcata
fezabilitate
Golf
geopolit@@
Vit@@
formatie
evaluarii
aica
Port@@
indelungata
privatizarea
Carla
aducerea
emin@@
Romgaz
imediate
misiunile
portre@@
mentin@@
abordam
naste
legend@@
semneaza
total@@
unit
temele
detinea
supraveg@@
27.@@
Metrorex
exceptionale
cantare@@
economiilor
inchis@@
ack
trist
invatam
acordarii
autorizat
limbii
colectiva
nebun@@
numerele
dobanzi
inund@@
onal
locuitorilor
Manastirea
amendat
inarmati
ight
ghid@@
festivalul
penal@@
controvers@@
isera
intimid@@
loveste
stang@@
oras@@
lava
emotional
odia
Revolutie
grafica
Watch
randurile
Frankfurt
alegatorilor
votata
acceptam
cerinta
intensifice
stadionului
clasica
autobuze
clasic
demnitatea
suedez
fumat
Bulevardul
stre
usuri
valuta
invitatie
vizibila
EL
sor@@
modificata
descri@@
preot
agricultorii
fictive
identifice
12.00
derog@@
lect@@
Major
blocheze
ific
presupus
PD@@
sublinia
LPF
imprumutat
resusc@@
tile
PSG
ionale
ileg@@
chinezi
prietenie
aeronave
contractuale
cari
5,5
digital
petreaca
th
Public
teritoriile
adaptarea
Focsani
lasate
jude@@
averse
diagnostic@@
serial
dean
ero
devast@@
prinsa
fol@@
cen@@
instalate
anumiti
contribuabili
Liv@@
die
comisarului
rusin@@
Gy@@
interdic@@
reput@@
gandesti
sper@@
nevoi
luptatori
Latina
Raf@@
flacari
ling
incidenta
creier
interpretare
rat
deciz@@
gri
UTA
Lam@@
expirat
zid
intram
depistat
ingul
Andronic
bron@@
dor
infractiunea
minore
curat@@
incrimin@@
Congresului
motivarea
Mu@@
nie
Jocurilor
stimula
prealabila
doc@@
vicepremier
cun@@
furnizor
derulare
iuri
mandri
flagr@@
portalul
nimanui
tragedii
derap@@
bolnav
Davis
supravietuire
ratific@@
portar
invocand
Sir@@
trofeul
servit
Ali@@
vulcan@@
Gandul
didactic
gem@@
solutiona
impresionant
extinderii
telefoanele
inregistrati
insemn@@
adelor
Sectiei
climat
neaga
ificate
cancel@@
constrang@@
avizat
edi@@
diplomatica
dulce
criminalitatii
captur@@
DR
acid
considerand
oraselor
bolii
eli@@
fug
delic@@
Moldovan
secretarului
optimist
biciclete
fierbinte
intalneste
descentr@@
galbene
inflatia
prioritare
judecatoarea
combustibil@@
emotie
Keseru
dusa
ofiterii
surprinde
terenurile
degetul
incadra
recesiune
regina
monument
normative
bancara
selection@@
bombard@@
aprinse
vehiculelor
lungmetr@@
obiectivului
batrani
Terra
cotei
uniune
granite
Cooperare
Delia
igr@@
ucraineana
FR@@
tehn@@
prealabil
necuvenite
motoarele
locu@@
admite
platii
fan@@
transporturi
conduita
etii
celula
bit
urea
Catalina
Venus
arestate
inspector
polu@@
presiunii
egalat
ung
PN@@
vice
Han@@
pacientului
filosof@@
Nas@@
omorat
comandat
pesed@@
individ
ron
Top@@
infatis@@
pop@@
bilateral
Frank
decedate
munt@@
concertului
discutata
pasii
fundas
Vac@@
Gl@@
evitam
Deveselu
28.@@
candva
infrangeri
iros@@
Gaz@@
lantul
defil@@
predeces@@
andez
incarcat
focului
icala
ition@@
ativul
invit
interv@@
albaneze
aprofund@@
forul
onica
cetatenie
franci
ece
You
responsabil@@
ipot@@
calatoria
coc@@
Speciale
captura
scrisori
Bah@@
Lac@@
Ist@@
sanctionat
definit
esta
incantata
impiedice
incercari
dublat
urmar@@
provizoriu
imbunatatirii
abat@@
800.000
Bagdasar
Grad@@
confruntari
incredint@@
Tel
eticheta
listei
Steve
Rompetrol
solicitand
asem@@
xenofo@@
aflu
iord@@
congres
mijloacelor
tinea
bonurilor
independenti
emn@@
Cab@@
inspect@@
orientare
Medi@@
multipl@@
sondajele
imigratie
temeri
retur@@
uoasa
ograf
albaneza
Presse
instrumentelor
telefonic
elvetieni
etnica
atingere
expozitii
comedie
anu@@
ik
Clubului
Orchestra
operatorilor
articul@@
Draghici
divertisment
reactioneaza
Zeelanda
inedita
itar@@
ria
PRO
initiata
recupereze
trecand
modifice
calculator
oarelor
desfasur@@
tablo@@
muc@@
func@@
hidrat@@
itive
contributiile
bisericii
tribunalului
raului
estica
marirea
colt
Nicoleta
vinerea
acuzatiilor
Doamne
achizitiona
constitutionala
europarlamentarul
constant@@
gradinita
ost
presupun
INS
someri
itudini
groaz@@
Jones
infectie
lev@@
BERD
striga
03.@@
facturi
atentiei
Omar
Marie
necesitate
Leo
eaua
Hid@@
nominalizarea
felicitari
ecii
carbune
certitudine
imaginat
indicatori
dinaintea
prof.
satis@@
glum@@
Asociere
Cart@@
migrantii
dra
GB
apas@@
parad@@
Liban
Gul
fumatul
echipate
gazdelor
Dulgheru
Barbu
adul@@
Tusk
norocul
Agricultura
Hen@@
discriminarea
abuziv
aparte
ibil@@
aviz@@
lobby
documentar
obtinand
crestin
ener@@
distribuit
intari
angajatorii
cadea
CS@@
2,3
600.000
Cristea
SK
bucurestean
ern
Euro@@
dadea
belgi@@
moldoveni
deschid
provocata
dezastrul
scriitor
aplicabile
romi
oaspetii
usera
inos
periodic
Aurelian
penitenciar
soarele
tutun
cup@@
pasiune
eleva
parlament@@
prevedere
sist@@
donat
Let@@
bul
restric@@
ectiva
recrutare
toxice
Ph@@
ideala
formatiuni
mit
FEG
artistice
Democr@@
Este
incr@@
preotul
stimati
car
N.@@
ranitilor
q
retete
situ@@
slabit
folosinta
eneasca
eliberati
Bog@@
competitiva
fem@@
hainele
senatorilor
moschee
Super
rezolv@@
pierd@@
bacter@@
hard
interesata
rezili@@
att@@
easa
isoara
inculpatilor
declin
prevad
Pur@@
dezastre
DolceSport
observam
Hamilton
considerabila
sfid@@
Ambasadei
prud@@
afectiune
imobilul
solicitanti
proprietatile
Put@@
ilului
intensificat
minerale
RI
Varoufakis
Integritate
Dur@@
permis@@
aprobe
anica
atentatul
ambas@@
Reghe
Paula
bratele
duse
deturn@@
distruga
constructiv
diversific@@
politi@@
vor@@
GMT
impun@@
Patricia
Suciu
partenere
zo
stire
20.30
VII
mentinem
datorate
buze
eng@@
urce
Catedrala
furnizeze
atari
amenajarea
venim
statistici
sond@@
American
Schulz
restructurarea
ungare
com
FO@@
25.@@
minunata
structurilor
resim@@
Lev@@
ANRE
conservarea
promit
suc
magistrati
asteptarea
operatiunii
Transnistria
Iordania
consolidata
tiune
asilor
promisiunile
soldate
Ko@@
nepot@@
primind
motorina
simptome
obtin@@
cina
metal
Sum@@
specializata
salutam
datei
saptaman@@
pescuitul
cartii
convo@@
reducerile
lunara
Sistemul
controversata
trimit
schimburi
exceptii
pagub@@
reunite
lucrarii
indragost@@
protej@@
150.000
pertur@@
suspenda
sa@@
minciuna
apartinut
Yemen
wi@@
actie
credibilitate
adversarii
portugh@@
stricta
irlandez
ceh
selectioner
Stefanescu
Dragan
calorii
luptam
elicoptere
consolidarii
faina
entiei
Fiat
Prot@@
OM@@
epidem@@
dezbaterilor
oj@@
implementate
Guvern@@
afecti@@
20,@@
pastram
preoti
dispun
fiului
Tg
unghi@@
Dobr@@
i.@@
impr@@
Cro@@
bucuros
Szabo
exper@@
uk
chip@@
platforme
trimitere
ami
italieni
gandurile
afacerii
procent@@
Sand@@
finalizare
transferate
ansa
Ku@@
Hamroun
explicatia
tratata
mentiona
gestionat
ICTY
nenoroc@@
determinare
transa
ept@@
educationale
Autostrazi
etajul
semnaturi
scop@@
pah@@
fixa
versi@@
ifi@@
fotbalistii
Anna
durabil
belgiana
vechea
bugetarilor
Astrei
clin@@
administrat
tel
promovarii
nascuti
structur@@
preocupari
Armenia
decal@@
fraud@@
intamplator
Mall
BOR
london@@
Ordinul
Ro
musulmane
mese
invatamantului
DP
revendic@@
prabus@@
creierului
gandire
costum
bazei
gardul
deton@@
compati@@
norveg@@
calificate
tanarului
sesizare
insuficienta
satelit
$
Scotia
urbana
sedere
ml
asteptau
ProTV
citati
goala
localn@@
subliniem
influ@@
Costescu
instantele
Gruevski
ls
tacere
Frontiera
pamantul
fondat
Premi@@
nast@@
perce@@
BE@@
acel@@
implementeze
angaja
tramv@@
plaf@@
motivat
Pactul
lipsita
Christian
11.00
ADN
odihn@@
inlocuiasca
temerile
universal
Rock
conducatorii
gazoduc@@
diabet
arip@@
europ@@
Hitler
mobilizat
usele
afecteze
inmormant@@
ajunsi
scor@@
Manea
Thaci
atom@@
infiintate
minoritatile
brandul
Ori@@
realizarii
Ho@@
japonez
initiativei
ilei
maroc@@
lectii
oe
Cotabita
Penitenciarul
insotite
titlului
moare
informarea
precizari
lasata
dragul
anghel@@
oto
paturi
orale
indemniz@@
blocati
Tor@@
coeziunea
spr@@
protejat
Sub@@
supreme
elaboreze
70.000
verdictul
Stel@@
imense
rasturn@@
incepere
iteze
Colegiului
difuzate
transe
Man
rugac@@
ft
intrebam
Virgil
istoricul
deget@@
statistica
2,4
uit@@
tendinte
Oprisan
XX
imul
Iz@@
Eminescu
cruc@@
articolele
bir@@
fortata
aparitiei
fici@@
usilor
saturat
clauz@@
Halloween
EFE
Florea
bre
Comunitatii
inelor
luarii
unte
confortul
tramvai
Muntenia
ced@@
ierarh@@
acon@@
catoare
incapacitatea
celebre
chirurgicale
vecin
incurajam
efectuarii
Doina
nervo@@
sue@@
alocata
accentuat
inregistreze
Jandarm@@
tensiunea
nerv@@
falimentul
pati@@
aeroportului
Sarajevo
determine
anie
lucrurilor
iev@@
Louis
manev@@
gan@@
ezia
intreb@@
VI
Regelui
bra
Romeo
desc
deranjat
onoarea
texte
castiguri
scot
potenti@@
imobiliar
anz@@
noroc@@
livr@@
rey
truc@@
trup@@
mal
Cim@@
ly@@
rochie
nutrition@@
Sfintei
cinema
incheiere
115
arabe
purtand
cai@@
precedente
Istorie
controversate
DeGale
Som@@
job@@
ner@@
definite
2,2
axa
asteptarilor
Alibec
muncitorii
portofoliu
oportun@@
Coman
1980
cunoasca
demnitate
enz@@
protesteaza
rost@@
consultant
Siguranta
ford
Servici@@
productii
Bryan
LA
concreta
spor
imaginii
organisme
imposibilitatea
tang@@
Politica
Ah@@
nedor@@
Walter
conc@@
autorizatii
except@@
tenism@@
Pierre
alcool@@
intunec@@
digest@@
ocat
tionale
Camp@@
Inter
erez
conven@@
decenta
apreciez
respect@@
Rece
pul
aliati
judecatorului
multumi
Pes@@
umple
stagn@@
optat
favorit
vantului
afect@@
particular
memorie
jocurilor
comenzi
coalitii
fenomene
masiva
spuneam
sotului
Ortodoxe
nis@@
elu
Valcov
arunce
impac@@
teana
pierdute
3,8
prag
munceasca
vizitatorii
Jennifer
constr@@
fice
Justin
ipotec@@
arad@@
Na@@
artistica
vazute
Camere
ox@@
nicaieri
angajarea
linist@@
CNAS
strang@@
ingrijirea
board
organismele
Asociatii
ys@@
Biden
ami@@
depunere
ACP
asocierea
proceselor
amprenta
permise
steagul
pregatirile
Podgorica
staf@@
plange
solv@@
Evenimentul
tre
ecologic
Brown
Mario
creditului
21.00
Loc@@
solicitarii
obiceiuri
04.@@
cazului
accelerarea
sarcinile
stein
alea
iar@@
videoclipul
podul
generata
Life
rast@@
Batr@@
Ron@@
compoz@@
vag@@
dub@@
itoarea
venind
obligatiuni
lav@@
branza
competitive
A1
ors
ampren@@
ignorat
autonome
Nem@@
gustul
indemana
ante@@
Pu@@
tratamentului
sesiunii
selfie
dig@@
fotografiat
doresti
ul.ro
corner
fast
su
doborarea
ureze
Drept
doare
tintele
inacceptabila
Teodora
Insider
posturilor
titlurile
calculat
mijlocas
binecuv@@
suspectii
lab@@
parinte
jandarmii
urma@@
pricina
brele
musulmanii
enie
respiratorii
Medias
Da
cep@@
interconect@@
spectatorii
pant@@
Andrea
UMF
linistea
denumita
tar
refacerea
licit@@
larg@@
clip
influentei
redact@@
amplasat
Alzheimer
Columbia
29.@@
ionala
anul@@
mananci
Banat
resp@@
privitor
ungara
Maur@@
EVZ
ghet@@
prelungire
Stade
rafin@@
resti
adversari
lati@@
proprietatii
Occidentul
para
Adina
martorilor
Azerbaidjan
cab@@
ulea
occidentali
Publ@@
studio
virusul
informatica
Hunor
benefic
detal@@
.net
rigur@@
ande
monum@@
revoluti@@
Fiscul
ruseasca
neasteptat
conex@@
culorile
artistului
Ludovic
perioadele
fiicei
taj
mister@@
renuntarea
voastre
tranzactiilor
vita
urmele
acceptate
monitoriza
dotate
na@@
promulgat
conturilor
UR@@
vers@@
liberalul
instantelor
fermitate
raportate
completeaza
experiment
Global
ouri
cadrele
elveti@@
unita
benzi
formeze
automata
bert
local@@
clasele
stom@@
sing@@
audierea
incasate
teoria
militantii
cercet@@
defecti@@
Seria
succesului
atenu@@
admis@@
scaune
caile
industri@@
cetateanului
Premiu
lipsi
arter@@
romania
sarac@@
ambulante
comunice
terenurilor
spo@@
Mioveni
eMAG
cabinetului
pis@@
hand
alist@@
opol
polon@@
ino@@
Feder@@
predare
hop
nemultumirea
canalizare
stranga
imbratis@@
pronunta
sec
Caz@@
inara
RCS
intoler@@
cust@@
aminti
vitala
piloti
sasea
sofist@@
proteine
hotare
Autostrada
ulate
scad
macro@@
imunitatea
Cast@@
greutatea
echilibr@@
industrii
manc@@
diam@@
necesitatii
Lot@@
invers@@
zilnice
Ratko
Jos@@
inchei@@
modalitatile
ectiv@@
ministere
ramanand
greut@@
pornire
intelig@@
Aj@@
iubirea
extrad@@
religia
patroni
operatia
antrenorului
til@@
adul
Kristina
retine
Pon@@
iesenii
Lugoj
violat
sive
situatiilor
Sava
controversat
calitatile
structurii
raportoare
oboseala
logod@@
miscarile
450
introducerii
maghiari
regele
anvergura
termenului
producatoare
creatie
avocata
achitarea
Apostol
moschei
Has@@
Comand@@
porneste
prisma
lad@@
universitatii
adolesc@@
Independentei
vorbea
Laszlo
TI
Ortodoxa
asemanator
semnalul
scrutinul
blonda
delim@@
actorilor
posta
SV
liberi
omor@@
Eurovision
CR
Jackson
Fortei
12.000
instrumentul
odihna
atiunilor
Munca
Pen
marcii
BAC
etnic
distrugere
pisica
amplasate
iteaza
Calatori
colaboreze
speculatii
trecutului
absorb@@
master@@
rebeli
deti
canale
surilor
design@@
Carp@@
prosperitate
echival@@
Belgradului
Bacalaureat
amic
spuneau
colester@@
occidentala
Pit@@
Salaj
castigata
morm@@
merg@@
consiliu
sustinatori
bulgara
impres@@
OMC
aferenta
dobanzile
gun@@
difuzata
Cahill
presedintilor
Fondurilor
MApN
trium@@
excluderea
dezvoltata
simtim
Crimin@@
laptele
bombar@@
Formula
dispozitivele
Brigada
constructiva
gestionarii
inraut@@
Nic@@
intreba
presedintie
mobilitate
pensionari
asistam
mani
acului
Christ@@
hotararii
evici
echipajul
ath@@
pierduta
BS
spion@@
dot@@
protejata
nevo@@
tonul
Love
bulgare
í@@
scenei
Drep@@
menti@@
sezoane
atace
accesa
Bucovina
inilor
Mod@@
realizari
cercetator
virtual
indice
picat
pasnica
Atlantic
3,3
orar
gras@@
uste
respinse
Drumul
Luis
inadecv@@
pista
olii
Salah
rute
07@@
rezonabila
actualele
inz@@
deport@@
cantitatile
vederi
nasul
imprejur@@
expus
Galerie
ds
Bursa
omag@@
calm
municipalitatii
insi
teme@@
valuri
ivi
Teritorial
Crist@@
spalat
inescu
adevaratul
lant@@
stirilor
Arseni
Vlad@@
dromul
atroc@@
rectific@@
Da@@
garant@@
creditul
particul@@
protestelor
internata
confort
Emilian
ploile
preocupa
Amsterdam
decern@@
Romanie
reprezentare
inovatie
les
compara
Maj@@
groaza
Regala
jef@@
opoz@@
denuntator
pretinde
demisiona
ANPC
Terceanu
criticata
rezolvam
concura
mosche@@
acta
Sectorul
Politehnica
unere
eriile
Narcis
duble
toren@@
igi@@
alizari
politicianul
nap@@
natiunile
cainii
dramatice
calend@@
Pluto
pum@@
milion@@
orelor
Adri@@
decent
promovam
cuv@@
clipul
Click
Protectie
deruleaza
model@@
tensiunilor
absur@@
acumulat
orez
canad@@
doban@@
medicament
preocuparea
contraz@@
17.00
recep@@
unicul
ps
primare
consistenta
DC
exces
blog@@
urmarite
Hotel
plafonul
slabi
ajutoarele
goale
Moise
primea
simpatiz@@
cir@@
gro@@
implinirea
gros@@
Lewis
regreta
filmare
fixe
tind
pricep@@
enerv@@
0,2
formam
Anastasescu
aprovizionare
observatii
icale
hid@@
asigurati
cante
Roberto
corespunde
distrusa
sediului
Sinaia
Tatarusanu
complement@@
distribuite
planificate
influenteaza
sug@@
art.@@
eac
mutarea
Wi@@
urg
Regale
anna
vasta
primesti
competitivitate
Tokyo
puneti
spectr@@
reconcili@@
identitatii
carduri
Neymar
Zar@@
dolarul
impuls
avansata
temei
Attila
deces
Miscarii
Tib@@
controverse
anon@@
etnie
tan@@
masca
Harry
achizitiilor
burg
homosexu@@
Achim
Project
relua
sab@@
salut@@
absorbtie
cunosc@@
Wh@@
enorme
fondata
arestata
calitati
mem@@
Dragu
genereze
kurde
tis
share
Locale
zvonuri
pali@@
reuni
formularea
impins
orarea
estimarilor
elimin@@
birocr@@
filialei
Univ@@
restructur@@
tial
logic
editorial
Baciu
antrenata
consolidam
sy
Tomas
intelectu@@
baietel
utii
itand
colectia
aturilor
Wal@@
alegi
sate
inclu@@
inscrisi
interventiile
recomandare
nedrept
nemultum@@
Rem@@
aprecierea
diminetii
pictura
ferate
protoc@@
termenii
profesoara
alternativ
oriu
armist@@
sportiv@@
profesie
raspun@@
restrictiile
salile
complicate
eniului
250.000
tricolorii
MS
che
cunoastere
14.00
implementa
Regional
ciocn@@
Mali
insuficient
Produc@@
comercializarea
excelente
Ot@@
comit@@
gratis
Conserv@@
realizarile
foame
plaseaza
incheierii
tribun@@
sosea
Solana
debut@@
provocand
judecarea
certificate
conducta
Felix
portofol@@
renunt@@
anticipeaza
vars@@
itudinea
ROMATSA
aliile
We@@
manifestanti
well
lice@@
directorii
negociaza
dobanzilor
ovo
1970
conces@@
incercau
controleze
tunis@@
termene
emotionant
doctorii
depozit
Exper@@
zborurile
mere
colonelul
6,5
celulele
doneze
incalzirii
Agency
sangele
itiu
Ponte
Teatru
decid
negocia
construc@@
clarifica
indemn
atribuirea
musulman
regaseste
NE@@
apreci@@
accelera
premium
fabricate
nevinovat
crist@@
premiat
aglomerate
forum
Borcea
tron@@
vecinatatea
Tir@@
vr@@
Mincu
preferata
tarifelor
difera
Preda
jan
scoaterea
comporta
impartite
rezult@@
pric@@
vet@@
mobilizare
autori
Arh@@
cunostintele
Maroc
Parascheva
scuza
uniunea
variabil
Companiei
cinc@@
ame@@
talib@@
astron@@
textului
corupti
Cav@@
ambarc@@
star
materialelor
EA
ede
Gaz
poluarea
pompierilor
gazele
Rusu
contabile
armonizarea
marime
oaica
ICA
Miercurea
edia
surprinsa
despagub@@
Costa
Sinai
statiile
tribune
consecventa
alcatuit
Doru
secti@@
adaptat
baltice
inmatriculare
legitime
ental
Universitate
atism
dividende
scan@@
Evalu@@
suportul
nisip
Const@@
benefice
Sunt
mm
oter@@
jazz
Nadlac
criteriu
Pacific
osului
cautate
Rid@@
Dol@@
Floren@@
balanta
agresiva
Tam@@
Mitropol@@
Bet@@
necesarul
HCM
Cin@@
multim@@
inger
copie
itudine
sinucis
constand
Qatar
entuziasm
XIX
Judeteana
contribuind
gur
Drobeta
sam@@
regenerabila
miner@@
enko
sustinea
genocid
Americ@@
Nicolaescu
delici@@
benefica
europenilor
Dupa
proiectat
ProSport
Washingtonul
inter
investitor
Ale@@
oprita
alu@@
suspectate
Crin
convorb@@
indispens@@
Raul
utilizator
ceapa
Coal@@
aim@@
autom@@
islamice
exerc@@
preliminara
japoneza
premiere
incad@@
2,7
trebu@@
Grig@@
Conventiei
melodia
olelor
Lat@@
ska
portughez
umele
mu@@
complexul
descarcari
instruire
hormon@@
cruce
observatori
palestin@@
viziteze
inselaciune
asigurand
My@@
darii
capr@@
bast@@
taxi
echipamentele
Hillary
planurilor
interviev@@
instante
rutina
prezentul
amestec
Dublin
Oficiului
Ton@@
efici@@
autoc@@
vorbe
Scolar
divort
Fem@@
decret@@
deser@@
distractie
Red@@
hin
preferate
fortate
construieste
Hy@@
locuintelor
kamikaze
exig@@
Comunitatea
apropiatii
criminal
Simon
RE
miile
dezvoltam
georg@@
inic
CO
Posta
vraj@@
surprinse
intretinerea
oca
senin
tinerei
tratatul
itilor
scurg@@
Tit@@
absolventii
sob@@
deschiderii
did@@
reanu
cadrelor
radac@@
asasinarea
Lim@@
Kerber
candidate
Ob@@
cadere
ficat
destule
testare
anticipat
concomitent
ther
House
Nav@@
Tamas
stang
Margareta
rean
paduri
chirurgie
infiintare
Brad
continentul
fin
sut@@
deseurile
reformarea
atragerea
Observ@@
revel@@
Ful@@
evic
pedeps@@
stir@@
configur@@
castigatoarea
tiunea
creditori
premiilor
nascuta
excesive
reclame
justificat
colind@@
mig@@
Mike
mingi
Kos@@
acelui
Taylor
aua
Nistor
Dimitrie
pist@@
utilizand
corel@@
intoxic@@
faptei
evacuare
entare
revenind
promovate
amantului
autovehiculelor
Kanal
sul@@
ecrane
intrevedere
curatenie
limbaj
leziuni
adaptare
garantia
Stoltenberg
irakiene
propul@@
Jack
amintiri
ato
like
stirea
crescuta
belgiene
facto
umin@@
propun@@
erou
simbolic
cutit
mentin
griji
pt
postarea
reci
analizata
Big
decisiva
Airbus
S.
tact@@
scl@@
runde
evidentiaza
mortal@@
Abaaoud
Monaco
unta
Turismului
cerebr@@
anelor
relaxarea
Q
vindec@@
til
romanului
etat@@
oricaror
maternitate
adever@@
SD
promovata
noutate
cheltuiti
umar
informatiei
pirotehn@@
inconjur@@
prap@@
inaintate
nii
Rutiere
spionaj
functionar
trenurile
aniei
animal
APIA
ingin@@
folosesti
ille
Carrefour
Cu
tom@@
entala
cautiune
observatie
angajatori
natiunii
XXI
mireasa
sect@@
FA@@
apie
ectiv
OMS
Fel@@
activelor
sustenabila
kovski
oferirea
etichet@@
Galaxy
desav@@
convergenta
paginile
antreprenor
fericite
asiguratorii
Vl@@
asociatiei
Fronti@@
diversitate
Sof@@
Conferintei
trista
detina
Io@@
enesc
deau
amplas@@
Garbine
otel
consu@@
varza
aude
intemei@@
placa
curenta
numesc
ow
petitie
Uber
batalia
burse
prevenirii
odor@@
reconstructia
infractiunile
grabit
market@@
Welle
Magaz@@
Patrick
itatul
evacuati
comercializare
unerii
nervos
cearta
localnici
PUTEREA
Ecaterina
sintem
Parlament@@
pensia
Vinci
crizelor
Play@@
decedati
emat@@
lansarii
inten@@
demo@@
parcarea
Pe
SIDA
decente
Mihnea
aiul
bucat@@
TPII
fermieri
inspiratie
dezavantaj@@
ceha
interzic@@
ometr@@
reducem
uce
Gara
patron
salata
abrog@@
parteneriatului
ofen@@
definitiv@@
petitii
declare
revizuit
360
furia
Studio
realist
RDS
Democrata
valoroase
semnal@@
publicitatea
cumpl@@
apropia
Chel@@
impresionante
intoarcere
neconstitu@@
tableta
munitie
departamentului
eter
competitiile
Slobodan
analizele
iz
expres
administreaza
Daesh
Rob@@
peisajul
Urban@@
1.4@@
Carlos
Suprema
chipul
lac
depasind
Hotnews
evacu@@
ieste
Turneului
Raportul
foam@@
ecran@@
concentrare
Of@@
Luk@@
credea
inchei
Borisov
producatorului
grafia
povestile
macroeconomice
aviatiei
Ni@@
nevasta
Pic@@
provenienta
emp@@
exceptional
terap@@
orn@@
sedintele
aterizat
vaz@@
eru
pietoni
declans@@
domeniului
militarilor
consolideaza
micile
unerea
Figaro
asociata
minuni
ith
manca
Lidia
Daca
sterg@@
plag@@
fetelor
Kl@@
hab@@
conducator
dumnealui
acelei
Chile
Japoniei
URSS
raportorilor
implement@@
low
ceruta
ams
biseric@@
mez@@
kur@@
fotb@@
deza
Nabucco
castigand
han
Lip@@
deranjeaza
Alb@@
cartonase
nori
Sarbatori
volumului
protestatarilor
innorari
inghes@@
ambasada
pozitiilor
apela
gimnaz@@
chinez@@
Zamfir
intalnirile
handb@@
urmarita
acuzand
defensiva
deterior@@
gestioneze
petreceri
matern@@
violentele
1,9
campaniile
justificata
carto@@
preparate
gi
Supercupa
confruntarea
solicitata
reduc@@
tenisului
marturie
dioxid
retin@@
teritorii
dezbatem
diversele
monitorizeaza
opin@@
fier@@
zilnica
Andre
ever@@
asu
ventil@@
purtatorului
mobilitatea
Torino
0,1
legitima
list
permisiunea
scolilor
tiparita
Romanii
prezum@@
continutului
ajutati
bradul
planificat
stalp
crestin@@
eventualele
ovi@@
ingrijorator
ior
marg@@
ling@@
Theodor
toarelor
secundare
Dav@@
otehn@@
imii
ack@@
iesim
esei
Consult@@
secund@@
republica
limpede
indrag@@
apeluri
talentul
turneele
delicata
satel@@
confruntare
locatie
inga
inaugurata
suprafete
protejam
30@@
reabil@@
Toader
lumi
organizatorilor
stric@@
increzator
SR
Seb@@
influentat
colectate
autorizatiei
Copou
ome@@
Beke
investigatiile
oglinda
creativ@@
constatate
Cons@@
ration@@
sot@@
Mid@@
intins
elabora
Geanina
zborul
provoc@@
furie
coopera
filmul@@
depozitele
inutil
Holding
interpreta
microbuz
cartonas
marturiseste
intarziat
admiterea
Arm@@
singurii
seriozitate
inselat
3,6
ceremonii
reni
reclamat
stabilire
administratorii
desfiintarea
clauze
Atenei
Lyon
our@@
inovarea
insulele
sectiile
stipuleaza
antrenorii
zec@@
uirii
Red
saptamanal
tenisul
Vojislav
contur@@
oasele
16.00
inscrierea
1918
detaliate
exceptionala
stabilirii
icia
sociali
capitole
francezul
concordanta
Stefanel
ware
permit@@
livrare
oniei
tratatului
sinucigas
plimbare
hot
ciuper@@
Pantelimon
senatorului
figur@@
Vin@@
iber@@
cuantumul
actii
Vil@@
amenintarilor
supraf@@
austriaca
permitand
evolutiei
3,2
3,4
Dica
Studi@@
principalelor
sonda
crestina
altern@@
ariatului
veg@@
inaugur@@
multinationale
fir
viseaza
paralele
ao
bec
imobiliara
ziare
Frontul
enorma
Ciuc
D.@@
aln@@
zicem
n.@@
sig@@
Badescu
semin@@
italienii
cartofi
Bra@@
artiz@@
sarma
sof@@
folcl@@
locuintei
pretentii
sustinator
amploarea
strat
stud@@
doza
stresul
confirme
alistii
sinucig@@
meseria
caracteristicile
rezolvare
flacarile
eric
termine
omenesti
descurca
israelieni
indreptam
kova
Darius
stimulente
isor
scumpa
Arabe
preven@@
ret
citesc
tona
relevant
transport@@
consolidate
echipajului
Shar@@
secole
douazeci
confirmarea
despagubire
initiatorii
grasimi
Gloria
anuntase
idi@@
cos
mintit
bifat
brev@@
Luka
trail@@
Mosul
imenta
tint@@
manance
umplut
Iord@@
ascunda
loi@@
ces@@
acelea
infant@@
contributiei
ster
schimburile
opoulos
zgomot@@
filtr@@
anchetat
chef
provinc@@
Rog@@
tulburari
Energie
laud@@
ence
procur@@
premiului
tehnologiile
avansul
constitutie
castr@@
Kate
Golden
soarelui
FT
ilie
patrimoniu
front
consumatorului
Conn@@
ibilitatii
genetic
complex@@
eliberate
sportivii
South
gaura
drona
ingrop@@
emit@@
credinciosi
substantiala
dol@@
Gadea
fig@@
recentele
Antrenor
AL
Azarenka
portoc@@
Skopje
odie
autonomia
artificiala
Kas@@
Salv@@
siri@@
arestari
XII
disciplinare
pact
Factor
comunicarii
violentelor
Jurnalul
cauc@@
saud@@
Boca
scenarii
pasari
Poiana
AR
afacer@@
ilo
distribuire
Comanescu
dezii
chip
esal@@
captiv@@
usese
ponta
129
scaunul
opresc
suteaza
tehnologica
Stabilizare
Mineriadei
CON@@
definirea
Codr@@
jel@@
zisa
socialistii
Irlandei
cluburilor
americanilor
Spir@@
Australian
transfrontaliera
deschisi
eas@@
aparatura
aprob@@
CSA
produsului
sperantele
teorie
intermediar
criticii
transmit@@
ereze
Dorel
curtii
ional
grila
ach
Atletico
secv@@
relans@@
Kremlinului
vitale
C.
importurilor
gradului
formatiune
persist@@
sistematic
Mitr@@
doreau
depunem
finantele
ideii
ostat@@
relevat
rezervat
escor@@
ioanelor
rectificare
Asistenta
Moraru
Energ@@
Kh@@
destinul
Bren@@
invinga
apreciate
Elias
prinderea
bei
cadav@@
petrecuta
trag
orchest@@
ografie
Gotovina
transformare
Eurostat
conjunc@@
camioane
inman@@
nik@@
divizia
replicat
ocupata
parteneriate
mer
activele
Tesla
Mega
nik
instrument@@
Special
pantofi
bank
federatiei
Mangalia
Copii
izbucn@@
ramasi
daunatoare
moastele
cash
Polivalenta
win
padurilor
incredibile
documentare
grau
ganditi
disparute
trotu@@
Indian
multimea
ely
padurile
socoteala
Cent@@
incheiata
incantati
confera
ingroz@@
Vama
entitate
bosni@@
traditii
fabricarea
livrarile
obligativitatea
manevra
instaur@@
Atanasiu
consultarea
Informatica
mergea
solare
influente
petrol@@
alizam
Asigur@@
ucraineni
neobisnuit
oce@@
sectiei
infrunta
dispara
retic@@
tiza
invitata
rem
blog
originale
examenului
atici
eluri
ieftin@@
fenomen@@
Int@@
concluzionat
consemnat
tabela
comunicatului
Awards
Aliment@@
Safarova
Pana
intreprinz@@
scufund@@
erc@@
zilelor
scandat
pied@@
branduri
antreprenorii
lucratoare
intub@@
perceptia
micuta
Day
rol@@
tortura
Guseth
secreta
neze
postata
tere@@
anov
Editura
iernii
intentii
reactiona
ceasca
Kardashian
31.@@
cunoast@@
subvention@@
chirurgicala
onate
definitive
lic
beasca
Mondi@@
raman@@
Dam@@
yo@@
Darren
satisface
Art
inlaturarea
izolate
dotarea
imunitar
Fre@@
predea
functionarul
ilitatea
Smiley
meserie
incarcare
Arte
sindic@@
rupe
Veche
sprijinita
reglementata
suburb@@
scaderii
Pul@@
asigurator
ratificat
roluri
capitale
cereale
Andra
Industr@@
eliminare
Sah@@
Solomon
desemnata
macedoneni
adanc
capacitati
prezece
Sor@@
fenomenului
multianual
Fund@@
preuniversitar
afli
ä@@
itional
ziu
minor@@
ho
adaptate
reactioneze
intele@@
ascund
Manager
Sturzu
etaj
Comarnic
way
putinele
bacterii
racor@@
initierea
vremurile
uniforma
sii
debuta
verificarilor
Slatina
Securitatii
finantata
burg@@
pasaport
Campion@@
resursa
rectificarea
navelor
conducatorul
acquis
cuprinzator
Mak@@
catalog@@
compusa
legitim
neschimb@@
dovedesc
evrei
dulciuri
cetatenia
ax
gestioneaza
ceasuri
apreciind
insisi
pen
americanca
antreneaza
stiinte
decisa
potentiale
frumusete
Sportului
polul
neasteptata
piscina
field
oiul
Skoda
uniti
yn@@
parului
aliei
seismic
infarct
uat
adarea
inovarii
necesari
opere
eful
protejati
inghetata
concursuri
cop
asculte
sesizari
Richter
elef@@
alimentarea
viceprimarul
scot@@
ato@@
Nissan
Pactului
Pruna
Johnson
municipale
supravietui
defect@@
linistita
apeleaza
ARE
Muz@@
scept@@
Olimpic
tual
creand
Grup
infractionale
acord@@
akis
traditiile
aplicatiile
Strateg@@
originala
muscul@@
flo@@
US@@
intrebarilor
36@@
cainele
lent
presupusa
Wawrinka
cablu
palestinieni
cului
retinerii
cec
duci
vanduta
tranzactie
volume
motoarelor
imprumuturile
ajun@@
plimba
Cant@@
Catol@@
Scott
abs@@
intelepc@@
cosmetice
Observatorul
Olli
stimuleaza
rolurile
Brit@@
Fed
savarsite
arda
PA@@
utei
reprezentative
antrena
limiteze
exacte
dop@@
oluti@@
adolescenti
air
solutionate
tipurile
israeliene
emotiile
agricultori
obez@@
navele
corp@@
ghid
TIR
expresia
aeroporturi
prelev@@
rapid@@
imunitate
Aviv
ECR
mergand
selectia
monede
ija
manifestarile
4,4@@
atiunii
caracterizat
asociatiile
dosarelor
impozitarea
inspector@@
alp@@
atis@@
Hamas
altitudine
Razboiului
uga
cantec@@
Ok@@
amanare
Lopez
individuala
ienii
britanicul
St
exploziv
olele
declansa
Bouchard
reglementate
pasion@@
bust@@
hn@@
proclam@@
respectata
Metr@@
8,5
zo@@
Muzeului
recunoscator
prabusirii
da@@
atest@@
autorizare
planta
Kol@@
Busoi
munteneg@@
exprimata
cibernetice
itali@@
ear@@
Stat@@
propriului
Bruno
intreprins
hand@@
forestiere
persecut@@
acom@@
imbrac@@
adaug
bai
arti@@
calug@@
iarasi
Os@@
tha
sirea
penalitati
Iul@@
implicarii
Bernard
bariere
gravitatea
tim
jucate
intrunit
Ves@@
ogr@@
tez
izbucnirea
concretiz@@
combina
eu@@
apreciere
Austriei
obiectele
Arsenie
Maxim
RT@@
chii
endi@@
even@@
transportata
zon@@
ON
devans@@
revoc@@
roz
neste
indreptate
urmatori
All
hiei
Dmitri
birocratia
bombardat
Valencia
lamaie
eleganta
maritima
look
Fizica
kurda
cheltuiala
impas
raidurile
indr@@
succese
23@@
precise
funer@@
preocupat
insule
vitamine
jurnal
import
superba
Post@@
iun@@
out@@
Glob@@
JAI
Perman@@
locatia
tranzitia
stabile
aducand
fantoma
Vice@@
inaintata
furnizarii
cailor
mafia
candidata
draga
criminali
Florida
3,7
amanunte
reputatia
canalele
drumurilor
garantate
Mand@@
fiscal@@
ovan
a.
denunta
otic
transmitem
certificat
farmaceutice
socio
indol@@
aceiasi
imobilului
generalului
sticle
maximele
opot@@
220
reglement@@
Logan
neu@@
statistice
alocati
avan@@
credeam
identi@@
ninsori
Albert
Flo@@
pasnic
psihiatr@@
cancer@@
spons@@
studia
autorizarea
Mesic
len@@
rop@@
oxigen
informeze
tendintele
aresti
uscat
masacrul
fibre
Cabinetului
confund@@
UC@@
indicator
Tarii
soferilor
Otopeni
inchiriat
esi
reamintit
Djindjic
4,2
Basel
Ambulanta
vehement
livrarea
copaci
nit@@
obses@@
socialist
filmelor
Stephen
spatiale
Prut
OS@@
icki
Regionala
Parchet
toaleta
disputata
1987
stand@@
imbracaminte
olo
Lucie
chitara
titudinea
explicand
zac@@
disparea
Ham
consulta
itoiu
predic@@
vad@@
taximetr@@
U.@@
iro
acciz@@
compromisuri
insur@@
Papandreou
Matematica
incarc@@
fit@@
parlamentele
volat@@
err@@
grafice
largi
gresite
strateg@@
itudinii
indiv@@
masoara
ambitioasa
invitam
rezistat
tir
itudinile
inchidere
crestem
Aren@@
invoc@@
Limba
elii
recunos@@
individu@@
Timofti
valoros
costume
suspici@@
contat
recurg@@
tig@@
observator
Kost@@
alternativi
anchetatori
exploatarii
ina@@
condusi
verificarile
rent@@
Len@@
biletelor
confis@@
directiv@@
revenim
king
manual
musulmanilor
rupa
125
pieton@@
australian
1986
Razboiul
investigatia
1945
gigantul
FCM
stabilesc
importantei
sudica
Tomislav
Rod@@
itiv
HD
amesteca
a-
ceasul
24.ro
grop@@
sey
luptele
fructele
mex@@
oportun
mineri@@
darea
Transporturi
sentimente
roma
retinuta
nelin@@
comunisti
predarea
Bran@@
tez@@
suprem
Filarmon@@
demn
buzun@@
asfalt
zul
reconstructie
ozitate
400.000
Voinea
accidentelor
ucrain@@
Firea
imprumut@@
locomot@@
Dj@@
onom@@
Barcelonei
olan@@
acoperita
Fal@@
inte@@
imprum@@
interven@@
importate
rena
inati
isprezece
ash
evaluata
cotidi@@
biroului
antibiotice
metabol@@
Stiinta
apart@@
intrand
concertele
Mem@@
ibilitate
stabilizare
alina
agit@@
amenajat
imbracati
ping
exc@@
CL@@
aki
Show
proaspete
Eu
incompatibilitate
Luminita
echivalent
abordata
Ombuds@@
orientarea
poluarii
exclud@@
carti@@
Wuhan
Revolutia
OS
scad@@
reac@@
Metan
geografice
valutar
cuplului
exager@@
diverselor
Net@@
Porosenko
furnizare
mont@@
bach
exist@@
etich@@
rechem@@
flot@@
TO
zah@@
Str
vatamare
transpor@@
Andronescu
Asi@@
office
uturi
prejudicii
anexa
asigurarile
generatiile
230
autocarul
Verde
Torje
nutr@@
Vechi
Fiorentina
apelului
her
ish@@
culmin@@
calculele
ó@@
vech@@
Cauc@@
printesa
rie
porti
croaziera
elaborate
Administr@@
Leon@@
adune
icei
fabul@@
asfalt@@
subteran
atacatori
infectiilor
ef
salariatii
master
Zap@@
minoritate
depozitare
Nik@@
saptelea
vigil@@
infer@@
nevinovati
birourile
boicot@@
sensibila
icor@@
caracteristici
1984
Tol@@
protesta
bunica
pa@@
turcii
vechile
redeschiderea
cal
reduc
spanz@@
Gab@@
mix@@
penalti
Co
materii
fiinte
ingului
vul@@
lap@@
diab@@
contradictie
astice
nesig@@
scandaluri
tubercul@@
ciclu
ingineri
trof@@
Lic@@
Forbes
numire
capata
sanatosi
suspiciunea
rasa
confection@@
palma
perform@@
Noi
seminte
IL@@
Arti@@
negocieze
ias
capacitatilor
habar
Smart
Jamie
Eti@@
mostenirea
Coc@@
echipat
autocar
sarcinii
Miami
transplant
decorat
inscriere
Men@@
Olteanu
pilotii
recens@@
linga
cresterile
Rat
durerile
meg@@
americanul
spectacolului
identificati
laure@@
Muzica
evalueze
inceputa
ratificarea
tehnologic
ken@@
sindicalistii
respectivele
incar@@
grati@@
orientat
inecat
prof
Vr@@
rezidentiale
gram@@
Edward
ateste
chirie
imbunatatita
mersul
tatii
podium
citeasca
asimil@@
furate
prezidentiala
afirmatie
incuviint@@
electoratul
compon@@
jurisdic@@
cruciale
coordona
Printul
exercitat
diplomati
salari@@
dintii
hie
soseaua
Porto
off@@
exacta
oa@@
imbunatateste
Caransebes
prefect@@
2021
clasate
film@@
oti@@
fragmente
Javier
ambitia
Tudorie
adapteze
Hong
Primului
Mirela
parcului
licenti@@
activisti
Joker
izarile
Ari@@
Birmingham
Ashdown
cerc@@
Lungu
Punc@@
Dayton
aspectelor
incasa
regelui
victor@@
invidi@@
baruri
posibilele
Bus@@
adver@@
pror@@
beneficiar
camin
Maicii
italianul
adevarului
iluz@@
campul
dona
adio
irakieni
romii
traversat
inaugurarea
War@@
dolar
spitalelor
Kat@@
et.ro
Montreal
concesiune
manag@@
islamica
infiintarii
amenajate
antat
26@@
spatiala
prote@@
Bologna
castigatorii
dimensiunile
victoriei
invoca
propriet@@
viitoarei
Turkish
Opera
amane
vorbitor
satului
gazde
colegului
Antonia
stabilizarea
intun@@
iori
Te
cozi
Coasta
240
new@@
Florentina
planificarea
accentuata
Petersburg
tatea
artificiile
respectand
metroul
satisfac@@
tril@@
desparti@@
Vir@@
Look
135
pofta
stra
recunosc@@
SPP
incepi
repete
solicitarilor
teribil
Mik@@
personajele
Oz@@
spatiilor
initiate
Cluj@@
despartirea
Kevin
Zuckerberg
falimentului
privita
punctelor
sea
tism@@
Sev@@
surprindere
Socialistilor
VA
Energy
King
rectorul
oric@@
virus
superb
mode@@
semnele
pozele
suedeze
unite
eligibile
Gro@@
oaspeti
incetare
Gener@@
orala
pend@@
Govora
ham@@
ABC
Anului
calcat
Ban
Fab@@
BN@@
trend
ingrijoreaza
reaction@@
atlantica
demararea
depresie
but
nucle@@
asie
urmatoarelor
grupei
mandra
cabl@@
Don
perchez@@
sfatul
individ@@
performantei
Curaj
exercitiile
montate
potentialului
latura
old
Goran
siva
specie
brute
Ax@@
depl@@
mail@@
teatrul
antioxid@@
indrepte
exten@@
psihologica
Pom@@
Banica
solicitantilor
etapele
ducem
ovar@@
sporeasca
OIM
fire
cabin@@
profesorului
formal
limit@@
credibil
teles@@
Veter@@
sovietice
expune
imentul
piram@@
acti@@
reaminteste
coerent
abtineri
ovita
olic
Alexand@@
Ken@@
Bob
Sociala
depasita
accesibil
determinate
amnist@@
civililor
Log@@
folosul
bus@@
separata
azul
Procedura
ajut
necunoscute
sters
lotului
po
finalizeze
tablouri
bariera
Sud@@
cian@@
carea
Lap@@
sinc@@
oianu
IO@@
calatoriile
lipsite
profil@@
odi@@
menaj@@
uiesti
virtutea
derul@@
pelicul@@
Judiciara
Madalin
accidentare
defavorizate
feric@@
potriveste
albastra
macedonene
scaderi
Parteneriatului
stingerea
osii
examina
mergeti
preocupati
impul@@
ciudata
viceprimar
emita
distinctie
castigatori
minor
etri
cumperi
apreciata
Shutterstock
psiholog
clarificarea
reit@@
Rosca
contestatie
subv@@
veneau
Cezar
infractionala
Disciplina
cerebral
jer@@
solid@@
favorizeaza
ke@@
stinga
XX@@
contra@@
Radovan
standard@@
tap@@
indemnizatia
anat
Loteriei
adi@@
incapacitate
imbunatatim
Rosii
concurenti
legislatii
urmarim
IGPR
albanezii
timpurile
play@@
amanunt@@
Petrosani
limb@@
agresiv@@
Dumbr@@
sfatuit
refug@@
prosp@@
rel
tururi
Strada
macedoneana
membr@@
ock
planificare
externi
refuz
incadrarea
azil@@
seriei
afirm
⇔
domn
injunghiat
Tineret
instabilitatea
kov@@
temperaturilor
perchezitiile
expertul
tehnologiilor
you
preluare
precipit@@
acumulate
vindeca
Operei
gramada
uj@@
gad@@
BR@@
uoase
retrospectiva
ecolog@@
26,@@
reprize
nerambursabile
duel
PMB
Ceahlaul
Terapie
idi
Afganist@@
evalueaza
cauz@@
Va
beton
aprovizionarii
surprinsi
stramut@@
creative
entionale
fidel@@
intervi@@
alung@@
recomand@@
garantare
finlan@@
statiunile
accesibila
batrana
sindicat
nepotul
Doha
speta
Jocuri
nar@@
infiint@@
izii
rezid@@
legiu@@
economist
Lar@@
Fox
Beng@@
preti@@
primarilor
pulmon@@
motocicl@@
Rel@@
consol@@
aviatic
ateliere
plur@@
Parisul
pronuntata
PS@@
asumam
climei
Mai@@
prezentati
corespondentului
intalnim
socr@@
flac@@
planificata
inferioara
diplomat
ume
noctur@@
ucen@@
Vara
Muniru
Research
muzicieni
atizarea
transferurilor
teritor@@
indeplinire
Relatii
recunoast@@
hotii
must@@
etn@@
separati@@
suferita
risip@@
restaurantul
reorganizare
vase
Hom@@
problematica
VIP
aparam
turului
consistent
finanteze
fasc@@
instituie
vecini
banane
von
perfection@@
elibera
clipe
second
recom@@
agricultorilor
cheltui
reexamin@@
strica
machiaj
2,1
biodiversitatii
buget@@
reflecte
jic
Ohrid
Sydney
coloanei
navale
Pakist@@
crimelor
executarii
africane
introduc@@
academic
litru
ingr@@
geanta
ende
igiena
lumini
icitatea
usu@@
contabilitate
autospeciale
angajamentelor
ention@@
inauntru
infiinta
Suediei
DO@@
ings
pakistan@@
ierilor
Invest@@
reces@@
deduc@@
enei
Baz@@
mo
Ittihad
liban@@
Lamb@@
plecam
preliminarii
extrag@@
imagina
tichete
Tab@@
episodul
executivului
Regatului
Motoc
plangerea
trase
confidenti@@
Belgiei
men
autobuzul
aripa
Chitu
confirmate
Gheorg@@
tablou
tich@@
CGMB
ureaza
estimari
feroviare
presi@@
elli
majorarii
aul
redactor
cus@@
R.@@
atacatorii
solul
afric@@
excluz@@
recunostinta
ustur@@
maturitate
pariz@@
legalitate
asociatie
restabilirea
artificial
mos@@
marcand
amintind
binevenita
puterilor
suporterilor
confiscat
integra
automobil
recomandata
Today
Caroline
proiectare
Sr@@
comunicate
frantuz@@
treptata
sezon@@
nelo@@
incuviintarea
AEP
nevoite
Populare
1.7@@
malad@@
rezonabile
roaga
Jan
ariana
placute
extragerea
cele@@
muntenegrean
suflet@@
necorespunzatoare
intrerupta
circu@@
construirii
impart
Gaddafi
prelungita
drapelul
resping
chitar@@
teatrului
tw@@
rara
Guilherme
Kremlinul
salariatilor
exploziei
contestatii
Olandei
ika
mister
tranzactia
Brasov@@
inghet@@
Farul
Dani
tini
je@@
elector@@
mare@@
platformei
rut@@
prolifer@@
protection@@
atiunea
mentionam
eniei
OR@@
intensitate
Les@@
folosire
sondajul
uturile
Gir@@
student@@
Wor@@
ity
discursurile
Prof@@
razboaie
aplicam
Jandarmeriei
urmatoarei
investim
profesionalism
marelui
ectelor
tentative
aspru
Mariei
deplasari
sloven
motocic@@
sati@@
Maftei
dovedeasca
izolare
ji
exportul
contribuabil@@
pusti
profituri
agentului
pretutindeni
jumat@@
Rev@@
legalitatea
mari@@
expir@@
mancar@@
originar
ateaza
inite
Salonic
analizei
aband@@
Planului
decisive
gruparile
subterane
manifestare
Netanyahu
adar
virtu@@
apartamentele
Elve@@
aya
Valentina
Bob@@
stapan@@
án
biene
suportate
dac@@
incaltaminte
grup@@
Aeriene
pledat
exercitarii
intreruperea
indem
105
joci
Legisl@@
colaboreaza
.co.uk
Express
periferia
datorat
indeplinirii
cautarile
Pascani
descend@@
Shanghai
cautati
Que@@
absolvent
iter
respirator
recompensa
zbura
chil@@
Alexa
oficiu
continuarii
mortilor
eturi
unirea
folosindu
oaspetilor
documentatia
declararea
Viv@@
gospodarii
campionul
comisari
itatoare
650
marine
dezechilib@@
Soarelui
bulg@@
indig@@
ivul
Cozma
Fortele
cil@@
solicitantii
calde
Din
sant@@
Jur@@
examinare
Maruta
Wolfgang
ser
HO@@
smul@@
ella
demara
mame
sincer@@
singur@@
strab@@
inflatie
Consulting
prerog@@
radar
autent@@
licente
registru
Cancel@@
dorintele
interviuri
organizatori
with
Cy@@
Dob@@
Kong
facandu
versiuni
201@@
internation@@
demonstratie
asumarea
Andone
hotelului
artificiale
ramas@@
Annan
tradition@@
RC
moderata
mentinerii
declinul
marimea
incepute
incarcer@@
Buf@@
Oceanul
artei
ingrozitoare
urate
fostele
suferite
accelereze
hor@@
comunicatiilor
Master@@
exclusa
4,1
suporte
alesilor
ramine
insuficiente
Tosca
obiceiurile
antrop@@
etta
ons
uniunii
banuite
fu
ć
Strat@@
Sociale
rambursare
antic
incercarile
islamiste
lateral
colorate
oman
Djokovici
satisfactie
Sanmartean
Mes@@
volanul
echipamentul
socant
stiind
mandrie
iozitatea
vizata
efective
tra
Mitrovica
uleiul
persecuti@@
implicatii
soferului
Eforie
unj@@
aprobarii
miliar@@
prezid@@
plasata
depasite
White
camerei
redres@@
mormantul
fabricii
delegatii
sustinerii
actualitate
Sky
drastice
avor@@
umarul
tala
intarzierea
amintea
report@@
licitatiei
oferindu
salubr@@
producere
prizonieri
Schimb@@
fitness
later@@
adapta
cititorii
Jak@@
Ialomita
loz@@
masline
opol@@
zvonurile
complicatii
voluntara
n.r
achizitioneze
raspand@@
comput@@
1988
els
ochiul
Cercetarii
lah@@
asociati
ix
sparg@@
infiltr@@
serialului
KO
confuzie
indoieli
Aurelia
aparenta
disput@@
anonimatului
judecatoreasca
imbraca
ake
creare
replici
egida
imbunatat@@
magnitudinea
yu@@
specialistul
manageri
Marinei
americ@@
colaboratori
cancelarului
Blue
peis@@
suspendate
mec@@
invit@@
indragostit
Dezvoltarea
centralele
intalnite
anest@@
Salvati
regulamentar
contractat
avuta
regretul
Carlo
tarife
anuleze
Fas@@
strategiile
kas
patriarh@@
bugetelor
inacceptabile
marf@@
dob@@
business@@
modificarilor
vostru
peretii
comunism
notele
cantitativ
dian
circumscrip@@
incercati
omb@@
1.5@@
batalie
remiza
tancuri
anulata
mania
PFA
fraude
vizualizari
studiaza
opereze
pensionarii
raspunzand
electoratului
tarif@@
frau@@
majorate
entale
tatu@@
Suc@@
traficanti
evski
rul
uiala
hoti
interioara
uimit
A.
halucin@@
Constructii
sire
Egee
vas
ruda
spag@@
trac@@
Lufthansa
intoarcem
accesarea
Academ@@
imput@@
resor@@
ruga
tariful
referatul
siv@@
rege
ampa
jucatoarele
Core@@
prestatia
Autor@@
mobilier
disperare
imun@@
segment@@
IN
restrictionat
Rot@@
reluata
Tahar
ispas@@
Europ@@
Swift
1977
atinse
Investigatii
comision
furnizorul
concepute
sangeroase
ette
bancom@@
capului
litera
scolara
Ste@@
conservatoare
Raiffeisen
pup@@
gafa
torului
balonul
Boz@@
constructiile
groz@@
actuali
ias@@
eliminati
identific@@
huid@@
vizu@@
discursului
bicic@@
extratere@@
Initi@@
cutii
tuale
italianca
dictatura
apte
evaziunii
upa
respinga
Jeremy
fabric@@
sand@@
abuzurile
Kis@@
invatare
Fur@@
Lis@@
cuban@@
calificarilor
balist@@
echitabile
infiinteze
baric@@
sarm@@
bilaterala
igi
cher
indemnizatie
Ora
tamp@@
Venezuela
Ti@@
exprimandu
mitingul
vand@@
misiunilor
suspendati
haz@@
atasat
interpreteaza
auzim
Antifrauda
manuale
Vasilescu
numeasca
fostilor
teoret@@
semnalate
eliberarii
cateodata
integritatii
moarta
abilul
icitate
automate
chet
reciproce
subsidiaritatii
meritat
Gancea
inica
crez@@
uiau
Miller
Valls
Capr@@
fluctu@@
interzica
vizavi
automobilelor
compromisul
sson
acelorasi
taierea
regizorului
tam@@
transfere
nemai@@
parcuri
cior@@
gon@@
cafeaua
chi@@
Economica
prezentand
LE
entiile
bonus
patrimon@@
suveranitatii
santier
ff
imnul
Frum@@
concluzion@@
indo@@
1972
Texas
ecu@@
Chin@@
maghi@@
edil
promo@@
echitabila
Hora
Tottenham
15.00
sarbatoreste
clu@@
EU
privirile
fereastra
previna
montat
liberale
ritu@@
Arhiepiscop@@
Pand@@
fotograf
diferen@@
acuzate
Fernando
trateze
ofertelor
partenera
roti
Iv@@
uos
Patriciu
dormit@@
exprim@@
FP
uv@@
tactica
Montana
juriul
evacuate
insemnate
ibu@@
ordului
contina
doctori
ioare
extragere
functiilor
extrase
directiile
otrav@@
hom@@
perul
cac@@
vestice
pof@@
cite
gesturi
Complexului
nor
ereasca
britanicii
severa
lips@@
elena
impec@@
avansa
Bost@@
1985
vicepresedinti
subsidi@@
ateli@@
Qaeda
Jurn@@
Copilului
posibilitatii
tene
Tig@@
raspandirea
grindina
B.@@
kosovare
pronunte
Guardiola
Topol@@
tehnici@@
piesei
speculatiile
defineste
melodii
vointei
tineti
disperata
englez
Apost@@
arge
ATI
amendamentelor
ador
austri@@
partiala
diz@@
diplomatul
izie
glo@@
asasinat
Neaga
disparuti
109
ordonantei
ascult@@
unand
emotionala
Clinceni
universitatilor
bunavointa
tend@@
Ibrahim
Ramona
amplasata
Nottara
afgani
calcule
190
AJ@@
reglementat
competitiv
tacerea
catedr@@
invecinate
ALE
continentului
ativi
siunea
Rezoluti@@
insurg@@
decretul
Investigare
batran
univ.
merit
orientari
pretioase
etal@@
atribuire
intocmirea
intreprind@@
go
OL@@
codific@@
operationala
Econom@@
Mih@@
izeci
olandeza
nebunie
Sun
patit
adopt@@
caselor
meto@@
livrate
factorilor
departamentul
studieze
arn@@
promis@@
dominata
Pintilii
manipulare
aului
tortur@@
Burs@@
deplaseaza
polig@@
Costea
livrat
contactul
Parteneriatul
fericirea
inregistrand
returul
materna
amenzile
receptie
elicopterul
utilaje
doctr@@
litoralul
iesene
enne
transferata
treci
discursuri
echipamentelor
Ever@@
baraj
oth@@
iii
Lege
organizam
bistrit@@
cuvine
pilotului
clon@@
disciplinara
accelerat
stari
pilon
region@@
alatur@@
silita
Gros@@
neglijenta
stamp@@
erit
plasarea
cot
Lab@@
Cristinel
oga
Tony
supune
afisate
pica
Golful
adreseze
inspira
episoade
dispunem
inimii
probabila
spala
€
fertil@@
Ast@@
2050
abonament
excel@@
2,9
observatiile
ATE
sentimentele
saptea
anuntati
scenele
laptop@@
Jucan
cure@@
popularitate
bolnavii
schem@@
just
Lee
nop@@
Gerea
Mog@@
confirmare
fraudei
Viz@@
expan@@
Excel@@
Ierusalim
0,7
EX@@
neguvernamentale
alegem
protejarii
numitele
Vul@@
PP
Mobile
HR
icieni
machi@@
pasare
acceptabil
terestra
Clas@@
Umane
pit
demit@@
alimentatia
descopere
anor@@
reprezentarea
4,6
bic@@
ironic
nes
cumul@@
marturii
stiintei
Green
liberalizare
entat
Crucea
urban@@
carburanti
care@@
burs@@
BO@@
incon@@
neavand
Ster@@
cpt
corupt
pachetele
culturile
iel@@
GAL@@
disparitie
Govor
Chisina@@
s.ro
haosul
genunch@@
negocierea
Ciprul
monitorizeze
Nigeria
laptop
urata
marcheze
inari
Nick
inot
Forum
Ant@@
Plahotniuc
Crai@@
identificata
alurile
regulate
cutremurul
IGSU
calduroasa
imbunatatite
raid
Mirror
cupele
unilateral
Democratie
28@@
meniul
inspirata
Sport@@
Croitoru
precautie
pari@@
dezastrului
Savu
bd
brok@@
admit@@
Mohamed
uimitoare
iara
spalarea
inconjurat
SE
reprim@@
iner@@
pasapoarte
statisticilor
porno@@
salbat@@
eseu
distor@@
Taiwan
necunoscut
Turism
PL@@
ment
Benjamin
saraca
enic
Panc@@
avioanelor
tragice
François
Online
divid@@
incerci
calatorit
fermierilor
munci
Angelique
inceperii
Busteni
Glasgow
pisc@@
bru
UNHCR
food
Urdareanu
presiunilor
comparat
amn@@
Fol@@
catalogat
aeroporturile
explic
ased@@
concediul
Crime@@
EM@@
bunat@@
Amazon
formelor
fetite
miliardarul
locuia
abuzive
cist@@
proprietatilor
justificate
vulnerabili
Nikolic
anuntarea
reportaj
ip
proced@@
impor@@
Oliver
provoace
implineste
pelerini
joase
Dez@@
inas@@
Honda
unch@@
ku
r.
podi@@
preferintele
atis
barierele
birocratice
demisioneaza
altei
ecosistem@@
baut@@
ascu
plictis@@
Diaconescu
nationalist
vaccin
intervin
bruta
privi
umor
rotile
Rico
Best
amele
Contin@@
examinarea
catastrofe
prelungi
balistice
protocolul
Scolii
taberele
Institute
Ryde
liveTEXT
1974
cercetatorilor
Premiului
claritate
recomandam
Propri@@
apelurile
inspir@@
obstruction@@
leac
prioritatilor
AF
Georgiei
famili@@
supermarket
psihic
beneficiu
periclit@@
Duda
antarea
Grigorescu
FCSB
autovehicul
remedierea
devastatoare
defaim@@
monstr@@
Tere@@
usur@@
vap@@
principali
salariala
print
saselea
insine
Brancusi
rene
Norvegiei
cauzelor
miros
aman
cadavrul
prematur
evacuat
clandest@@
succ@@
folosirii
aprovizionarea
Rosenborg
ruptura
consultarilor
nox@@
calif@@
celebrului
consilierilor
stabilind
profitand
valului
rog@@
aparuta
demonstratii
inspectie
amendamentului
apeleze
fica
asambl@@
categor@@
batai
iertare
cerandu
PSR@@
Larisa
Smar@@
zborului
voiau
Neam@@
nerab@@
alaure@@
perchezition@@
transatl@@
confort@@
Hern@@
Hepta
sfi@@
Nicu
dobandit
copac
tronsonul
Centru
tergivers@@
Je@@
crescand
donatori
sting@@
Djukanovic
salt
cuvantului
Obiectiv@@
Juridica
regulamentele
4,4
demografice
consumator
ghis@@
arbitrii
Intensiva
uzii
serveasca
masculina
clasata
realista
statea
feluri
aze
opon@@
Det@@
Tra@@
rin@@
vinul
indoiel@@
electrocas@@
drastic
nam@@
Bagdad
raspandit
tragem
constructor
exactitate
atra
varietate
Chicago
tasi
ard@@
Hil@@
Muntele
valoroasa
md
secundar
trepte
ture@@
hotarata
Hug@@
inedite
siei
Fam@@
index@@
instantan@@
Ath@@
anulare
Indonezia
aielor
deste
Ministrului
traduce
Speci@@
land@@
precizez
ail
brand@@
spiritu@@
febra
daunele
estice
scapi
Malaysia
simptomele
experientele
Dodik
raj
divort@@
comentez
observ
simpli
see
gheni
feminine
oglu
plenului
Cambridge
V.
purtatoarea
1973
hai@@
minoritatii
Bucur
itiv@@
devastator
aritate
blocaj
limbajul
averi
candidatului
Criminalitatii
retorica
Iuliu
institution@@
fratilor
Lascar
ciocnit
discutiei
Sankt
indreptat@@
Zimbabwe
Benzema
crestinii
canadian
contacte
concili@@
salarizare
Ciurel
trotuar
Jer@@
pragmat@@
Hay@@
pasnice
Medvedev
hofer
Patriarhia
Nag@@
intarzie
Pentagonului
unitar
lacul
chen
fireste
clientului
Bere@@
libr@@
Sejdiu
animatie
sincere
avari@@
limbile
cadavre
scurtmetr@@
Patriarhiei
Hebdo
esului
MFP
inser@@
deplaseze
mos
legitimitate
1979
amanuntul
multora
magazinelor
donatie
astica
emie
obiceiul
Giulesti
uni@@
Jens
kurd
adrese
Eric
coincidenta
Pil@@
atribuite
2,6
intima
aroganta
psihologic
argumentat
pasionat
OK
blind@@
posted
adanci
biologice
pancarte
fetitei
infir@@
intimpla
recre@@
calatoreasca
Aten@@
cioc@@
frate
Nico
Disney
asem
spectatorilor
nasterii
pareri
incadr@@
IA@@
mascul@@
alie
intentionam
Mare@@
deanu
nebun
aniversarea
electric@@
vanzarii
melodie
fumul
Moldov@@
Focus
anian
mizerie
Opozitie
bomb@@
Stuttgart
orism
Congo
inspirate
cinematografe
secre@@
Principesa
valut@@
fabr@@
Neptun
ranirea
ozei
iesti
indul@@
sindicatelor
dure@@
natal
diminuat
abi
potentiala
suveran
atacatorul
compasiune
sprijinite
climat@@
Ma
Kam@@
Sorana
IX
facturile
spulber@@
atractie
detaliata
Austr@@
crema
usi@@
drone
fure
pretextul
Prom@@
rezidential
Servicii
municipiu
Stalin
graba
mark@@
tigara
ramasa
Tig
bucataria
faciliteze
maraton
asociatiilor
pugil@@
Emil@@
Rotariu
cinstit
canton@@
Time
stimulare
Paun
monopol@@
dt
multumiri
pierzi
agresiune
instalatiile
combatanti
amenintarii
inchisori
iminenta
Vlaicu
Crvenkovski
Henri
patul
hep@@
tratam
patrunde
Biblioteca
aruncate
Master
afluxul
kovici
anescu
ism@@
fabricat
raportare
coreean
logistica
cinste
intelegi
munti
faliment@@
Stabilitate
amenintata
Mecan@@
organismelor
inspectorul
acoperis
satisfactia
Gnohere
bruneta
imbracata
utilitati
TP
hii
polonezi
Mohammad
Spatiul
Plan
VOA
permisa
Carpatica
elle
chestiunii
XI
Stav@@
autentic
tion
ection@@
Sony
timis@@
dorita
feroviara
adolescent
olan
finanteaza
neasteptate
intri
deg@@
areste
mecanismului
navigatie
realiste
Europeni
faptu@@
normalitate
intravil@@
achitate
duelul
hiului
Ta@@
cumulat
templ@@
stratul
hotel@@
intersectie
stoparea
rubrica
sef@@
realitatii
etichetarea
exemplar
actionarilor
sfars@@
fez@@
probelor
consacrat
submineaza
circule
derula
substantele
Rossi
Coz@@
inalt@@
comisioane
echi@@
Guangzhou
RT
cardului
tac
conservare
verbale
mostenire
violon@@
aming
intentiona
Francisco
eliminarii
ovei
studenta
constante
Ianis
O.@@
aliatilor
Mec@@
vascul@@
disciplin@@
fotol@@
lamur@@
precizie
Insula
vazand
Sergio
Premierul
onie
cimitir
benz@@
olimpica
planorului
Transferurilor
dureros
balcanica
valoreaza
Octav
Rug@@
iugos@@
Teheran
muntii
Comunist
motivatia
Prim
pion@@
separarea
diferiti
Negru
320
blat
participant
peninsula
prefect
egiptean
telecom
spunandu
lucrau
oprim
liniei
NSA
carit@@
olimpice
Pana@@
sublinieze
imprumutul
tism
adap@@
25,@@
UI
Philip
recomandate
Motors
remarcabil
enelor
pagubele
semnificatii
pregatirii
omologii
eia
Petrache
african
birocratie
famil@@
elibereze
sugestii
550
rezervelor
onice
contradictorii
Cruc@@
inundatiile
caru
SR@@
mirare
sutul
Gear
radacini
Medicilor
0,3
Sing@@
prada
tehnician
terasa
amanate
bin
solar
Arghezi
UK
regale
grecilor
evaz@@
My
inchirierea
iron@@
avize
Pipera
22.00
faciliteaza
Rodica
iubitorii
faceam
Ursu
SS
respingere
nominalizare
actualmente
monitorizat
Pliskova
Sam
furtul
ham
kilometr@@
porumb
RFI
meze
flota
felicita
Son@@
Economica.net
nicidecum
umfl@@
fon
otilor
ascen@@
garson@@
atoreasca
Cercet@@
strain@@
frac@@
vestiar
completarile
caram@@
popoarelor
Groz@@
Kiev@@
fundul
solutionarii
Bild
absurd
inlatur@@
crescute
reasca
adversarul
alimentat
Regia
Der@@
abl@@
globalizarii
UN
nuante
atiune
abe
agan
clarifice
text@@
comercianti
justificare
Irakul
croc@@
sever
Raq@@
indian
uset@@
ortodox
precara
salarial
subventiile
asc
bijut@@
curios
frumosi
jandarm@@
Cul@@
salvati
restituirea
Gul@@
Apuseni
explozive
Ker@@
infring@@
trezi
hard@@
incert@@
litu@@
coechipi@@
Politic
cedeze
fuziunea
avanseaza
beneficiarilor
ose
rapoartelor
Atl@@
actualizate
traver@@
Sport.ro
transformata
bon
federale
atentionare
lave
intreru@@
Bun@@
dialog@@
lovi
defris@@
Olimpia
Locala
rade
complica
carbur@@
back
RFE
prind
proprietarilor
bunele
rapit
ingredientele
Venetia
izolarea
tempor@@
Copil
CD@@
Videanu
confortabil
jen@@
raspunderii
inteza
abuzul
Su
Europol
arizare
mediei
Negr@@
transferurile
elelor
Alt@@
1500
pasajul
aeronavei
criticilor
Andrew
smech@@
lah
cav@@
Barlad
ascunsa
ambitie
Pantilimon
Kurdistan
Babes
zvon@@
gel@@
Jar@@
colinde
Penala
ibilitatea
legitimitatea
obstacolele
consilii
Z.@@
Invat@@
cadourile
inspectori
expon@@
selectate
perceput
Part@@
prealabile
acoperisul
Bania
integreze
servesc
convenite
izbit
cenz@@
sema@@
frigider
SEE
ring
cumparatori
detinutii
dispuna
colectiv@@
cursurilor
jud
Char@@
extinc@@
sis
condamnate
melodi@@
rugaciune
1968
schimbata
voluntare
selectat
irani@@
parerile
incor@@
interioare
cutia
vorbitori
capturat
calificati
sune
just@@
constitutia
simbolul
marul
Youtube
ezie
ajunul
consultativ
initiatorul
avizele
sex@@
adj@@
recup@@
inoc@@
Marko
Actiune
consecintelor
nite
aplicatiei
Bojan
atirea
Krist@@
Protoc@@
hibrid
inculp@@
rusilor
Vidu
var
tibet@@
necunoscuta
excedent
Gruia
filmarile
redirection@@
Me
solidari
distribuie
Emiratele
argumenteaza
ush@@
JO
lingv@@
hepatita
presupuse
fault
firm@@
discipl@@
micsor@@
softul
vizorul
sinerg@@
indure@@
Thailanda
ingrijorarile
diminua
registr@@
AM
artistilor
rechizitoriu
perspectiv@@
plecand
ofiterul
acr@@
majoritati
gazul
Ion@@
Verzilor
expusi
pled@@
ologilor
BO
Zaharia
specificat
accept
isele
orientarile
repl@@
Saf@@
forestier
aflux
intreg@@
Ias@@
satele
orate
esalon@@
Plan@@
mareasca
anvelop@@
modesta
Mov@@
Superkombat
tinuti
nost@@
viabila
Despot
inno@@
sutele
loveasca
incerc@@
mancam
fului
Tim
tenis@@
sului
traducere
efectiv@@
Mun@@
sigla
bursi@@
aparitii
candideaza
Khal@@
difuzarea
carburant
relansarea
literar
declar
insarcinate
adunate
drastica
drogurilor
rateaza
ineficienta
partiale
Sri
indepartate
spiritual
generos
publicatie
discrep@@
testarea
angajator
coroane
Garda
Tour
climatul
comercializate
irigatii
ih@@
MR
sufletele
Ziarului
raporteaza
primirii
iziei
Vietnam
adur@@
ceremon@@
promulgare
oligarh@@
UE@@
expusa
legifer@@
purtam
Arbit@@
nejustificat
fiert
nuci
editura
za@@
ald
calma
angajamentului
copresedint@@
Aw@@
demnitatii
declansata
fina
corid@@
aratau
ys
masac@@
Guine@@
Kom@@
eventualitatea
rah@@
Manol@@
revig@@
tradare
Democrate
pizza
prinse
promit@@
pregatea
Paginademedia.ro
dela
celebre@@
carosabil
EV@@
ascend@@
aloce
AU@@
dormi
tice
toarele
cloud
Romanian
natala
bebelusul
Simu
supravietuiasca
usurile
partici@@
Berlusconi
intelegerii
prind@@
cozon@@
Pacur@@
instrumentat
Romano
atractive
reda
farm@@
Nad@@
omi
comen@@
intocmite
Stirile
700.000
Arc@@
Boeing
extremis@@
chimica
Jon@@
G.@@
jun@@
Meg@@
administrata
sk
cotat
Nat@@
garduri
incul@@
Mohammed
insarcinat
anch@@
directoarea
Adamescu
Mü@@
tranzactionare
Mihailescu
Slem
suportat
semnificatia
odul
atesta
pereti
consumate
ital
amplasarea
rotatie
Forumul
anot@@
aspiratiile
jum@@
Ef@@
ectiilor
sexul
avertizand
Fatmir
interloc@@
submar@@
pesti
socante
familiale
designul
lit.
ios@@
Vegas
Migr@@
insolventei
print@@
micii
Occidentului
eco
Miroslav
Chef
ciudate
termom@@
restaurantele
calculatoare
transmiterii
asiatice
colaborarii
icola
organul
solutionata
sco@@
perifer@@
sanctionati
ului@@
Grup@@
IG@@
idia
Adele
ond
Interviu
albume
bombardamentele
6S
German@@
frunze
AG
garantata
achi@@
demna
aseman@@
pareau
edilului
Stroe
gripa
anturajul
ocrot@@
inainta
reciproc@@
rezidenti
compozitia
Manole
prescrip@@
intalnita
epur@@
ativelor
Star@@
avocatului
Canadei
transpunerea
tehnocr@@
sperie
parfum@@
Salonul
conducatori
Play
Sad@@
Cio@@
tiri
Ses@@
vibr@@
audierile
sportivul
placerea
coeziunii
Bis@@
cibern@@
Laurent
Tuc@@
Lig@@
prosperitatea
popularitatea
Amorim
sensuri
anxi@@
ulei@@
1975
flex@@
informala
Berisha
covorul
Coca
bibliot@@
asociatia
qa
Libiei
necesitatile
reviste
ridicare
diver@@
raportoarei
Domin@@
transportatorilor
à
exclusiva
dispare
Pentagonul
nati
fluvi@@
Robbie
v.ro
rudelor
imprumuta
Ivan@@
Consumatorilor
raspunz@@
Carpatilor
intareasca
Lanka
lumanare
redeschis
adolescent@@
Madeira
dezbatuta
foste
Royal
Brancov@@
orientate
marsul
inject@@
necontrol@@
ingrijor@@
domen@@
temper@@
cauzeaza
paral@@
dizolv@@
succesive
atractiva
pian
comerciantii
celulelor
Virginia
urmarind
Sali
suspecte
Ivanovic
Lid@@
exporta
comita
constructorului
Cristiana
Lionel
Aur@@
cuprin@@
pericol@@
inferioare
Argaseala
esecuri
proxim@@
conducand
ascultam
modelelor
Solutions
factorul
inse@@
complexitatea
bunei
talentati
1.8@@
reluate
salbatice
oud
lav
platesti
presupusul
nesc
strainii
2030
orbita
Kor@@
semnificatie
Iorga
permisul
supermarketuri
perchezitiilor
ilustreaza
Marine
meteorologice
Scrip@@
etern@@
Fir@@
arati
ancheteaza
frecvent@@
giurgiu@@
Sc@@
garn@@
promul@@
adoptare
legumele
considere
continuand
Zurich
Ono@@
Castelul
Arhitect@@
molec@@
inghit@@
monumente
casatoria
zambetul
pad@@
pamantului
orgol@@
Volvo
ones
team
Industrie
desprins
atlantice
bursele
democratul
confiscarea
Telejurn@@
tensionata
diurne
Comisarul
trop@@
sar
sesizata
vorbesti
cronice
coloane
rezuma
Rompuy
Vat@@
Fat@@
ingropat
eventu@@
popoarele
echilibrate
Olaru
abor@@
suficienti
epava
asti
Sapunaru
plafon
Buzaianu
caniculara
turist
federatia
absorbtia
Adela
bugetari
ofertei
Pest@@
inlocuita
animalul
spaniolul
pornesc
tragica
bebelus
feren@@
telespectatorii
republici
regulamente
garantiile
Dul@@
centrelor
investitiei
Integr@@
laser
Taberei
Medical
evo@@
Robin
reprosat
eroi
aste@@
ust
suri
statiune
stocare
joreze
modest
tisti
minora
State
prorusi
120.000
ecranul
Carp
0,4
HG
volunt@@
4,3
antre@@
mecanic
Hum@@
imon@@
raspundem
aglomerat
masacr@@
conexiune
supravietuirea
astepti
infractori
instiint@@
pozat
dobor@@
diagnosticat
Libere
perim@@
mecanismelor
dotata
sovietic
00.@@
simbolica
manifestatii
Ileana
caracterizeaza
extracomunitari
nez
Tudose
primara
cautari
incarcate
Abdelhamid
embarg@@
suverane
agog@@
Program
Brad@@
inferior
inarmat
cupluri
ery
inginerii
termenele
Sindicatelor
remis@@
intul
avertismentul
ministerele
Botezatu
benzin@@
Stirbei
impulsion@@
cartel@@
tricou
dovezile
Carte
inregistrarile
11,@@
indepartarea
ramasitele
gay
brigada
brutal
ascensiunea
academice
Mom@@
urala
oma
prag@@
osn@@
Lit@@
Federal
esca
confrunte
los
sectiune
flux
prin@@
contraventionale
Karolina
rai
frecv@@
prioritar
cooperari
inutila
Bucure@@
destepti
liceul
Cernavoda
natiunilor
Hoop
Gherg@@
zburat
Goga
13.00
Fenechiu
inita
intilor
telefonului
virt@@
itan@@
coaf@@
Douglas
Raz@@
promisiune
Mala@@
initia
cerset@@
3.500
S.R.L.
arctica
Hrebenciuc
Hai@@
omana
martur@@
calator@@
Tot@@
mile
sinte@@
Benz
fierbinti
Scheffer
coordoneaza
dureze
Ign@@
recurge
anesti
urge
magistrat
Ili@@
Bak@@
pastrate
tratamentele
traficantii
intoar@@
univ@@
Politice
Wozniacki
echipajele
procedurale
Telec@@
razbunare
aplaudat
intimplat
ating
ate@@
domestice
Nim@@
penitenciare
ANA@@
utor
DR@@
Dim@@
Che@@
Integrare
bari@@
dinoz@@
soi
cenusa
experientei
soldatilor
Anda
fluxului
incontest@@
rezoluti@@
imir
Boc@@
sanctiune
silueta
linguri
flexibil
raportoarea
robot
sclav@@
luptator
Ped@@
academica
bunicul
multumeste
IR
iot
civ@@
Rud@@
solutioneze
bure@@
ambasadei
paradoxal
specializarea
paste
s.com
juni@@
universul
popoare
stomac
conceputa
Predeal
sos
plasament
socot@@
geam
gul@@
faz@@
Had@@
clarificari
indiciu
pamant@@
Falca
Zalau
farmacii
turc@@
profiturile
exped@@
reformare
nevinovatia
Stirile@@
utu
militar@@
foamei
elibereaza
Sandra
manului
centralei
G.
irak@@
falsificate
apartin@@
definitie
santaj@@
platoul
Pant@@
Dum@@
populatii
sosesc
Les
inderea
Ministri
esecului
nesiguranta
Adun@@
consimt@@
Atlant@@
certificatul
apreciem
evacuarea
MTI
cad
Boli
popular@@
inlocuite
echilibrului
execute
utilizati
Cantacuzino
wa
schimburilor
mld
atitudini
supravegherii
fic
Jilava
practicat
evolueze
Associated
ingrozitor
ICR
intreprindere
cutremure
ochilor
administratori
ISS
urale
readuce
porto@@
Gra@@
fisa
Extindere
dram@@
manipularea
evo
Jen@@
tajul
reporterii
Stud@@
vizitatorilor
numim
Jorge
abateri
inghetat
Gaman
abord@@
noutati
Peninsula
116
incompatibile
scriitori
Carl
Ca
icelor
sky
Xinhua
vizibilitate
barba
ingras@@
org
lich@@
tist
ruti@@
Cairo
potentiali
pilot@@
aliate
plen@@
Diego
Cis@@
Spr@@
Augustin
ish
formei
salii
Ash@@
nului
nationalitate
modificarii
Rogers
elementul
intreprinde
canu
traverseze
alistul
doz@@
ont@@
rivale
BI@@
146
reper
despagubirilor
insistent
Maghi@@
1960
neput@@
lucrand
inver@@
peri
autoturismului
franciza
simplul
rostit
KA
ANCOM
Boy@@
mau
Slav@@
acuzatie
LED
etatii
condamnari
ordinara
norii
Ghi@@
Johnny
evaluarile
primariile
crestinilor
expertiz@@
inchid
cabina
calom@@
Aradului
brat
Cuvi@@
Cov@@
averii
enescu
sindicatul
programa
School
Cabinetul
lingurita
magazinului
Ordin@@
101
armonizare
ocupam
salveaza
flut@@
dintotdeauna
rechizitoriul
ior@@
Tolontan
magne@@
oricui
ulara
campioni
denunt
ingrijorari
zbur@@
schimbate
acente
ead
concentrarea
doream
Duster
atmosferica
iasi
incidentele
liberala
corporale
aparatele
repatri@@
ramai
legaturilor
procuratura
echivoc
semnarii
ratelor
confirm@@
explicatiile
daruri
Fant@@
Asoci@@
practicilor
ameliorarea
verdict
monop@@
transmisie
parlamentarul
Eug@@
datori
Saftoiu
rein@@
predictibil@@
credibila
pirater@@
adult
islamist
expozitiei
psi@@
280
Ingin@@
geografica
Il
09.2015
ierat
stiripesurse.ro
oale
Tehnica
actionarul
divortat
osan@@
Arestul
auer
sanii
oney
ective
interlop@@
Teixeira
Serie
mater@@
Di
aid
sperat
validat
performant
Justitia
vizeze
Cris@@
MB
simboluri
inlocuire
beneficiind
Mark@@
Mures@@
Domn@@
abuziva
refac@@
mitu@@
colaborari
inceta
aditional
inesti
germanii
dezvaluirile
Putere
portiune
Jacques
acuta
destram@@
Unitatea
favorizarea
hidrocentr@@
esc@@
afat
lob@@
Audiovizualului
renuntam
Pov@@
ghimpata
amandoua
oveni
incalcarile
polite
cocaina
norvegian
incarcatura
Linda
Hyundai
Grec@@
inlocuieste
Service
prezidenti@@
Petrotel
interpretate
yan
eth
zgomot
regala
Wolfsburg
intelectuale
agresive
Stra@@
1944
iOS
grat@@
privirea
asele
mente
aterizare
sch
mamele
Cit@@
viral
Consili@@
investigheaza
Alcenat
implicatiile
exagerat
iubirii
nos
schel@@
agentilor
rusinos
Fu@@
priviti
editor@@
descrisa
sprijiniti
careul
detonat
Dani@@
furt@@
plastica
Vlasov
testa
birocratiei
pericole
Jong
orchestra
sind@@
Beta
veto
Auto@@
Eli@@
nefondate
HC
Tomac
stimuleze
incompati@@
absent@@
pleci
familiar@@
confes@@
Jelena
guverneaza
bunastare
fundatia
Fiscului
albastrilor
depend@@
acuma
Fi
Stiintifice
Lut@@
Patrimon@@
inlatura
recomand
saptam@@
jug@@
mutil@@
comite
deter@@
referim
favorite
Naz@@
viitoarelor
strazilor
vinovata
constatam
plasate
ciclul
4,7
auster@@
wit@@
solutiei
zambet
kes
colonel
Recon@@
Opr@@
sectiuni
inot@@
nordica
contravine
remarcabila
fluid@@
bunicii
hackeri
juriului
regie
minoritatea
hackerii
spanioli
Baltica
Sarb
rochii
convingere
combinate
Arthur
intrebe
interpretata
Abr@@
rezum@@
exprimam
regasi
Magureanu
pesim@@
tv@@
Vuk
continui
oncolog@@
democrate
Telecom
parintelui
Militare
icultura
amendata
Leonardo
inchisi
rec
suspecta
Farmacie
ambasadorului
asistente
revendicate
computer
inec@@
cran@@
conexe
CEE
east@@
revit@@
dezastrelor
sincera
autonoma
Pamantul
Iuliana
insotiti
kilometru
Up
cardiace
Muller
actualizarea
combata
uge
concurent
foaie
Toni
128
dezlant@@
nordice
vecinilor
colaboram
iluminat
optimism
Litex
pedepsele
variate
Dorina
chile
Inalt
nesemn@@
bucurestene
considerente
far
sudice
oportuna
cipriotii
zu
tratatele
reziliat
indicate
admisa
fantastic
ratac@@
incorect
infin@@
blest@@
iciuc
patrunda
Phil@@
Rosia
Rou@@
elementelor
perfecte
priet@@
Allah
meniu
Cooper
aho@@
promp@@
incalcate
Teo
grip@@
Docum@@
Maz@@
vinuri
odin@@
longev@@
organ
excl@@
siste
sfant
IPS
mentiunea
ambarcatiuni
scenar@@
materia
romance
1.6@@
leului
chestiunilor
Pedro
Bulg@@
respira
over@@
concurentii
atre
hita
reporterul
aut
utilizam
P.
Trezore@@
ioritate
guvernantei
sovietica
minciuni
parasuti@@
autohtone
Handbal
imobili@@
Hell@@
Ocup@@
ulata
sarbo
trecator
superfici@@
rezultatului
rambursarea
scuz@@
senzori
Damian
13.000
Sunderland
dezamagiti
Steven
politici@@
dedica
indicatorii
cantaret
weekendul
andro
CAS
1940
minerii
B1TV
suplimentarea
365
McDonald
investitura
revolutia
criteriul
114
amintirea
burta
curate
Et@@
Filip@@
comitetului
compartim@@
conducte
03@@
Intreprind@@
amant@@
mentul
wireless
centrare
arabi
best@@
Palest@@
Holoc@@
Inst@@
Lazio
Valori
riscam
opti@@
Corporation
motivand
Gheorghiu
ansambl@@
ocean
nevinov@@
registrul
neregulile
dermat@@
transportatorii
Ki
Company
solara
nou@@
epis@@
fu@@
compensatii
standar@@
figuri
obtinere
mitul
ratiuni
steag
sarbesti
crip@@
conexiuni
umelor
cica
introducem
cifrelor
demisiei
pierit
As
Priv@@
propuls@@
Rosberg
Presei
bulevar@@
Fred@@
priza
ous
Ordonantei
istei
provenit
unanim
ROMAN@@
ential
Rol@@
Traf@@
Asiei
priveasca
trasee
trimitem
Steph@@
proportional
ificari
ofer
anski
incom@@
infectiile
afgan
oprire
reprezentati
intocmai
strangerea
Charlotte
dema@@
dale
bului
transpir@@
descarca
Gavr@@
dureroase
PICCJ
Mari
asigurandu
pene
ratingul
obosit
nicilor
Clin@@
fumatului
baietelul
intruc@@
Iac@@
scufundat
definita
amuzant
Lib@@
Intr@@
impodob@@
injunghi@@
mizeaza
alcatuita
eradicarea
Trab@@
ile@@
gazon
astra
incurajare
arba
Berceni
anihil@@
remizat
Science
desene
amet@@
flexibile
devot@@
achitare
Egiptul
amenintate
manevre
intelegeti
scal@@
categoriei
deasca
Karamanlis
Usatii
memorand@@
neramburs@@
neplacute
liceului
parteneri@@
Cum@@
autop@@
Infr@@
prostie
stocurile
accesat
relaxat
obraz@@
diversificarea
talibani
mirosul
bosniace
erup@@
Zona
Revel@@
dependente
flexibila
tulb@@
parag@@
unga
recal@@
matr@@
mediteraneene
indicatii
sperand
Garantare
ordonante
Dialog
punctului
mast@@
tablete
managementului
variantele
axat
stelist
Andreas
Urgente
aten@@
cerc
Olten@@
covici
reziste
jihad@@
Dumitriu
fag@@
rever@@
miros@@
resort
penultimul
Novosti
ativului
gazului
prioritara
gram
strug@@
interpretari
repatr@@
reglementarii
universitatea
repartizarea
guvernamentali
nutri@@
seism@@
sloganul
problem@@
nia
hiu
artistei
vehiculul
tic@@
buzunarele
oric
dispar
lega
declansate
refuzand
montana
prosper@@
parametr@@
Anamaria
Tarile
bombardamente
reiesit
NT
persev@@
terminal
ture
profunzime
Jolie
Noul
sprijinire
ues
Romaneasca
intareste
Ciuca
industriile
personalitatea
intentat
incorpor@@
inundatiilor
aprecia
oci
Felipe
autentica
pisici
any@@
Malmo
Fern@@
Mazda
respond@@
economisire
capatat
remarcabile
repercu@@
lovit@@
retrocedarilor
integranta
reneg@@
ba@@
ASE
autonom@@
ghinion
ezita
330
Ech@@
0,8
Jazz
suspende
separa
revol@@
consistente
Aeroportului
furnizorilor
grasime
precare
imparti
corturi
austriece
Game
supranumit
hotarati
Ric@@
incarcerat
Ach@@
separatiste
celuilalt
sid@@
heata
Berlinului
Cou@@
calatoriei
analizarea
conducatorilor
nobil
stilor
270
lectia
onorat
ei.ro
incompetenta
cantec
constitutiei
cantonament
poetul
abund@@
proceda
dornici
isuri
Sara
videoclip@@
camerelor
Stadionul
1982
spiritele
Centre
rob@@
elvetianul
elea
anuleaza
vicecampioana
berea
magistratul
elia
Gav@@
astro@@
onim
crede@@
omoara
Paul@@
bucuresti
galben@@
deliber@@
Milorad
breviar
Gem@@
brazilian
anunturi
iute
mineri
plasati
papa
bonurile
TSD
turbul@@
sev@@
blocurile
mes
frunz@@
petrolul
Iugos@@
lea@@
NU@@
Trei
licee
apuca
1978
natiunea
municipalitati
Oslo
reprezentantului
deficientele
Bundes@@
Disc@@
creanta
ieseana
estre
acompan@@
fera
competenti
uren@@
cca
urmei
trafic@@
decor
optica
neperformante
Soc@@
impunere
nicul
trenurilor
Leonard
pare@@
gog@@
gloante
dezbrac@@
precedentul
uper@@
jung@@
fashion
Lavinia
aminti@@
Id@@
vai
introducere
cani
contactati
Seat
Tak@@
recomandarilor
Baj@@
diplome
modific@@
Orientali
explozibili
solic@@
tiunile
.dr
economistul
polem@@
Georgiana
agrement
epuizat
Die
mediocr@@
E.@@
Vasil@@
argumentul
raspan@@
ATA
als
ceri
conce@@
tonului
predominant
Gas@@
Ivanov
manuel
planuieste
BPN
incol@@
cehe
merc@@
dator
Violeta
alergat
Cola
Chim@@
arom@@
conchide
proveniti
Alfa
amul
3,9
argument@@
Stars
contras@@
recap@@
Perez
redactiei
ONJN
tratatelor
Mex@@
remor@@
alimenteaza
make
manifestatie
reconciliere
the@@
incaseaza
pranz@@
rating@@
cotidian
solem@@
Romanesc
Domen@@
Vatican
frumus@@
credibile
analistilor
exporturi
garantam
Secur@@
dorite
amintire
autovehicul@@
Refugiati
concentrata
resul
redactat
Judici@@
rezidenta
desemna
urmarea
valorificarea
lingura
pediatr@@
calculeaza
Silva
luptatorii
numeroaselor
ago
Dortmund
dos@@
precizarea
Tut@@
unat
London
debuteaza
finlandez
curile
clasificate
Spiridon
chinezii
3,1
ves
DG@@
DW
č@@
Sos
localului
ock@@
Monde
titei
Shop@@
Stad@@
restrictiilor
mamica
vili
organizator
uniforme
iorul
biletul
albastrii
indrep@@
alco@@
demers@@
sucurs@@
iturile
Print@@
ben
extrav@@
initieze
Nicole
sim
alizarile
executata
Jim
thr@@
Berisa
psihica
majorarile
Viteazul
ofensiv
Schwe@@
importuri
ingrijorata
ministeri@@
steaguri
adu@@
pase
Construct
plenara
RIA
situl
soti
adean
Clarkson
Spiegel
Image
repara
painea
inregistrarii
calciu
Statutul
voiam
esantion
inginerie
perete
preval@@
dir@@
imprumuturilor
implini
Oncolog@@
Observatori
mijlocie
prezec@@
aliment
dublarea
stenogr@@
revoltat
suspendarii
UniCredit
gi@@
anula
Roberta
emisiunile
estimarea
omenirii
repe@@
subtire
rromi
seriosi
audierilor
activistii
catar@@
tunel
Culturala
iraniene
Brigazii
amenajare
exteriorul
respectare
examinat
esera
preotii
impartita
agul
sucul
deced@@
bucurestenilor
autoh@@
exercitate
Credit
indiferenta
eres
scutul
Londrei
eroul
Breeveld
ilic@@
Hotararea
ilitate
Sistemului
ultat
intem@@
ting
anexarea
distinctia
orientata
Sw@@
amatori
frana
savarsit
tionala
prietenia
icienii
itator
reali
parasesc
domiciliare
cazarea
contributiilor
Channel
semnalele
naval
impartirea
104
partenerului
reafirmat
acilor
Bud@@
Balcan@@
umerii
egr@@
neautorizate
dotari
Cerc@@
anja
Copiilor
congel@@
Anonymous
exon@@
deceselor
promitand
iesiti
sprijin@@
scadenta
flancul
purtata
poet
Gil@@
Lady
ducand
beneficiarul
placul
galeria
pov@@
0,6
workshop
impinge
festivaluri
OFM
infern@@
intrerup@@
lovite
untat
ult
train@@
sigil@@
otei
atoreste
link
selectionata
suger@@
arsita
imparta
utilizatorul
episcop@@
dou@@
Sfin@@
1981
nivel@@
Snagov
Mladenovic
codecizie
Cine
J.@@
gent@@
saptamanile
nip@@
Velea
Navale
Ankarei
experimente
omin@@
Reglementare
autovehiculele
numarandu
glic@@
republican
vaste
yn
^
parter
ectoare
Mediteranei
abordarii
Stanca
scosi
antreprenorul
proiectii
asum
nemtii
instalare
decret
prestari
caric@@
lungimea
Hashim
seniori
Merc@@
untul
iac
tematica
Sat@@
guvernator
Anim@@
Rest@@
Cartei
anonim@@
iubiti
pantaloni
publicitare
Ky@@
peisaj
Ferdinand
amo@@
prospera
Lom@@
ito
ortodocsi
ym@@
Galatasaray
precizam
ilicite
Cetat@@
crizele
diversi
alocare
Judec@@
debar@@
Navarro
tiala
investiti
stip@@
Seul
sechestrului
onest
angajatorilor
brusca
Helsinki
dorm
adeseori
discount
Novi
mondiali
implementata
Pus@@
cumparata
modeste
multumeasca
Kenya
economistii
ambitiile
Misu
decolat
andi@@
strangere
galerie
ustr@@
1967
universale
ario
trasa
inspaim@@
fireasca
segmente
avertismente
142
Ka@@
etat
Berlinul
Comerc@@
bu
Marco
tigar@@
Store
5,6
Televiziunea
Mich@@
sac
combust@@
Ciu@@
formala
lacrimogene
temperaturii
dise@@
subsol
vadu@@
monumentul
ures@@
solidar
imparte
partaj@@
potabila
Kel@@
Serenei
altadata
incurajati
Ryan
insele
proclamat
tenismena
viabile
roboti
iger
desert
amintiti
Ivanovici
contrafacute
MI
diagnostic
activarea
tricolorele
renume
pent@@
aliante
ramura
astru
Matteo
Somalia
ord
inovatia
Mocanu
optima
patrul@@
designer
olandezul
iohannis
repararea
erenta
clinici
ortodoxa
atelier
Economie
Care
redev@@
Pag@@
aeronav@@
inevitabila
Roc@@
intamplate
civica
Hall
mitropol@@
sunet
spiritului
Dieselgate
achitata
caracteristica
5000
19.30
oprite
Sinteza
ruc@@
coerente
Aura
upe
finantatorul
Gram@@
salon
iller
hu@@
disputei
arita
Fan@@
arova
concetat@@
golghet@@
igu@@
deriva
vorbiti
lucrezi
copul
She@@
vehiculat
Junior
Inspectiei
expunere
Comisii
neconv@@
punga
website
congresul
investirea
biz
pasager
MH@@
4G
uimitor
viitorii
filiale
To
SIS
consensul
vizit@@
executivul
strop@@
Lou@@
afgane
viziuni
abatut
distante
ipul
Muncitorilor
elaborata
Alice
Team
Wigler
nejustificate
preponderent
iko
Auchan
pron@@
nisa
anom@@
sarcinilor
Lia
sentintei
T.@@
investeste
aminteasca
corespond@@
GH@@
penitenci@@
biblioteca
afaceristul
Bent@@
operate
furtuni
pii
contemporana
gim@@
Sant@@
izolata
fortati
apet@@
more
gigant
aluri
inscription@@
Civ@@
Alinei
concedieri
avo@@
Liberalilor
consume
Lav@@
cardiovasculare
marite
suver@@
poezie
Filipine
tensionate
pura
animala
Bod@@
postale
sangeros
brasov@@
Triumf
agon@@
nediscrimin@@
investesc
autohton
inviz@@
managerii
rezervate
Lind@@
Adev@@
sarac
amo
rezon@@
nau@@
SAR
Presa
ivele
receptia
Hertanu
teat@@
muncitor
Sta@@
cunoasterea
argumentand
uscate
braz@@
Danut
delicat
Branko
ht
Plaza
performantelor
caii
particulare
buch@@
sustr@@
construiesc
mant@@
discret
indrept@@
entr@@
itic
kilogr@@
angren@@
pavil@@
Morosanu
late
anat@@
spectacolele
antu
restrans
promulgata
dezvalui
completeze
recastig@@
Catherine
materiala
Catedralei
inchiderii
transporturile
Munaf
otice
facturilor
145
calculul
achi
preliminariilor
inaugurala
Epis@@
mentenanta
Hat@@
inhal@@
Uniuni
minoritare
sah
ierele
Jude@@
by@@
ux
Harvard
neajun@@
Rai@@
cifre@@
zecile
entuziasm@@
imputern@@
trezeste
vechii
itiva
violata
ode
concesii
Jeremic
Aleksandar
210
intarit
Baza
reman@@
cris@@
reducand
telecomunic@@
HDZ
Charl@@
revendicari
aprinde
1948
laureat
Septembrie
colaps
cercul
oba
Viata
acceptabila
Espanyol
povestesc
incertitudine
Presedintie
retrase
dam@@
resimtit
localuri
dezamagirea
Coanda
eseuri
Danc@@
sanctionarea
repatrierea
procesare
uba
Gj@@
pedepsiti
atrib@@
adresandu
rasp@@
atu@@
fapt@@
vizele
inghetate
scu@@
credibil@@
iresponsabil
vanatorii
apreciati
SFOR
traiesti
usturoi
AV@@
FF
adversare
Ven@@
dotare
gestionate
televizata
GPS
FK
spirituala
mone@@
invalid@@
canadi@@
titudine
dif@@
Curierul
divizat
dumne@@
capota
UPU
regasit
arhiei
deblocarea
chim
Cernat
Popovici
ajunsese
padurea
incarca
Dragulescu
voluntarii
Ral@@
afirme
adaugate
Elizabeth
comportamentului
calm@@
contabil
SM
editori@@
ortodoxe
atol@@
omenirea
verificati
anic
Verts
planga
participand
administratiile
inselatoare
rag@@
inl@@
Dac@@
Basarabia
1.3@@
tristete
cazati
Gent
inflor@@
tavanul
suspiciune
Not@@
antiteroriste
defici@@
vizual
divul@@
Berg@@
diav@@
Neacsu
Atlantice
eag
despagubirile
ARA
bagaj
greco
Adelina
Dev@@
I.
designerul
autogol
intermediari
3000
cinematografele
Kabul
onata
elaborare
liberalizarii
cut
versuri
nefavorabile
sold
porni
irevoc@@
importul
identii
ureanu
room
rachetele
siunii
perfecti@@
prietene
joc@@
circ
lacului
emor@@
850
bauturilor
fotbalist@@
unilaterala
incarcata
tav@@
diagnosticul
tiul
conforma
Nechita
Rock@@
revansa
Prov@@
elicop@@
Blair
somnul
Sky@@
Monum@@
bolnava
Garzii
Slovaciei
tag
gazduiasca
Boo@@
lemnului
profitabile
camine
STS
Palas
ambasadorii
descrise
Standard
race@@
adjudecat
Puiu
zv@@
turcesc
micilor
Rapa
IC
tigare@@
Portugaliei
bunastarii
fuziune
Entertainment
atita
iciile
OSDO
alter@@
Marketing
iaurt
achiz@@
mediev@@
Sovi@@
autobuzele
Civila
alizand
buzele
siona
consulte
reacti@@
cimitirul
Cafe
nocive
platformele
iatului
autorizata
Borussia
bacteriile
scheme
Puerto
afis
structurala
stri
pond@@
neconditionat
tinerete
certat
Frontului
virtuala
Enrique
inmormantat
aft
solutiilor
M.
extradarea
garanti@@
aport
kilogram
1930
istea
Vatic@@
Litor@@
incun@@
botezat
eleg@@
hotararile
pledeaza
transformate
icai
ER
amanta
5,7
rutele
1983
descoperiri
simplificare
Hotarare
vamal
artilerie
convocarea
ocul
eg
chirurg
sfat
Pos@@
gastronom@@
racire
plagi@@
taia
Sovietica
antisem@@
dis
ris
Infrastructura
106
prompt
vagoane
candidaturii
directoare
Brian
CCA
Gold
antiteror@@
abandonate
timpurie
inaspr@@
Rutier
oce
ordurilor
fratelui
particule
training
aturat
Hotar@@
kosovara
tension@@
intermediare
semestrul
lucrate
anturi
Carolina
supravietuitori
cuptor
avia
observatorii
repartizare
Fury
dezbatute
lar@@
Nis@@
consacrate
ilelor
incadrate
UM@@
nan
proiectarea
horror
Bou@@
Enel
manageri@@
Sarat
clasare
catuse
timpur@@
ardo
insistand
Silvia
ziarele
pericolele
diagnost@@
Burlac@@
raspandita
Patriarh@@
zguduit
teribila
PRO@@
atent@@
nelimitat
sfaturile
miliard@@
rasun@@
Renato
evitate
Antenei
FN
175
premisa
unchiul
derai@@
Studentilor
SEAE
centralelor
Kovac@@
Trencin
descriu
pierderii
bonuri
xen@@
dific@@
strang
bav@@
acceptul
poloneze
concerta
sustenabile
reception@@
Blan@@
Televiziunii
Nar@@
inoasa
Nicosia
cistiga
insemne
tragere
Cec@@
continental
adverse
fundatie
esp@@
aliantei
Rafa
Mic
trand@@
pestele
Nadia
autoutil@@
afa
Ele@@
Calais
refacut
depasim
detasat
Ambasad@@
gropi
operata
revizuiasca
judetelor
mil
sportivilor
unanim@@
ego@@
Anne
Sag@@
Braziliei
Activ@@
premisele
elegant
agreat
cuti@@
substantelor
124
Mitrea
contain@@
acv@@
sarbatoresc
adului
tranzacti@@
brandului
corectitudinea
Domnul
ole@@
Chirurgie
reporter@@
introd@@
Sep@@
Frank@@
lamuriri
socul
tinde
mentinuta
vazuti
Caraibe
ioni
prejudiciului
gruparilor
vertebr@@
gam@@
diferentelor
coaja
defini
artelor
Fisc
Liliana
Turda
neglijat
CNE
PI
suspectilor
Sturza
corpuri
Sibiului
Digisport
consor@@
eanca
urari
filozof@@
patern@@
CEC
DS@@
agiu
anc
potentialii
cvor@@
psd
display
amir@@
etti
OP@@
detinutilor
steaua
profitului
fotograful
Mam@@
divor@@
Referen@@
Cioc@@
doamne
USA
restrictive
reclamatii
103
evaziunea
aradeni
spontan
pretu@@
tup@@
pelerinaj
televiziunilor
transferului
retor@@
scandeaza
panouri
exclusiv@@
recr@@
investigatiilor
dependentei
IBF
Malmström
Pion@@
aily@@
nicii
Las@@
uitate
evolu@@
Zel@@
masti
paraseste
permitea
ajutoarelor
ografia
nerezolvate
Errani
Turnul
sanger@@
baterii
People
Eurogrup@@
Reginei
Banatului
abuzurilor
desfac@@
Negritoiu
emotionale
Eg@@
aplicabila
Slobozia
bazinul
trecerii
complexului
simplifica
planete
dezul
icesti
stu@@
creante
versurile
turco
desemnati
Eugenie
instala
anvelope
percepute
statu@@
dole@@
unci
pix@@
lingvistice
Freedom
Ide@@
6,7
Leicester
anseze
111
Power
Juridice
paroh@@
Voj@@
usca
infrastructuri
cainilor
1976
Timis@@
224
evoluti@@
adaptata
defen@@
Georgi
descu
conectate
UG
salarizarea
optim
retrag
studioul
heroina
Craig
diplomatia
castigul
2.0
legislatura
Lajcak
conventie
taxare
Occidentala
preferinte
Paunescu
Astana
consecvent
Diplom@@
misterul
antrenati
sositi
inmormantare
aa
islav
Mate@@
contureaza
accidentari
alcoolul
hoi
moon
PM
purtatoare
asimilate
Alfred
boy
congres@@
biometr@@
aro@@
dezamagire
vocile
KPMG
convorbiri
col
ocentrale
Gun@@
plast@@
zgud@@
neoficial
magic
tirea
afiseaza
sarbul
arheologii
136
impart@@
deschidem
PF
Intern
aco
israeliana
Net
optimisti
Raducanu
dadeau
IE
Gold@@
Ten@@
contrazice
neo
4,8
amend@@
emiterii
finalei
reprezentativ
bai@@
veritabila
vizibilitatea
adevarati
Costas
Inc@@
Dumitrean
caritabil
landei
suprematia
Prefecturii
aplicabil
promo
nationaliste
premiati
omun@@
detox@@
sintag@@
cartiere
COP@@
contravaloarea
kins
Scr@@
Fecioara
prirea
speciali
intensitatea
localul
Wol@@
Weber
actritei
ory
textelor
Cinematograf@@
productiva
extremisti
Suver@@
radioactive
punea
Tod@@
ures
cuprinda
otica
gatit
evident@@
pasaj
cantaretei
coliziune
eficacitatea
cumparator
unului
estetica
coron@@
potasiu
eliberata
inconjoara
entiala
mg
Fond
ye
bia
peler@@
cuprinsul
paraz@@
118
Iugoslav@@
refuze
cobori
flexibilitatea
laptelui
pici@@
sindicate
Bour@@
evit@@
piste
heza
uluitoare
fabricatie
Crisana
facuti
side
francul
suveran@@
tag@@
polita
treb@@
renovare
atrasi
martorul
vioara
drog
azilului
impresie
observate
spani@@
scoatem
inian
Juan
joasa
mandatele
onest@@
judici@@
arhitect
HotNews
11.000
incalzi
Caval@@
nemultumirile
Fire@@
Humanitas
casatorita
tiona
Fukushima
dificultatilor
prelungeasca
bagajul
Lukasenko
meritul
Lucas
devalor@@
marire
stapanire
oriei
client@@
Anastasia
Splaiul
exotice
examenele
XVI
Combatere
iop@@
minorilor
mentalitate
minun@@
lichide
cicatr@@
porturile
religiei
motivata
imprejurari
conceptului
Federala
vicepresedintelui
cercetate
nationali
Civile
coordoneze
limitare
edeaza
face@@
piper
ninsoare
lat
violatori
oxid
minunate
abonamente
Organiz@@
judecatoresc
dro@@
A3
Rux@@
semnific@@
Vers@@
CI
intretinut
Houston
casnicie
instituite
Zagre@@
Acord
coperta
genetica
inscriu
oreze
deput@@
reuseasca
Gordon
mesele
gemeni
restaurarea
tigan@@
Comisiile
sustrag@@
cumnatul
pres
dascal@@
Lju@@
jihadist
Network
pasionati
atacate
idele
consorti@@
intretine
cile
alban@@
Sprij@@
Fifor
umbrela
amat
1971
penetr@@
Bg
coroana
Boston
derivate
rabdarea
iesiri
nuanta
Alep
pol
Manu@@
occidental
Peskov
carnii
minti
Ghiorg@@
Peru
Borc
maim@@
Vladimirescu
dimensiunii
Duckadam
sterge
neta
imobilelor
dorind
burn@@
Registr@@
eptic
nar
rud@@
flat
rector
Hayssam
prezentului
multimedia
Neculai
cuanti@@
inculpata
autorului
2.4@@
AZ
less
Prahovei
elt@@
iditate
slujbe
binecunosc@@
inchipu@@
generand
pasapo@@
constientizare
1950
onarea
informata
Sy@@
populiste
gandirea
admira
Transpor@@
tos
celebri
divergente
rival
combinat
Natasa
paragr@@
mentalitatea
drogurile
atingem
instalatiilor
treapta
ambigu@@
somnului
Ama@@
Prefectura
discut
repor@@
insistenta
Tai@@
Wat@@
Marcel@@
comitet
deteriorat
desfiintat
UT
intu@@
erati
ien
rebele
mobilitatii
Municip@@
manip@@
Cabinet
tricouri
Hateg@@
sustinuti
alapt@@
ambi@@
sedii
conectat
motivatie
difuza
numirii
testate
libe@@
Kelly
Orlando
perechi
constructive
elles
spital@@
anteriori
mim@@
MRU
Meh@@
actr@@
facuse
contracar@@
anne
speculative
itivi
Tarlungeni
stabiliti
Tun@@
Mont@@
that
ceremoniei
Tratat
easta
arasi
Arabiei
urop@@
stingere
codului
prestate
Supreme
Metalul
.....
Interv@@
Costache
posesie
vart@@
.fr
fat
cord
ning
proaspata
schimbi
atribuie
zborurilor
agendei
Natalia
expres@@
auzele
navei
provocatoare
idea
explorare
agro@@
ipostaze
nemultumire
sopr@@
Nig@@
roz@@
rachetelor
dormit
Santiago
nez@@
saudit
brazi
cli@@
bio
accesor@@
Ly@@
agii
aa@@
solului
aresc
acurat@@
Hon@@
Solid@@
recursul
Lorenzo
Tran@@
Politici
impi@@
invocate
Euroins
concent@@
Robu
Stre@@
colturile
schimbului
dubiu
TIC
incompatibil@@
CC@@
amendati
femin@@
Gimnaz@@
Familiei
sublini@@
stati
consiliile
50@@
odor
stocurilor
SIF
151
MWh
Libertatii
petrolier
izilor
responsabilitatilor
calatorilor
calificarii
Lipa
Wells
lamurit
asim@@
astero@@
proven@@
Apelor
separatistii
covarsitoare
audiata
austului
periodice
buretele
comerciali
prabusi@@
intemeiate
memorandum
afe
initiativelor
banuit
rulare
cibernetic
dezir@@
Gur@@
increzatori
deodata
imaginilor
zboara
universala
practicate
imbina
mutare
Metro
sectoarelor
neplacut
ape@@
comunistii
pract@@
comenzile
Alban@@
Bodea
prevada
Stiri
prezentarii
preocup@@
lej@@
vouch@@
lung@@
omunicatii
examene
news
indelungat
Must@@
yle
dezafect@@
ocupanta
redam
Bucovinei
logo
Cob@@
scrutinului
zici
Burg@@
liniilor
Aqu@@
planorul
defectuos
indoiesc
invec@@
hotelurile
Petro
lau@@
Land
extras
Sporting
eld
instrum@@
eata
cunoscutul
inclusi
urmati
poc@@
EF@@
lemne
binevenit
oasei
revendicarile
marturia
uneri
ideilor
stomat@@
talie
Zah@@
carma
concesion@@
explor@@
Caragiale
declanseaza
eliminam
Ga@@
trepre@@
tical@@
Irimescu
depres@@
Timea
Exim@@
infl@@
concepte
arhiva
varstele
Bow@@
eced@@
coboara
Corpului
ministerelor
razbun@@
baiatului
decesului
Sfantu
vinovatii
dispozitivelor
cantece
greceasca
datorata
imperi@@
pensa
ajutorarea
nere
galax@@
radacina
cheltuie
realizatorul
facultati
impartaseste
dusman@@
works
diverg@@
evidentiez
arm
camer@@
iuta
bie
consac@@
Fog@@
Andreei
Marcu
manifeste
PLR
accelerata
ovine
califice
Electorala
are.ro
definitia
bisericile
orig@@
judece
icole
Stone
Rah@@
constituita
grecesc
jurat
POS
finis@@
investigarea
impartasim
acne@@
pestera
bros@@
tranziteaza
arhitectul
Young
Edi
inimile
EC
rice
erorile
identificam
Suprem
anuntului
sw@@
trip@@
Patron@@
Moga
materiilor
sman
mediafax.ro
pertin@@
masin@@
market
elvetiana
260
Snowden
14.000
notorietate
continente
Buceschi
specializati
reales
1.ro
submina
Arcul
moderate
mediteraneana
tus@@
lejer
salvgar@@
how
ofert@@
Fras@@
resimt@@
titre
cartonasul
consumatorul
investigatiei
vizitele
insarcin@@
ire@@
audiere
salvamon@@
Municipi@@
Fagaras
venitului
obtii
transporte
realitati
rivala
Shal@@
zica
Diaspora
sez@@
Bran
Karadaku
950
Anast@@
rational
invitate
entuziasmul
personalizate
printului
accidentele
imbatranirea
adaugam
transfrontalier
disconfort
hem@@
able
elile
heat
lichid
Radic
aflarea
descoperiti
treburile
Jov@@
PSI
decurg
ajunsa
dublul
Spe@@
Tes@@
stinge
mane
pretext
hect@@
Grexit
MO@@
British
mang@@
avant@@
ContactMusic
militantilor
rochia
Tender
ochelari
indemnizatii
Liturg@@
compas@@
simb@@
C7
Ispas
colo
4.4@@
195
coinc@@
britan@@
descrierea
avant
disponibilizati
Duminica
Craciun@@
cafenele
vacantele
facultatii
previziunile
fantastica
subventiilor
35@@
sodiu
iesind
copia
ove
oa
cord@@
zandu
pav@@
dizolvarea
premerg@@
comem@@
pretentiile
lia
Fag@@
nevinovatie
ardel@@
supuna
1964
criminala
mir
Hezbollah
dezechilibr@@
sacrificii
frip@@
deoseb@@
Parteneriat
record@@
interet@@
vicepresedinta
2.5@@
hop@@
filmate
fund
calibru
R.
M10
Kov@@
calam@@
batranul
televizate
carton@@
identice
Beijingul
sufere
instalatie
ope
deliberat
ingenunch@@
Lor@@
fumatori
Fashion
dinamic
juramantul
comenta
fractura
Will
eficientiz@@
crit@@
santajat
porturi
beat
200@@
Garcia
cumparatorii
omo@@
aspre
itativa
notificare
Lud@@
Bull
bag
disputele
musam@@
oul@@
wo@@
asteptand
semnaleaza
6,8
citez
neinsufletit
profitabila
cana
Declaratia
Euronews
pneum@@
regulament@@
autoarea
Republ@@
18.30
suspecteaza
perceputa
uns
Angelina
etici
siunile
Plesu
Declar@@
Albu
jan@@
Albe
profilului
evitand
Der
deteriorarea
membrul
Poarta
nost
dom
law
respectului
prezentatoarea
LG
hr@@
rad
copiat
Anghel@@
arheologice
deszapezire
ducea
articolelor
egu@@
Arg@@
adej@@
Equipe
decise
elabor@@
evaluam
abonati
mediatiz@@
competent
bazandu
alegerii
Sudanul
virsta
targul
floarea
ceaiul
TASS
prepara
omir
compatibil@@
psihot@@
consecuti@@
Postei
Kogalniceanu
obr@@
entuzi@@
decen@@
interz@@
riguros
ramanerea
constatare
mixta
operatorului
dese
acceptati
divortul
influenteze
reglem@@
Bieber
117
Poz@@
Pis@@
respectati
fibra
umbla
aline@@
difuziune
deficite
Kharja
Cele
dubii
eth@@
Barnier
coboare
plimbat
nativ@@
Independ@@
Nicoara
ert@@
cheltuite
ancea
107
AB@@
unitara
ianul
inadmisibil
Zavoranu
indrazne@@
cart@@
diversitatii
prelucrarea
vedetelor
patriot@@
telespect@@
ITF
etru
intrecut
Most@@
clar@@
antare
foaia
interes@@
Traj@@
MCV
Resurse
decada
vederii
factur@@
excluse
ozitatea
atletism
Frunzaverde
intrerupe
geografic
azilul
rech@@
sah@@
Pay@@
Hoban
35.000
bratul
aflux@@
quo
West@@
glume
survol@@
baietilor
prileju@@
gind@@
nominal
Wizz
College
partiz@@
zecea
compozitor
adult@@
exprimarea
indicand
socati
artele
credinciosii
Apol@@
rugati
direa
dintilor
elevul
danez
RU
calificarile
arh
proportion@@
monitorizate
1.400
Musul@@
norocos
transnist@@
verti@@
socialisti
Sean
guvernatorului
curajos
ezului
Fun@@
asfal@@
nazist
emotionanta
iros
Pres@@
interceptari
1.9@@
baroneasa
ANA
superviz@@
ç@@
Cristinei
sindicatului
concentrate
Princ@@
inceteaza
olis
rare@@
digit@@
pelerin@@
ix@@
Spectre
ceda
colos@@
generoase
bri@@
bage
voluntariat
OHR
genoc@@
apropo
Nu@@
prezentatorul
ocul@@
albastre
aine
gras
zdrob@@
sponsorizari
rov@@
Belar@@
sula
vorbele
ilfov@@
centralizat
ualului
p.@@
temelie
saptamina
Targului
atragand
distribuita
incident@@
aradean
Kaz@@
obiectii
financi@@
demne
vorbitorul
L.@@
fragila
ambasadori
justifice
apuc@@
paginii
favoriti
ziaristi
veritabil
protestului
atentatului
negri
hit
stelistii
televizat
param@@
UNICEF
sindicale
tavan
terul
locotenent
forteaza
depunerii
Summit
expirarea
asia
Roch@@
anci
sexe
comitetul
aniana
punctaj
directiei
hel
solution@@
Gaulle
plic
Pass@@
concurente
autoturismele
neconstitutionala
Under
Castro
Extern@@
Peugeot
nad@@
imprejurarile
optime
sincron@@
intrunire
Box
diei
Hussein
terapeut@@
antrenamentele
cres@@
acoperiti
ievici
Doam@@
tional
inveti
34@@
folosea
Poj@@
tronson
dumnea@@
TEXT
teroare
eficientizarea
maestrul
chema
vulnerabila
contracara
teni
incipi@@
psihice
iev
umilinta
coordonarii
uzia
responsabilii
discot@@
ascultati
fazele
structurat
aciu
Jiului
Inf@@
bineven@@
demisionar
Galut
urcare
Dej
ifere
legion@@
Gonzalez
Santa
cardio
inchidem
corespund
diviziei
Campia
rinichi
Leverkusen
mental
termoficare
Mogosoaia
aca@@
consumata
Zo@@
ienilor
procedeze
solutionat
maj@@
intrerupere
Biz@@
nominalizari
propusi
Georgiev
Literatura
Matt
dureroasa
erne
Fest
palestiniene
contraatac
Fabr@@
Hir@@
abundente
Parvanov
Ther@@
ceram@@
insulina
africana
creantelor
Dorob@@
ercuri
nutritie
Iugoslavia
vaslu@@
Parti@@
anchetele
cerceteaza
secretele
sustras
nesfarsit
Munten@@
Saud@@
7,2
antreneze
ucan
ye@@
talente
Petrica
prezentari
Campulung
comportat
excursie
Xi
asistentul
amicalul
creativitatea
turn
englezii
suturi
perimetrul
Sanchez
repertor@@
sanctiunea
Stipe
pari
subcontract@@
grij@@
gimnast@@
Bun
Piraeus
Rose
regener@@
agresat
structie
tian
ridicol
lacas@@
autospeci@@
Jaz@@
Dimitrov
aju@@
dictator
INTER@@
exercitata
155
preg@@
old@@
furi
icoane
alatur
123
alte@@
inoase
structural
culise
exterioare
sari
derularii
cautand
9.00
indreptata
ucu
stateau
viceprim
raspandite
ridicam
onora
bele
pompi@@
salvate
Nev@@
zaharul
batal@@
Mlad@@
Herastrau
industr@@
aditionale
fiabile
componentele
constructorii
grec@@
Metal@@
5,2
Goldis
vitamin@@
revizuita
externat
uiri
Vad@@
sugera
PU@@
lichiditati
Secret
aprecieri
casnici
Gusa
Progre@@
struc@@
Horatiu
lis
21,@@
linistiti
indea
depozitelor
estrate
FSN
completata
Ierusal@@
rock@@
baterie
ignorate
cz@@
glorie
presedint@@
refugi@@
regulamentelor
ultra
instalatia
Televiziune
echivalenta
ocupatie
revizuirii
indeparta
toaca
amicale
informez
his
ofiterilor
aseze
Tax@@
cercetatorul
olandezi
infricos@@
Sullivan
ucci
odihneasca
bicicl@@
actic
vert@@
putern@@
Ne
autorizatiilor
ane@@
sanat@@
Alexandria
periculosi
Teher@@
incalt@@
centreaza
vitezei
calca
stopa
multilaterale
Trib@@
BT
Subi@@
Nagy
sacri@@
inapo@@
virg@@
fav@@
exter@@
itale
privilegii
Lawrence
proiectate
estetice
anun@@
emb@@
pomenit
Deleg@@
pian@@
Jup@@
Pascal
coopereaza
batran@@
Nec@@
judeteni
apog@@
revoltati
preluati
recorduri
Casp@@
sts
castigati
imperativ
batem
suprad@@
sentinte
telefoanelor
Canalul
descarcare
transplant@@
Vint@@
rigoare
sampanie
Palmira
eleff
Stej@@
umb
iki
Cior@@
ucis@@
stupe@@
pregatiri
atacator
Elev@@
sarea
rezumat
ingham
ulu@@
ezele
Penitenciarului
Fili@@
reorganizarea
Ung@@
stimulent
satisfacatoare
subterana
jo
Prunea
rechizitoriului
Sloven@@
Giorg@@
diva
absor@@
Benitez
900.000
cinematografica
altar
muncitorilor
TIONA@@
Guantánamo
autentice
mobilizeze
organizatorul
readus
Tarom
Grecu
abtine
inguri
lid@@
Fran@@
Imobil@@
echilib@@
tranzaction@@
kal@@
macroeconomica
29,@@
autii
castigi
porecl@@
districtul
doping
UB
rana
sporturi
executive
ectr@@
Zoltan
sprijinirii
Flor@@
vouchere
experimentat
Tenis
recid@@
RM@@
exploatat
Model
Constantin@@
Pancu
Interagro
intocm@@
Palace
SIM
promulgarea
numitului
inovatii
rich
marin
entara
cesion@@
Winterkorn
miscat
intestin@@
gratar
book.com
inrautatit
e.com
zodi@@
Magistr@@
auzite
satisfacator
Rak@@
nefericit
elaborarii
dezvaluirea
redactarea
exced@@
procesate
corespondent
bab@@
ematic
instabila
pedepselor
cititori
Salman
demolarea
iubite
izb@@
sinucidere
frunt@@
Aug@@
nemultumiri
pilotilor
scoti@@
nostalg@@
Sap@@
Tinere@@
tare@@
5,3
plamani
raportori
sugerand
departaj@@
colap@@
inexplic@@
sectoriale
trucuri
integ@@
sarbatorita
Pepe
gandeam
lenjerie
telef@@
cunostea
Isl@@
Tehnic
Trez@@
reprezentatii
Ocean
lipsiti
avertism@@
Yanis
Mica
micutul
avanseze
Lagarde
Camer@@
raut@@
2.0@@
4,9
trom@@
etati
lacr@@
urechi
laude
psihologul
this
condamnam
vaccinuri
ementa
Puterea
idem
fixat
Hurriyet
Elis@@
hioni
vira
Indiei
macel@@
coli
Proiectul
niv@@
Unitatii
ric@@
Salii
Hul@@
my@@
f.ro
Sindicatului
imaginati
Teamnet
operarea
domiciliile
CF
incadrat
ass
bolnavilor
tezei
plagiatul
tru@@
pacienta
itim
nis
preventie
B.
Decebal
33@@
Izvor
aka
Sarah
fondatorii
concureaza
scaunele
nefericita
insus@@
basch@@
incapatan@@
Oamen@@
iluzia
expansiunea
umezeala
iliu
aparator
XVIII
conventii
speciilor
pescarii
litigiilor
enului
intretina
vasele
elementare
transmitere
arbori
tsunami
acordand
mandatelor
opteaza
castigurile
Sun@@
frauduloase
avantajoase
0,9
SRTv
stoc
unificarea
eriilor
urbanism
Angel
stiul
seriale
adjunc@@
statuia
stricat
Unica.ro
ege
jana
aparen@@
dice
Golubovic
tensi@@
alterc@@
5,1
urele
Anthony
traficantilor
Arde@@
Radut
tricolorilor
pref@@
A2
Radio@@
ocup
ingen@@
ucida
Gon@@
BVB
incant@@
Tirgu
Morar
donate
atire
spect@@
Gavrila
evoc@@
spatial
even
Act
said
foi
Sper@@
praz@@
Iotcu
transver@@
NBC
Podu
Egip@@
ceas@@
ceanu
dog@@
prefer
iest@@
Corup@@
Russia
Michel@@
Lewandowski
bis@@
Klopp
productive
premat@@
Baile
discred@@
Black@@
avind
Cred@@
Anto@@
Wikipedia
Martin@@
atti
Pam@@
popr@@
vasul
FGA
Laf@@
tast@@
Martti
istan
132
disproportion@@
Ran@@
ingu@@
isme
tire
ig
regre@@
ercurea
identiala
Cucu
ectul
opia
28,@@
finul
Sib@@
Pipe@@
Ier@@
tabl@@
Giul@@
Oleg
Jason
ux@@
uniform
Amnesty
Kiss
Henry
Eri@@
1.2@@
sens@@
Jonathan
tun
POSDRU
cic@@
Tudorache
alg@@
icol
Pint@@
m.@@
arte@@
sez
Hamburg
Jankovic
Fed@@
Bay@@
isp@@
wood
CM@@
veh@@
1956
kon@@
intere@@
Vre@@
aw
hr
creditor
Fier
india
separatist
Buckovski
tech
acra
costis@@
102
Chis@@
Navodari
SM@@
Deb@@
Haj@@
band@@
oxig@@
t.@@
Nedelcu
mach@@
Sus
Cernea
Bernardino
supra
aura
Sig@@
amar
cru@@
Vill@@
indelung@@
Queen
gor@@
Split
alumin@@
Relig@@
Tud@@
tric@@
165
DIN
Color@@
och
reality
Nikol@@
Republican
toxic
Fierb@@
ple@@
Ray@@
inski
astie
impo@@
Blic
Aless@@
prol@@
bord@@
uns@@
Romexpo
Chr@@
ates
uze
bos@@
Capital@@
abstr@@
H.@@
aqu@@
demagog@@
teatr@@
Util@@
includ@@
Gaburici
CHP
sabot@@
Baro@@
ulete
·
126
Ry@@
parap@@
ESA
coresp@@
altice
war@@
afl@@
wh@@
smar@@
Ramad@@
osu
feedback
Crinuta
Sports
trase@@
Cic@@
icula
Stam@@
flag@@
Oce@@
Jes@@
Gag@@
Rodriguez
Tren@@
botez@@
Jam@@
nord@@
tean
odii
Arsen@@
Point
otti
invol@@
Rich@@
Calinescu
Nokia
Suz@@
intit@@
ifer
Security
bom@@
owski
impot@@
camar@@
45@@
sei
Intel@@
BB
Report
mond
nag@@
Rov@@
Office
auc@@
Rajoy
tanc@@
Baghdadi
cof@@
htt@@
ander
arog@@
Sepp
ACTA
Aeg@@
Hogea
MW
TS@@
OC@@
gene
joreaza
Gran@@
Cea
Capat@@
igg@@
fried
Philippe
contex@@
vile
Report@@
Thr@@
ensive
cool
Bri@@
Tou@@
constru@@
Digital
IM
Pog@@
Uruguay
sov
iss
Š@@
MIN@@
ron@@
are.com
ARADON
Cau@@
priorit@@
Laden
Intel
blogg@@
Jr
enter@@
Death
civic
Bistr@@
Catal@@
cuno@@
Copos
11@@
macro
Imag@@
imbunatati@@
ces
boic@@
Olympi@@
perpetu@@
paradig@@
ordul
F.@@
Manag@@
talh@@
Contact
ovac
aus
baro@@
22@@
Feren@@
Pho@@
aima
Brand@@
ignore
iPad
lass
Burn@@
imped@@
eme
ath
ofo@@
aret
lini
investigh@@
Berca
Development
credincios@@
Centr@@
edat
Jel@@
sint@@
Cru@@
concern@@
Ivica
necorespunz@@
Brati@@
utic
vel@@
mira
Institu@@
Magurele
vocal
instinc@@
atatii
Nord@@
arov
eck
°
Distribu@@
lif@@
Coelho
Olaroiu
fen@@
Belinda
1962
Carac@@
i.ro
hum@@
campan@@
Alek@@
Design
enberg
oss
nout@@
fer
Protv.ro
Oxford
lio
stup@@
ismelor
Svetlana
Beg@@
particular@@
zil@@
Educ@@
May
amar@@
Gates
Rugina
preocupar@@
Karl
122
Shor
Vettel
don
Afric@@
USS
Air@@
trep@@
Night
ungi
Stur@@
PUZ
recapit@@
Mustafa
Eng@@
albastr@@
Christmas
Bavaria
tactic
titl@@
umi
gab@@
ès
piv@@
click
run@@
Jimmy
disen@@
semi
fair
PRE@@
Vincent
spon@@
Nuc@@
Bin@@
Mara
conten@@
toal@@
Eurob@@
Janeiro
rebel@@
Oc@@
321
MA
let
gres
aly
Simone
aras
Ve@@
Bravo
regul@@
sortim@@
supraviet@@
Mev@@
opolitana
Bradeanu
pos
oretic
Talat
Svet@@
215
Banu
ken
ometru
2.9@@
oaselor
Alan
Ed
orin
.org
zu@@
oprea
alog@@
Mul@@
Urs@@
apost@@
pers
Dun@@
GSP.RO
Toro
Consum@@
dens@@
Like
concre@@
Chivu
asescu
Cuc@@
Petersen
147
FBiH
istru
modest@@
sexu@@
39,@@
moale
Dog@@
uran@@
controver@@
Diesel
AFI
RAT@@
romani@@
Ibrahim@@
SL
ral
facilitate
asiu
♦
Memor@@
Alpha
ju
Dumitrascu
occident@@
racol@@
taj@@
Instrum@@
37@@
orita
AD
ets
Vec@@
mitr@@
modul@@
talent@@
ister
doamn@@
REA
pistol
ud
euroscept@@
Muntenegr@@
Mediter@@
eman
ender
Tanasescu
aroma
excav@@
ares
obl@@
ket
neoliber@@
itas
masaj
heim
fermi@@
duba
resc@@
Even@@
arsen@@
Irimia
cocos
erica
ouch@@
Ada
Danem@@
Nus@@
miine
oth
rell
Dig@@
Blo@@
Macc@@
Wis@@
Week@@
CT
gorj@@
IKEA
Boj@@
Progres@@
opolit@@
kowski
mediator
steag@@
z.ro
Bolyai
Denisa
Tianjin
imed@@
stro@@
UM
israeli@@
Scot@@
Olt@@
Bes@@
ement
ase@@
Depp
Marin@@
127
Scar@@
Book
Ode@@
dia
108
Civil
frum@@
Agricole
inea
gar
uch@@
optional
leadership
Olimpi@@
CN
Bej@@
ipost@@
27,@@
nicu
pasag@@
mega
Riv@@
catel
reiter@@
Cadariu
susp@@
infecti@@
Li
concept@@
olv@@
kis
UD@@
emia
izons
Spi@@
rent
Raj@@
Cazeneuve
dramatur@@
arina
Zeitung
Ze@@
Pep@@
accent@@
PASOK
02@@
Jinping
Minaur
Erit@@
Dimitris
obstac@@
key
hoteli@@
zap@@
Eurosport
Ad
obiectiv@@
Domo
eci@@
igat
pres.ro
ison
Porumboiu
Lama
ghe@@
GT
Spor@@
elie
gain@@
Sic@@
drum@@
superst@@
Bill@@
Nucle@@
Verg@@
algorit@@
Matthias
ezei
noc@@
encl@@
mix
defl@@
fragment
ston
absol@@
Viorica
Dab@@
ideri
coliz@@
KM@@
Sheikh
seri
brow@@
nejustific@@
Visa
anny
Barna
Breban
On
Hav@@
tob@@
Cour@@
Saturn
cen
consecv@@
Elector@@
usten@@
ilii
anos
distric@@
mc
04@@
Nicolescu
ook
Home
Rum@@
clad@@
Nit@@
erape@@
Sheen
cupa
1969
Cher@@
Crest@@
COM
Werner
necunosc@@
Visan
MTV
overy
Manast@@
Avram@@
Guinness
ady
Boboc
lau
estrului
Acc@@
biscu@@
Uz@@
Pablo
insolv@@
igan
Parc
Christofias
Jeff
Marm@@
prio
Schumacher
ambl@@
woo@@
amne
Dal@@
scar@@
discipline
haina
ding
juris@@
weather
gastr@@
ood
jevic
Civic
cuant@@
Cat
slu@@
TV@@
litor@@
identiale
magaz@@
Rach@@
Kalas@@
Cristoiu
Volksbank
tog@@
Alex@@
compatr@@
Gri@@
repres@@
eh
Huffington
Guran
Rusescu
pasta
Varga
pregati@@
Open@@
leasing
Brux@@
dependent
semifin@@
Tomis
RES
fest@@
paramil@@
Mill@@
Prodan
Nicolina
Ref@@
Mehmet
zg@@
Sputnik
Grigorie
arescu
emit
Jessen
Buj@@
vez
itz
ural
ALA
anco
ever
Mund@@
Web
roi
semi@@
Munt@@
Mi
Tet@@
Brum@@
Prepelita
Chiriac
unk
Win@@
Stoichita
accep@@
rang@@
An
eficac@@
conflic@@
Schal@@
Ilin@@
Dy@@
Seg@@
perii
erson
vulescu
plam@@
its
Haret
nenum@@
desem@@
Rice
Khan
etc.
from
tain@@
oran
enn@@
pies@@
Tz@@
Sighisoara
CDU
pai@@
tas@@
rer
Olga
Konta
distrib@@
computer@@
main
Melo
atch
digi@@
Hard
Boko
SDP
contrab@@
CAR@@
Bergodi
José
Hasani
panc@@
experti@@
zer
oped@@
aug@@
anis
ext@@
ascal@@
Yves
Ajun
Vid@@
Sandero
Bilbao
Frat@@
trans
Psih@@
Gabor
aroiu
patri@@
eras
Occident@@
fec@@
iderii
marijuana
Madonna
40@@
If@@
Ababei
Semcu
brig@@
LT@@
Strauss
Strategic
Gog@@
Ciocoiu
Macedon@@
Curie
Sv@@
inch
ider@@
estival
ul.info
made
Caf@@
Renzi
arca
lock
Ajax
Adascal@@
dine
info
Paolo
boom
infrastruc@@
ness
Bucegi
PAR@@
Alexandr@@
solo
une@@
Conduc@@
S6
189
priz@@
Gom@@
Mihalcea
reas@@
zel
Turcescu
circumst@@
Manolache
ging@@
ming@@
Desp@@
suspen@@
ierului
cim@@
138
88@@
increz@@
abrup@@
reper@@
Ante
Fit@@
Salaru
EPA
ms
Islam
Matthew
pct
itala
mas
referendum@@
Free
021
Milo
unilater@@
yi
celul@@
Metal
VMRO
Past@@
Kil@@
ector
serb@@
Fot@@
evard
Szij@@
akia
Romani
Bourceanu
Sax@@
rum@@
delegate
offshore
1965
Gut@@
290
stana
Sigh@@
TF@@
auton@@
Trandafir
Mina
micro
ovia
Morgan
los@@
autism
Sas@@
microc@@
Radauti
dorf
apocal@@
1953
Financ@@
uru
dianul
Cath@@
idis
tan
Dimit@@
sovi@@
aton
dri@@
baron@@
consolid@@
agen
133
hia
miracul@@
E.ON
ohi@@
icea
TU@@
Siberia
vacc@@
sancti@@
Chit@@
Zaman
fap@@
it.ro
spectator
dificult@@
union@@
Molenbeek
palma@@
Gabri@@
paradox@@
Magdalena
Rugova
instant
stem
Pin@@
Sharm
formid@@
stan
Emma
anel
sibil@@
EY
repre@@
LOR
indem@@
121
Alp@@
nins@@
Thi@@
Pontif
67@@
violate
Pris@@
Dumitr@@
amag@@
Tru@@
Sirian
consideren@@
ocentr@@
uls@@
East
nasc@@
anina
jak
Resp@@
occ@@
itudin@@
Mexico
oport@@
t.ro
ST
sag@@
Natur@@
canc@@
Sea
umuri
sent@@
Barem
atlantic
pu
gul
Masters
extremist
Nest@@
Christine
diag@@
defer@@
administ@@
SWIFT
cinemat@@
furn@@
Doi
expropri@@
farmaceut@@
sfer@@
Evans
Hab@@
PwC
estrul
ROM
interactive
Blu@@
Mati@@
mortem
astept@@
onei
dispozitiv@@
uli
Rasmussen
tacit
promise
diox@@
Distr@@
Lac
DSS
Syl@@
ager@@
Oil
candi@@
Axente
hidroc@@
Narc@@
porter@@
Ero@@
cumn@@
ocal@@
Jun@@
ibli@@
ader@@
light
Func@@
intercep@@
Zenit
KeysFin
wan
grenade
Florescu
Clu@@
EI
republ@@
1963
interinstitutional
aux@@
tr
Lucia
Ind@@
Valent@@
Rieu
zar@@
unge
string@@
elab@@
lustr@@
Call@@
estru
gospo@@
last@@
motto
Cartarescu
137
ran
curba
Ek@@
DA@@
an.ro
Nicolita
lex
victor
etre
avu
denigr@@
Verhofstadt
Hus@@
Jobs
OTP
olimp@@
Iglesias
simult@@
Rab@@
Guy
Electoral
emerg@@
oft
Howard
prudent
contag@@
Steinmeier
alistic
Madison
TB
Kaufland
Stanis@@
Ris@@
Ludogoret
pan
Mecca
insist
Mess@@
Lul@@
Hur@@
Adomn@@
exor@@
Anderson
ition
coincide
Paddy
oz
D.
igur@@
Aston
reset@@
hoc
toria
IR@@
ker@@
Mijloc@@
head
Motor@@
Gradin@@
wen
rin
simptom@@
ilova
Duicu
Muf@@
Wall@@
pile
inde
Chan
perman@@
USB
niceanu
preferential
Breazu
Technology
omed
lament@@
Zlat@@
update
satur@@
Mathieu
Maastricht
ochel@@
sler
sud@@
Citroen
him
versus
ideaza
BC@@
pren@@
Christopher
any
Dolcesport
EUFOR
municipal
secular@@
adic
ambata
areasca
avita
hul@@
resedint@@
Fec@@
EurActiv
Andrzej
Florica
MHz
defender
Maia
delicate
icon@@
contractual
ugoslav
Moz@@
Jaguar
moc@@
Riz@@
Oettinger
Ples@@
Gaudeamus
dere
abet
Trav@@
fraudul@@
iatul
Wi
solidar@@
2.7@@
Hammond
Ig@@
she
Aleksandr
spot
apol@@
epicentr@@
Corporate
inaug@@
Ghimbav
wn
Beirut
Def@@
Dalai
Valley
Tbilisi
transf@@
Tw@@
erva
sto@@
balcan@@
hib@@
Walker
uck
interoper@@
Ces@@
Tech@@
Academy
ester
mind
OLAF
ISJ
poli
tino
Bosch
bunavo@@
ferm@@
ders
ater
epidemi@@
Dusan
hez
portug@@
Tap@@
Ploi@@
Astronom@@
DPMNE
Postav@@
house
icide
hir
Lanc@@
multicultur@@
ian@@
retro@@
inche@@
concluz@@
Koh@@
relev@@
ahov@@
Ja@@
SCA
Pay
Michelle
Pec@@
Cristescu
1961
Puscas
Vest@@
shire
Universal
McLaren
Bea@@
burgh
accidental
ultim@@
Rand@@
Psi@@
Fond@@
ashi
cob@@
Mary
Ian
Mariano
econ@@
macedon@@
vu
boc@@
TIFF
Wilson
igu
1947
Association
OPEC
oam@@
208
Sad
1939
blon@@
Mizil
tak@@
auza
Up@@
Ghe@@
bander@@
hol
contradictor@@
Sey@@
ateg@@
ric
Market
itian
eland
sun
span@@
senior
39@@
buf@@
Jenner
ique
best
GE@@
ipl@@
Apar@@
pec@@
Mostar
DSP
aila
confisc@@
UPC
hip
admi@@
scrip@@
calculate
Rotterdam
aro
Jud@@
Odor@@
contrast
German
intii
ved@@
ATM
DV@@
Salzburg
know
fut@@
geo@@
-2
Cook
Karim
banking
Hans@@
ylan
o.ro
Max@@
Visinescu
Soph@@
Kou@@
Nicholas
zini
SEAP
recl@@
akens
urie
Sho@@
Vik@@
Lan@@
vig@@
Web@@
It
Nes@@
Draghi
Dimitr@@
Stoian
hack@@
circum@@
134
band
maar
itirul
Valeni
Jaap
Hun@@
muf@@
ii@@
Stanculescu
populist
ERIE
e.
odo@@
Kras@@
Kazan
66@@
isoare
Anadolu
Budeanu
geograf@@
Interfax
Josipovic
Chiv@@
bob@@
Eliza
torn@@
ursul
MT
igo
Timmermans
lus@@
drog@@
mercur@@
Doy@@
Osc@@
Mueller
cauti@@
Ahli
insi@@
Fried@@
conferen@@
offline
Trat@@
zer@@
oven
paci@@
SAT@@
IP
EN
suspend@@
Martina
Vari@@
Gavrilescu
Lora
Dow@@
PNR
atmosfer@@
gang@@
Bobby
accel@@
eo
FIC@@
Austin
mini@@
Pieptea
Istrate
Nicul@@
Impex
iss@@
day
1955
Colin
Fenerbahce
oscut
2.3@@
AA@@
Fay@@
Antalya
ingredient
CPI
antiter@@
ère
stadt
azii
Managing
Bogd@@
itu
1966
ode@@
Sahara
Bruce
pne@@
153
Zivkovic
Vars@@
itan
Potter
KGB
Conc@@
nelim@@
Vali
sca@@
Samson
adata
Titi
Nepal
Dinkic
sani
esec@@
edi
cutrem@@
Milos
Adriean
apid@@
kinson
dorm@@
confir@@
iozitate
420
Dincu
DD
Gim@@
Berdych
Dedu
Thom@@
TR
Ib@@
cren@@
Huawei
Multi
DG
antibiot@@
Schmidt
R.Moldova
aban
Kunduz
preferen@@
186
ID
Esca
Brav@@
auze
lem
yland
Gaal
Bitu
TC
polar@@
relation@@
minimis
ats
TOP
glu
Saman@@
perfect@@
Bay
sept@@
176
ello
Thompson
Communications
Camb@@
elic
IU
Lesbos
Sou@@
element@@
Vet@@
Boldrin
370
inal
CL
duhov@@
militant
Dunca
Mineriada
SPA
asf@@
balcon@@
amput@@
Vlas@@
instig@@
atist@@
Sut@@
1959
perf@@
ISA
Ljubljana
Polaris
Fac@@
carn@@
ilina
asteroid
ais
plit
Hassan
urb@@
Services
Campbell
Dz@@
Wh
apor@@
TAROM
Dou@@
sinszky
pez
activist
tub@@
AGA
Titan
operative
Sunday
Tribune
Bahrain
BU@@
lie
item
Erasmus
esenti@@
Buble
avan
Dell
nan@@
Rama
Out@@
And@@
IL
idar
4.5@@
ush
Koc@@
atle@@
arag@@
Balotesti
Lucaci
Out
pestici@@
Maril@@
iderea
afr@@
neanu
tech@@
Sudan
Bencic
Road
div
spot@@
shopping
scoat@@
eor@@
Dnevnik
ple
Beckham
cia
Kathimerini
Arn@@
August
Days
EADS
Lung
enig@@
Draskovic
prog@@
Boeru
vana
ficare
Balcescu
Wa@@
cosmet@@
inevit@@
surpl@@
Josh
credinc@@
Musk
ob
canicul@@
ñ@@
War
By@@
ITER
cosm@@
oanei
425
protecti@@
37,@@
Ahmed
ival@@
prelu@@
piel@@
sov@@
Tob@@
web@@
kil@@
adis
1941
Dos@@
Kyoto
banner
Rihanna
Munte
Ilan
Sabine
Kot@@
Economist
Staicu
vent
alon@@
necondition@@
Hawking
Pitt
Ciol@@
Florentin
Autom@@
tant@@
protestat@@
Guantanamo
lovic
Mladen@@
Sus@@
cers@@
Mut@@
Step@@
Ross
icirc
Motor
1949
Brug@@
Natura
Aven@@
Stanford
Cora
Zh@@
Herald
gren@@
Mona
uros
sans@@
Nation@@
ANU
SV@@
abis
Beyonce
Insul@@
Test@@
aldo
PM@@
terape@@
Barrot
Conf@@
Ji@@
isan
dres@@
substitu@@
vat@@
Chirita
len
Arist@@
Space
Ferma
113
Csaba
Ghenea
ph
asig@@
Ovi@@
worth
Bond@@
obligativ@@
Dij@@
comed@@
cali@@
Hilton
ssel@@
Eagles
44@@
99@@
Implement@@
nosocom@@
Maxim@@
autob@@
Palmer
emir
puscar@@
Bratislava
Davila
leanu
icky
eliber@@
sold@@
hiepiscop@@
Haw@@
amon@@
odat
Bobbi
aff@@
mom@@
ł@@
NBA
telec@@
Lech
Atom@@
stereot@@
Liu
275
Stabil@@
verdic@@
Bö@@
Dodi@@
bal
anni
Mediapool
iarului
multilater@@
Regul@@
incre@@
demision@@
Moussa
205
Rain@@
Dodon
Patrascu
VO@@
innor@@
Xia@@
380
ET@@
utiu
love
Magheru
recast@@
exacerb@@
hobby
Franco
Bang@@
GA
No
Benz@@
clari@@
PR@@
dezast@@
Hart@@
odina
Enceanu
Award
Marcus
Morais
seminar
ciolos
drav@@
Balint
fect
microb@@
impotriv@@
view
right
stigm@@
inov
Care@@
Einstein
kic
Reding
340
aeri@@
suti@@
Grahovac
Bart@@
Martinus
separatist@@
Key@@
Autonom@@
adren@@
....@@
tim.ro
genta
Lampedusa
beg@@
alert
777
Zlatan
urgie
extra@@
Catalonia
demnit@@
erian
Kun@@
cadr@@
hit@@
Templ@@
ghi
Franz
informative
Uganda
inovic
Jag@@
olos
wa@@
EURO@@
veteran
stor@@
seces@@
SP
Dance
ilum@@
acron@@
Lea@@
here
hain@@
incomplete
inscrip@@
sing
supermarket@@
Challenge
161
boxer
pris@@
Hein@@
Massimo
Dallas
ld@@
Transparency
Ceku
Berbec@@
oo
ovska
excep@@
propri@@
Zen@@
Erste
nom@@
Lon@@
recital
ultranation@@
Ciorbea
ank
ien@@
ocam@@
ws
iam
cari@@
Nob@@
edint@@
Us@@
Foundation
iman
oae
adev@@
oblige
Kennedy
Au@@
Fabio
trem@@
Matel
Prix
uno
atmos@@
etu
Homs
Targ@@
intarz@@
cs
Kos
64@@
hyper@@
Nap@@
motivate
irul
serve
itiner@@
icip@@
autog@@
Tec@@
aeron@@
infraction@@
youtube
INSCOP
Hossu
Dracula
Go
Chip@@
Hann@@
Tyson
AI
bem
full
eradic@@
Osama
indere
oare@@
CRE@@
Kosor
Simionescu
Aud@@
acop@@
Bercea
Marseille
raspuns@@
Abdel
TDI
fest
Ray
vast
Lenin
185
scrup@@
opolis
seri@@
Jessica
aieri
Ian@@
Atlanta
Stiripesurse.ro
ilea
atoria
ataru
digestive
Phot@@
elan
ville
cuta
fiec@@
Sis@@
locoten@@
Division
Tus@@
bine@@
han@@
enger
ANR@@
amentale
sm
Run@@
159
icio
Hapoel
Cardi@@
What
shop@@
Daciana
Samuel
Stein@@
F.
ustin
Mbps
Vuk@@
Transelectrica
Demetr@@
ingo
BI
CNA@@
aparten@@
ulet
EP
Warner
Dumnez@@
edin@@
ib
autotur@@
2022
Meridionali
scurt@@
yen
aproxim@@
Neur@@
UNDP
tibil@@
Alaska
otii
Oliv@@
IF
Bals
ideze
rou@@
ses
Fabius
suscepti@@
Bayer
Stop
Ericsson
Cup@@
FA
now
esco
Lore@@
Grap@@
turne@@
capac@@
observe
Fischer
vent@@
iano
Mach@@
Gaga
Haradinaj
Elek
ercial
Watson
ty@@
ECO@@
borg
ofan
Curt@@
Sigmar
Ontanu
ants
ibliot@@
Grey
Carreras
Roh@@
trist@@
Roy@@
PSV
dragost@@
1.
Blerta
Ferrer
Tennis
usz
Daria
Travel
Moore
V.@@
etilor
Gregory
Baron@@
Cont@@
Prez@@
tom
Nedelcearu
erb@@
ectele
protot@@
INA
adv@@
spun@@
Lag@@
Conv@@
Stri@@
Biris
1920
than
defect
IB@@
cogn@@
Hot
ink
Um@@
IAAF
eon
relief
biom@@
Dean
Gavril
Tunis@@
SU
gaf@@
MIA
asco
Gerard
Danilet
156
PO
301
Bakr
Rub@@
autot@@
not
fam@@
back@@
landa
paramed@@
Bron@@
è@@
angel@@
low@@
144
Gaesti
Leh@@
Tul@@
Ital@@
Prun@@
Southampton
Dacic
pescu@@
CEx
awa@@
Marit@@
AK@@
Agenda
Chry@@
aprop@@
abandon
Monitor@@
manus@@
A4
form
Kob@@
Yil@@
multin@@
Mr
Shakespeare
Sher@@
Kofi
decv@@
Sup@@
55@@
ritual
union
Invest
Liter@@
Markovic
Men
Lugansk
App
blo@@
Herbert
Dra@@
Romprest
Jane
Fundament@@
1936
absolute
Bordeaux
Hr@@
Haz@@
Band
1938
Crac@@
Stuart
uniform@@
Auschwitz
raf
ISE
Vujanovic
Lak@@
85@@
adm@@
rim
Netoiu
33.@@
timid
uki
Lunca
indiferen@@
deriv@@
Stela
specialist@@
catura
acor@@
oslov@@
transparen@@
Muntean
coun@@
statut@@
investigate
87@@
handic@@
multilateral
sz@@
domicili@@
Veronica
Collins
2025
azut
ingredi@@
Balaj
162
Senior
sas@@
007
zambet@@
hub
Jack@@
Foniqi
Syn@@
CAN@@
Argent@@
cariu
ipi@@
aprovizion@@
mark
zy
fax
pig@@
Vosganian
Sirbu
LDK
lit
[...]
