<s>
<pad>
</s>
<unk>
the
,
.
of
in
to
and
a
is
that
&quot;
on
for
@-@
it
with
by
be
as
are
not
I
&apos;s
will
at
have
we
has
this
from
:
was
)
(
which
an
he
they
but
said
&apos;
who
UNK
also
you
-
been
or
would
were
his
more
European
one
all
after
their
can
people
there
year
Romania
/
do
two
if
time
about
than
new
only
its
what
first
%
out
had
no
other
very
when
?
years
them
--
Romanian
because
according
so
our
us
President
those
EU
am
1
country
being
!
last
up
between
these
where
some
government
made
into
even
well
should
state
such
most
must
my
take
place
now
Bucharest
Minister
2015
how
euros
him
world
like
public
could
work
need
three
Europe
however
same
good
many
any
part
under
important
countries
make
over
end
political
want
former
million
against
Commission
Parliament
able
say
without
day
Mr
Union
;
3
10
support
me
says
area
see
States
2
way
law
case
then
US
money
did
number
during
does
team
know
much
report
minister
economic
head
her
go
while
...
think
announced
Council
6
took
through
second
Ponta
come
another
man
possible
today
National
situation
system
right
group
national
old
Member
level
fact
4
next
decision
just
days
company
market
order
since
ing
prime
children
she
life
told
vote
match
before
both
president
every
PSD
long
why
30
budget
following
called
information
20
international
young
financial
5
high
still
several
Russia
including
lei
use
party
few
police
saying
crisis
already
The
used
social
un@@
give
going
S@@
period
based
around
left
months
12
project
15
own
authorities
put
result
local
cannot
among
December
four
show
future
policy
October
citizens
agreement
Friday
11
2014
Prime
done
Turkey
Wednesday
o
far
per
meeting
came
Monday
DNA
received
here
ation
es
November
found
point
help
Russian
United
co
get
event
rights
security
problems
too
Victor
Tuesday
week
B@@
given
increase
development
measures
down
taken
taking
five
back
clear
house
believe
s
change
best
longer
car
let
your
Sunday
billion
Thursday
ago
re@@
small
programme
2016
M@@
collective
until
women
least
process
statement
court
energy
ers
business
D@@
Greece
P@@
companies
7
together
er
family
club
G@@
C@@
ed
tax
current
health
prosecutors
Kosovo
TV
find
conditions
whether
power
France
operation
carried
office
K@@
official
thus
Serbia
again
legal
members
file
addition
areas
director
0
T@@
free
y
continue
points
means
led
better
State
therefore
set
Saturday
times
food
u
September
view
general
military
working
Court
although
human
making
Ministry
month
position
especially
quoted
held
media
play
problem
become
June
control
won
issue
serious
main
course
question
less
00
services
H@@
PNL
reported
N@@
border
great
al
Romanians
Germany
8
total
service
fire
foreign
press
hand
hope
water
&apos;t
institutions
things
Mediafax
large
school
parties
expected
L@@
18
comes
road
elections
criminal
25
move
final
amount
capital
needs
14
leader
died
New
R@@
may
sources
member
region
corruption
action
pay
six
decided
example
k@@
non
air
French
real
term
County
economy
added
General
proposal
F@@
line
something
role
A@@
16
data
contract
anti
asked
ic
representatives
e
others
sent
results
went
difficult
products
risk
everything
University
World
moment
society
special
hours
interest
recent
third
due
Facebook
ensure
within
13
half
form
24
age
wants
home
return
person
evening
different
published
necessary
off
Joseph
Syria
21
euro
Agerpres
Turkish
top
account
reached
attack
mayor
known
land
certain
players
city
each
V@@
E@@
night
basis
German
i
July
plan
education
9
big
debate
player
lost
seen
war
currently
de
Paris
game
h@@
having
I@@
centre
present
stage
50
17
2013
access
provide
receive
gave
open
particular
Group
EUR
&#91;
Greek
trade
close
cars
list
remain
deal
site
common
Islamic
late
writes
August
January
dis@@
projects
reach
woman
Republic
in@@
news
front
brought
competition
call
face
fight
Steaua
sector
research
body
O@@
terms
&#93;
lot
states
funds
full
wanted
leaders
Dragnea
talking
NATO
lead
Moldova
100
force
students
death
start
involved
source
look
protection
investment
k
major
Serbian
voted
issues
League
International
along
Basescu
opportunity
talks
bring
refugees
victims
leave
19
series
opinion
value
always
officials
cent
football
injured
hospital
growth
Bank
doing
past
2012
needed
Z@@
solution
favour
coming
towards
request
40
name
kind
Klaus
town
post
price
Office
y@@
majority
video
hannis
managed
minutes
ask
s@@
further
British
ground
regard
t
strong
cases
little
average
al@@
degrees
g@@
later
m
respect
ones
ated
photo
rules
proposed
4@@
live
May
organised
yet
almost
2009
UN
adopted
morning
d@@
started
message
Commissioner
lack
Oprea
workers
season
22
signed
meet
ministry
thing
history
whole
Italy
established
$
W@@
City
Dan
private
Simona
prison
step
understand
Gabriel
legislation
relations
AFP
transport
resolution
everyone
production
child
Mihai
election
attacks
score
subject
short
field
en
various
shows
quality
House
act
l@@
A
aid
Christmas
strategy
trying
doctors
Cluj
particularly
launched
opened
Party
medical
bank
5@@
en@@
coach
men
nearly
negotiations
forces
23
terrorist
2010
care
never
run
construction
once
Croatia
Bulgaria
Committee
hard
study
rest
Centre
early
Hungary
beginning
near
el
Hospital
film
job
activities
oil
re
27
single
changes
often
gas
Liviu
key
3@@
TAGURI
largest
impact
organisation
6@@
draft
March
idea
global
firm
groups
outside
available
seems
freedom
j@@
building
ten
reason
conference
Ukraine
remains
rule
n@@
cost
investigation
tragedy
2008
attention
starting
ating
t@@
2011
light
J@@
China
Halep
arrest
round
accident
ar
hour
higher
though
nothing
events
tournament
works
seven
ate
noted
Mrs
mother
paid
began
session
enter
b@@
release
SETimes
recently
side
increased
p
presented
metres
environment
perhaps
closed
parliamentary
Chamber
r@@
visit
weeks
statements
met
el@@
words
online
ist
summer
management
Government
approved
thank
de@@
p@@
born
thousands
concerned
campaign
writing
leadership
conflict
training
specific
explained
resources
father
station
ia
extremely
framework
Times
county
patients
institution
performance
forward
progress
26
love
emergency
April
industry
website
an@@
e@@
U@@
ity
7@@
increasing
book
FC
administration
sense
responsibility
stop
don
Spain
banks
chance
Macedonia
rather
civil
experience
Traian
natural
defence
effective
Adrian
28
feel
huge
efforts
happy
technical
Justice
rate
opposition
C
table
procedure
Belgrade
judicial
looking
true
context
Mircea
crimes
immediately
Cup
killed
bad
wife
Hall
prices
population
space
60
allow
ations
os
treatment
network
living
implementation
instead
confidence
ch@@
h
quickly
z@@
interests
begin
costs
safety
illegal
whose
above
passed
star
compared
directly
EC
Ion
minimum
model
success
minute
carry
dead
story
using
community
Popescu
SAA
calling
Al@@
actions
Reuters
crime
away
heard
Brussels
w@@
claims
acts
on@@
registered
ts
fans
win
themselves
considered
regional
colleagues
cooperation
band
agree
employees
i@@
caused
Andrei
create
saw
Iasi
created
itself
positive
eight
Foreign
personal
BiH
accused
justice
daily
responsible
aware
doctor
regime
joint
worth
resignation
ready
enough
relationship
Sorin
headquarters
happened
arrested
friends
payment
documents
tried
goal
additional
victory
8@@
provided
immigrants
2@@
9@@
entire
debt
Madam
tell
son
thought
committee
reports
yesterday
followed
29
traffic
Bogdan
street
jobs
aimed
Code
written
prosecutor
affected
marked
pressure
significant
ul@@
matches
contracts
Gheorghe
latest
matter
er@@
low
values
previous
allowed
soon
spoke
decisions
unfortunately
supported
Brasov
normal
influence
wrote
document
d
Association
Dinamo
turn
initiative
31
2007
takes
changed
conducted
anything
played
despite
behind
.com
credit
whom
returned
agreed
climate
became
lives
discussion
Treaty
provisions
abroad
measure
f@@
Social
shown
February
evidence
anyone
deputy
Florin
offer
.@@
cultural
democracy
steps
earlier
red
wrong
Institute
plans
aircraft
journalists
movement
committed
hit
escu
it@@
response
D
ans
date
exchange
reform
lower
music
Putin
Southeast
travel
art
potential
c@@
title
South
policies
charged
teams
Hungarian
agency
really
reasons
raised
benefit
200
giving
direct
forced
similar
approach
programmes
im@@
tennis
keep
self
Health
fall
Nicolae
welcome
door
behalf
regulation
ly
o@@
placed
funding
No
Ch@@
Year
VAT
interview
greater
45
Agency
ministers
finally
et
George
a@@
intervention
streets
proposals
entered
is@@
turned
talk
democratic
expect
likely
parents
application
violence
Cristian
makes
completed
Palace
career
village
representative
central
included
reduce
solutions
owner
Senate
beautiful
issued
migrants
East
achieve
peace
scandal
speak
share
politicians
Moscow
internal
sure
importance
B
room
hundreds
ever
coalition
Syrian
ting
Fund
newspaper
as@@
standards
consider
winter
damage
sports
related
include
assistance
Daniel
th@@
century
b
speed
Western
nuclear
um
Maria
legislative
aim
salary
heart
maximum
Vasile
ol@@
ina
code
occurred
property
language
municipality
ar@@
sold
read
ahead
prepared
ent
Mar@@
discussed
spokesman
fully
opening
Square
Radu
&apos;@@
regions
London
famous
ian
35
material
Poland
territory
Constanta
500
ics
at@@
built
trial
yes
Albania
chairman
90
Members
systems
voting
admitted
easy
ine
Ciolos
phone
practice
ates
ant
American
text
ies
activity
Bulgarian
sign
completely
black
ill
st@@
cut
mission
v@@
professional
questions
essential
km
God
concert
&amp;
solidarity
entry
cause
Y@@
or@@
insurance
clearly
ruling
pre
Central
test
equipment
dialogue
2006
successful
partners
ks
quite
record
biggest
Britain
mandate
confirmed
loved
mobile
m@@
anu
via
markets
shot
chief
status
actually
Iraq
families
Ioan
fiscal
accept
simply
parliament
terrorism
ad@@
improve
throughout
prevent
Law
lawyer
candidate
u@@
effects
Montenegro
goods
culture
g
stressed
avoid
principle
salaries
ted
failed
ac@@
capacity
driver
Lisbon
Ar@@
worked
abuse
picture
integration
over@@
complete
reforms
Development
II
leaving
fair
+
gentlemen
09
Club
type
weather
provides
positions
organisations
05
page
continuing
someone
becoming
arrived
borders
participate
caught
elected
launch
stability
ally
sh@@
ie
answer
judges
experts
ab@@
effect
ise
submitted
concern
goals
operations
plane
presidential
18@@
T
Service
An@@
07
labour
hospitals
continued
simple
author
benefits
beyond
individual
80
places
il@@
2004
hands
details
.ro
class
Sea
possibility
offered
update
mean
Czech
card
Paul
ended
interested
hall
consumption
North
financing
ana
active
removed
claimed
ita
nine
IMF
Internet
Capital
Dacian
ons
Italian
television
Affairs
try
environmental
op@@
fundamental
heads
res@@
send
independence
detained
GDP
executive
annual
St@@
ica
Marius
70
bl@@
n
Black
Volkswagen
presence
infrastructure
le
charge
Astra
situations
balance
customers
ladies
es@@
06
either
condition
released
employment
agenda
sp@@
os@@
qualified
break
Public
Day
partner
concerns
boy
equal
board
creation
edition
ag@@
Oprescu
Secretary
Alexander
reduction
review
range
singer
adding
incident
charges
asking
seem
troops
calls
applied
build
failure
analysis
preventive
2020
units
across
ball
accession
transfer
festival
candidates
focus
ot@@
amounts
protest
businesses
se
ou@@
agricultural
agreements
friend
Directorate
reality
West
Police
ir@@
nature
Finance
300
leading
em@@
posted
happen
08
ic@@
double
certainly
includes
motion
girl
ical
achieved
z
le@@
waiting
commercial
discovered
priority
imposed
ings
mind
prosecution
surprise
judge
ka
Constantin
happening
champion
promote
husband
taxes
exactly
speech
apply
York
Federation
plant
votes
criteria
preparing
John
category
spent
eastern
manager
officers
announcement
buy
effort
reaction
middle
ed@@
linked
kept
independent
ked
protect
laws
Elena
Champions
Education
et@@
suspended
Democrats
amendment
strategic
Article
cross
estimated
Sibiu
weapons
package
ordered
university
High
student
Becali
establish
develop
wish
moved
operate
Defence
consumers
Netherlands
nor
moving
demand
address
rapporteur
vice
thousand
am@@
technology
scene
Security
Timisoara
guarantee
Deputies
Athens
investigators
Austria
image
era
Vladimir
Croatian
extraordinary
army
developed
politics
tr@@
procedures
blood
scale
ors
sales
disease
buildings
communication
Arad
follow
rejected
Catalin
19@@
journalist
stand
award
appeared
hold
asylum
secret
believes
ism
images
Chinese
ary
ality
discuss
cancer
critical
04
decide
thinking
03
pro
sustainable
stars
actor
strengthen
concrete
figures
staff
appeal
net
houses
studies
indeed
join
movie
sought
himself
fund
letter
Obama
championship
mentioned
produced
users
recovery
connection
detention
pl@@
moreover
000
otherwise
empty
reduced
alone
schools
objective
phase
felt
Bosnia
offers
temperatures
northern
negative
gold
Merkel
save
goes
firms
poor
consequences
owners
businessman
forget
America
opportunities
meanwhile
ability
challenges
Vlad
fell
popular
choose
P
domestic
race
Roma
Prosecutor
highest
driving
threat
Marian
est
Andreea
us@@
product
specialists
kilometres
exercise
ous
scheduled
principles
white
ANAF
Alina
complex
individuals
targets
directive
01
1,000
paper
commitment
Presidency
participation
seriously
carrying
l
expressed
governments
required
religious
establishment
piece
Festival
fear
tomorrow
relation
increasingly
tests
floor
eyes
Red
Stefan
seats
sitting
2005
ite
armed
rates
ov
supply
summit
ways
Alliance
located
tourists
remained
advantage
parts
revenues
bodies
urged
ourselves
remember
penalty
cities
Spanish
32
ovic
train
deficit
developing
fellow
ban
emissions
contribution
ea
accounts
patient
lose
Church
S
defeated
referendum
sale
R
highway
CFR
finals
route
approval
bit
namely
reading
operating
target
structure
increases
teachers
om@@
broke
Schengen
objectives
membership
income
ISU
specialist
refugee
ology
Br@@
green
risks
existing
ov@@
modern
powers
Udrea
bottom
traditional
In@@
draw
administrative
trafficking
Car@@
adviser
ists
unit
Africa
obtained
poverty
dangerous
difference
computer
White
la
winning
facts
sanctions
quarter
partnership
search
concluded
Democratic
external
Department
ur@@
Tariceanu
SRL
maintain
av@@
Michael
weekend
involvement
thanks
raise
names
execution
amendments
SA
interim
secretary
Mures
adoption
original
requirements
Iran
ators
E
directed
materials
eye
assets
Euro
ranking
acting
finance
ad
Open
Ireland
artist
cover
F
transparency
fighting
overall
holiday
dozens
Christian
0@@
c
direction
cold
Israel
aims
under@@
bought
refused
Energy
Fiscal
challenge
basic
li@@
danger
IT
pleased
People
contact
association
messages
efficiency
Balkans
Sarajevo
mountain
beat
governance
levels
Belgium
etc
physical
king
Community
probably
square
theatre
couple
ev@@
implemented
stations
base
Robert
tender
afraid
Inspectorate
authority
bombings
respectively
Protection
G
dedicated
citizen
identified
continues
Albanian
absolutely
gives
02
Sova
brand
Great
dispute
pass
chosen
deaths
numerous
defend
Craiova
conclusion
Re@@
David
holidays
implement
eni
terrorists
Tudor
sentenced
tourism
note
depending
showing
Grand
suffering
heat
regarding
excellent
judiciary
participants
sometimes
Herzegovina
spending
rise
pension
claim
meetings
targeted
tions
contrary
extension
ani
Macedonian
Photo
vehicles
ro@@
Gorghiu
stress
Deputy
iu
ter
di@@
regardless
participated
voice
limit
sea
Vice
producers
false
electronic
ti@@
1.@@
controlled
scientific
ro
English
healthy
waste
rich
growing
easily
5,000
ised
ising
ut
investors
films
King
victim
initially
knew
metre
ici
convinced
permanent
furthermore
400
drug
sky
medium
changing
generation
ance
gone
applications
mark
stadium
safe
ice
Rights
ence
finished
manage
ensuring
stopped
Kingdom
suffered
co@@
33
wave
fourth
br@@
Washington
sport
millions
represent
plants
Par@@
inter@@
yellow
sentence
War
appear
playing
worse
Peter
showed
ane
isation
introduced
tion
residents
CSM
soldiers
autumn
assessment
ex@@
figure
instruments
owned
degree
planning
10@@
x@@
9.@@
sides
expensive
accepted
interesting
solve
inside
Ziaj
persons
putting
purchase
Al
investments
hotel
designed
um@@
farmers
winner
advice
warning
dollars
models
Bar@@
drivers
St
se@@
passengers
elements
awards
qu@@
Razvan
Ankara
obligations
Army
36
willing
loss
strengthening
Academy
daughter
profit
regulations
Tr@@
Cyprus
cited
migration
ac
55
nice
ethnic
Madrid
5th
invited
distribution
Interior
transferred
34
protests
agencies
El@@
Middle
monitoring
BBC
Appeals
drop
oc@@
0.@@
pictures
centres
hearing
learn
firstly
agriculture
Agreement
controls
warm
r
produce
ats
L
blocked
England
intended
facing
helping
origin
3rd
officially
www.@@
plenary
truth
2000
Culture
ideas
be@@
rain
ph@@
priorities
consumer
Switzerland
church
notes
declared
dream
Eastern
mechanism
suspected
telephone
comply
believed
ship
deadline
tree
plays
bill
policeman
reducing
Barcelona
lines
wage
Sh@@
surprised
sell
currency
south
ja
stock
losing
enjoy
spend
ator
ut@@
Administration
aru
forms
providing
Liberals
Theatre
roads
comment
ap@@
friendly
covered
stay
unable
Olympic
circumstances
version
memory
magazine
fraud
warned
monthly
knowledge
visa
75
meat
enterprises
mis@@
als
pain
ess
limited
networks
49
disaster
specifically
respond
M
injuries
eat
express
signs
recognised
helped
Danube
ically
compensation
sets
wing
1@@
Gr@@
afternoon
propose
collection
named
sexual
hides
pointed
Norway
knows
dr@@
J
word
Sweden
historic
advertising
electricity
radio
brain
spring
appropriate
facilities
comments
option
com@@
path
ker
pensions
contribute
Google
Giurgiu
concerning
attempt
precisely
Jean
Napoca
complaint
unemployment
ment
Dr
investigated
creating
Radoi
else
cl@@
closer
im
accompanied
flight
submit
criticised
37
ko
alternative
1st
sub@@
diplomatic
1,@@
obtain
ri@@
Berlin
Mediterranean
professor
diesel
Esti
tribunal
10,000
Istanbul
af@@
choice
delegation
id@@
got
ents
ul
ol
per@@
Roman
48
presidency
content
Bal@@
appointed
Pr@@
Williams
snow
unprecedented
leads
girls
bloc
da
understood
x
searches
promoting
hundred
attacked
causes
internet
behaviour
stake
obligation
books
2003
f
task
fine
prepare
diseases
improving
Canada
brings
platform
ceremony
Japan
ob@@
ams
birth
counties
innovation
Pristina
ski
ke
existence
appears
38
paying
der
expenditure
pre@@
learned
2,000
Lucian
joined
O
bo@@
fruit
compromise
Ovidiu
north
attitude
collected
2.@@
Sch@@
dossier
relevant
youth
heavy
supposed
tour
ir
supporting
colleague
crucial
James
article
looks
explain
nation
union
Balkan
suspect
reaching
requested
animals
Iliescu
ay
cohesion
Con@@
headed
Afghanistan
recognise
Anti
box
ne@@
Star
implementing
getting
encourage
Ukrainian
section
demands
province
equipped
sites
obviously
airport
urban
returning
Future
worst
liberal
Authority
banking
Assad
Cotroceni
Popa
Angela
iv@@
ig@@
stages
39
guests
entering
con@@
N
po@@
2,@@
Championship
ling
duties
treated
exhibition
ak@@
Programme
bomb
wealth
suicide
baby
Cor@@
Mayor
evasion
Eurovision
fish
il
brother
design
honour
southern
2017
drawn
clubs
ai
trust
17@@
end@@
Radio
receiving
alcohol
ants
custody
Mare
Sofia
realise
si@@
Iassy
payments
wide
Human
Iti
phenomenon
clean
gr@@
allocated
sl@@
structures
wine
Alexandru
150
informed
distance
check
requires
adopt
Board
laundering
married
News
na
ren@@
affect
SRI
percentage
ities
skin
cabinet
demanding
lo@@
mass
up@@
communist
College
En@@
Mil@@
camp
provision
3,000
65
impossible
Trade
43
shortly
Ana
au
tickets
animal
bilateral
42
sion
desire
Alin
ds
ova
Min
promotion
photos
sending
mail
introduction
46
communities
humanitarian
actress
apartment
ded
battle
Erdogan
Or@@
extended
4.@@
instrument
Dumitru
bar
attended
blue
favourite
Swiss
X
revealed
surgery
Foundation
researchers
murder
Cristina
TVR
Calin
song
Serb
recorded
wake
Mon@@
perfect
za
escape
reference
industrial
rally
Transport
Muslim
transported
out@@
artists
destroyed
600
az@@
atmosphere
sectors
useful
Getty
alised
Images
store
serve
rock
hear
les
minority
determine
India
coast
missing
granted
developments
lawmakers
strength
Assembly
heading
regular
ma@@
des
map
served
device
AS
link
immediate
van
hot
ib@@
Transylvania
practical
discrimination
41
rural
dealing
sun
decades
ant@@
Denmark
ticket
Economic
ets
secure
alleged
loan
allows
Moldovan
blow
Emergency
De@@
Museum
strongly
hopes
mo@@
marks
numbers
suffer
2001
he@@
2nd
threats
referring
signal
highly
20th
organisers
represents
Th@@
matters
Bel@@
sized
Director
Prince
-@@
described
2002
contest
checks
cuts
park
expert
ambassador
guilty
Minutes
wind
vehicle
Orthodox
spirit
WTA
Atlantic
grounds
bringing
Bo@@
6th
ness
homes
smoke
U
strike
track
cards
all@@
Nastase
island
fired
style
understanding
survey
explains
ians
experienced
Petr@@
gathered
files
types
customs
handball
iz@@
standard
par@@
boys
aspects
planned
relating
car@@
Twitter
myself
Brazil
outcome
enable
Sebastian
immigration
debts
departure
pilot
running
ec@@
mon@@
moments
album
Targu
engine
Skopje
ological
moral
Pre@@
MP
thermal
voters
Slovenia
30th
peak
faced
Arab
44
require
dropped
discussions
polls
rid
performed
Polish
grow
Faculty
Chisinau
8th
tonnes
method
ins
respected
sing
7th
promised
games
5.@@
47
stable
Ad@@
eg@@
bid
Constitution
supports
responded
regards
Saint
arms
initiated
interior
consultations
River
X@@
restaurant
license
6.@@
skills
ala
UK
succeed
overcome
intention
@
profile
exist
Sports
ium
Film
21st
1990
eanu
host
housing
ties
write
tic
amid
Co@@
AN@@
procurement
mayors
shops
courage
difficulties
ent@@
formed
aj
Americans
alisation
ovici
relatives
sex
doubt
concept
identity
ak
sa
AP
1989
neither
preparation
science
represented
selection
anniversary
collaboration
tens
establishing
Suceava
glass
referred
Sport
Marin
mainly
ila
Financial
Le@@
Finland
FIFA
ative
declaration
defendant
convicted
invest
add
3,@@
integrated
smaller
emotional
perspective
ay@@
differences
coffee
ha@@
Val@@
associated
tradition
organise
temporary
resolved
ial
8.@@
Dutch
witness
weak
visited
Games
constitutional
Irina
fo@@
filed
Un@@
investigations
operators
shooting
delay
BNR
flag
for@@
Cypriot
analysts
4th
sleep
ch
51
determined
affairs
forest
tourist
vital
ta
sk@@
neighbourhood
mid
employed
Holy
greatest
Baia
bear
competitive
ive
hosts
deputies
offices
ying
heating
arrive
semifinals
trees
resulted
fuel
premiere
lies
Belgian
budgetary
extent
og@@
milk
ble
ma
western
Slovakia
els
V
mostly
easier
fast
speaking
finding
trained
wounded
initiatives
announcing
producer
vision
seconds
introduce
Egypt
missile
obvious
sufficient
unacceptable
recognition
hi@@
contains
Vienna
expectations
missed
factors
om
4,@@
pr@@
ata
planet
removal
res
Saudi
historical
scientists
bags
unique
temperature
Blaga
ge
controversial
ish
ara
mine
capable
improved
violation
ari
bribery
bar@@
gu@@
Vaslui
insolvency
fate
competitiveness
incredible
balanced
master
views
secondly
duty
soul
west
ini
criticism
Representative
7.@@
mention
10.@@
pieces
CS
Congress
semi
Europeans
brothers
ry
technologies
actors
functioning
Portugal
Monica
ering
ass@@
luxury
ey
und@@
regulatory
achieving
writer
remove
territorial
Park
sq
Eugen
absence
realised
handed
proper
ati@@
Viorel
generally
die
prevention
ful
resort
valid
effectively
broken
welcomed
Martin
85
perform
recommendations
rec@@
ah@@
sed
performances
rare
massive
ner
commitments
te
deep
Arena
800
complicated
didn
lived
economies
combat
Research
Gar@@
ca
Directive
Korea
Bosnian
athlete
Hagi
participating
forgotten
goalkeeper
records
identify
protected
exception
v
digital
Austrian
standing
ars
Valley
SI
Le
links
ambitious
extreme
significantly
damaged
sensitive
devices
opposed
audience
3.@@
missions
residence
Regional
ei
offering
20@@
Environment
Serbs
indictment
Wimbledon
SMEs
Organisation
Israeli
Constitutional
limits
purpose
prove
exclusively
officer
Rome
medicines
Tecau
Senator
prize
cal@@
fixed
might
finish
announce
Real
appointment
Ban@@
lawyers
zone
Rad@@
threatened
courts
previously
Liberal
loans
remaining
publisher
Laura
Be@@
pair
chances
replaced
closure
Policy
spectacular
efficient
expression
software
Serena
Golden
awarded
electric
conflicts
faces
equality
ard
gesture
Arafat
personnel
rent
ely
violent
H
Nations
estimates
minorities
terrible
joy
50,000
escaped
Australia
Alex
exit
losses
USD
size
Pal@@
drink
ere@@
weight
institutional
usually
seat
promises
resign
politician
methods
operational
intervene
port
evaluation
100,000
ach@@
K
turning
Ghita
CNADNR
ang@@
Business
54
classes
command
Zagreb
cur@@
suspects
signing
protesters
Society
ist@@
explosion
chose
manner
52
ures
statistics
counterpart
Auditors
closely
MPs
Judge
slightly
twice
urgent
proud
falling
56
ep@@
Pope
broadcast
consisting
practices
blaze
ade
facility
setting
conclusions
ring
collapse
Pro
si
neighbours
Barack
extend
cr@@
boost
estate
chain
Ag@@
ion
Kurdish
aged
Gal@@
Youth
Hague
promoted
aj@@
appearance
Sighisoara
ls
founder
do@@
categories
athletes
demonstrated
leu
passing
5m
rose
laid
11.@@
Di@@
Orban
uc@@
intelligence
destination
bribe
integrity
indicted
defeat
ure
12th
powerful
refer
consistent
man@@
bi@@
Action
register
apart
SC
bridge
1990s
lowest
gar@@
ud@@
earthquake
decisive
Apple
below
rooms
reception
Str@@
filled
Corruption
Dacia
ordinator
ancient
Bacau
registration
ades
congratulate
orders
mistake
scenario
item
est@@
13th
shots
combating
Greeks
Queen
heritage
wait
mandatory
burden
marriage
Severin
ends
Labour
senior
ton
feet
nomination
seeing
separate
Santa
afterwards
species
plus
referee
ships
Celsius
ai@@
em
Cassation
banned
ered
ordinary
crossing
addressed
We
reserve
NGOs
involving
senators
alert
ens
league
ino
20,000
revenue
leg
transparent
1999
Swedish
Libya
topics
employee
ty
religion
har@@
concerts
withdraw
fl@@
Intelligence
structural
Charles
rescue
sit
taste
alism
organising
UEFA
supporters
primary
blind
resolve
shared
installed
Dr@@
trend
Asia
57
neighbouring
policemen
carefully
fortune
stronger
display
5,@@
Man@@
64
visitors
ing@@
cancelled
bed
detail
restrictions
Valentin
9th
stands
burns
invitation
correct
19th
Ilie
bills
ean
ASF
95
consensus
properly
Ber@@
Beijing
selling
Matei
complaints
bus
strikes
favourable
forum
fishing
allowing
negotiating
educational
fires
ne
15@@
seek
cor@@
exports
advance
smoking
53
mechanisms
consultation
faith
Act
sorry
ley
titles
personally
defendants
pe@@
00@@
commission
firefighters
RS
representing
replace
ISIS
cash
str@@
constitution
fifth
rankings
injury
sc@@
seemed
annually
fines
disappeared
citing
j
guarantees
crew
options
factory
helm
block
Embassy
Com@@
ast@@
listen
regret
La
topic
financed
59
compliance
shares
Japanese
kg
smuggling
14@@
ur
surface
pollution
not@@
waters
attract
CJ
Land
export
wall
Air
Strategy
besides
spaces
1.5
ten@@
valuable
denied
Cr@@
latter
spread
conduct
volume
Mal@@
ages
posts
ses
Er@@
stories
teacher
uta
committees
flowers
quotas
receives
Bri
den
allies
Gu@@
functions
recommended
delivered
occasion
fun
triggered
repeat
are@@
universities
Chancellor
17th
impression
inter
opinions
immunity
transactions
advanced
Budapest
marketing
African
Su@@
uses
proceedings
divided
700
travelling
conclude
Victoria
medal
enormous
tabled
honest
ha
severe
16@@
Royal
4,000
completion
branch
depends
Petre
clothes
so@@
secured
fin@@
Agriculture
sum
sound
*
presidents
Col@@
radical
agents
phones
15.@@
ti
au@@
silver
ALDE
penalties
courses
gender
follows
Company
Pol@@
Iulian
ambulance
puts
MEPs
austerity
ano
inflation
El
Ac@@
dogs
Bur@@
su@@
Kr@@
associations
contain
Ambassador
UDMR
tensions
consumed
substances
Yordanescu
Convention
Information
joining
Ionescu
primarily
relatively
dance
buying
items
threshold
please
candidacy
ati
doors
violations
leaves
focused
incidents
58
transfers
resigned
can@@
shopping
th
aries
causing
blame
Iraqi
dramatic
Georgia
error
Kar@@
fi@@
mouth
ora
engines
rating
PhD
backed
Min@@
ex
67
seeking
upset
reserves
intellectual
dark
witnesses
Muslims
purchased
Soviet
collect
14th
suspension
comprehensive
necessarily
machine
ping
18th
probe
horse
Book
careful
Bi@@
rapid
council
ding
claiming
feeling
inspired
Earth
proposing
Mir@@
isolated
Freedom
MAE
tells
decade
authorisation
silence
wedding
attend
somewhere
confirm
sister
tough
rebels
ela
character
locations
ce
looked
privatisation
initial
parallel
Se@@
united
starts
east
to@@
hearings
zero
tragic
Geoana
flights
debates
Executive
250
ache
accordance
medicine
kinds
ki
Street
ra
propaganda
Am@@
63
Belarus
destruction
ern@@
Partnership
10th
directors
analyses
prior
ada
passage
hair
rising
competitors
sad
1995
accidents
paint
towns
lists
supervision
coordination
bankruptcy
requests
inf@@
luck
ve
25@@
wor@@
comm@@
counting
contributions
72
managers
secondary
Q@@
un
bag
tor@@
ho@@
impose
la@@
happens
theory
none
id
ez@@
opposite
specialised
hatred
taxpayers
amb@@
scenes
Plan
scored
administrator
maintaining
purposes
forecast
Market
6,000
15th
communications
illegally
Kremlin
shop
arguments
Per@@
improvement
Bot@@
and@@
burning
pipeline
oi
monetary
imports
Viktor
carbon
governing
revolution
entrepreneurs
camps
Alexandra
keeping
Barroso
drafted
complicity
chapter
fr@@
coaches
striker
ched
location
invested
belonging
ologist
Professor
equally
preferred
Ivan
acted
prefer
vulnerable
impressive
Mexico
ung
kilos
element
ordinated
fashion
larger
pace
mistakes
22.@@
railway
IC@@
driven
aspect
qualifications
catch
raising
saved
plastic
ongoing
female
13@@
Co
gap
esti
ef@@
bronze
Regulation
raids
Ionut
Slam
budgets
distributed
du@@
62
networking
Har@@
ier
Sp@@
binding
od@@
broad
journey
decline
Dragos
steel
theft
First
ach
processing
jihadist
Ex@@
poet
buried
division
ATP
Mor@@
ordinance
promise
Football
dignity
Roland
Emil
17.@@
diet
ideal
atic
Free
accusations
cameras
demonstrate
66
guaranteed
spot
performing
becomes
elderly
inspectors
nations
SE@@
customer
repeated
excessive
tive
Jiu
aw@@
helps
Media
Bas@@
commit
Tar@@
Ab@@
gifts
column
authors
magic
rainfall
withdrawal
wood
hiding
expertise
Mc@@
7,@@
colour
holds
Hollande
continent
talent
hide
channel
ped
stolen
je
anc@@
screen
authorised
reasonable
speaker
presentation
foundation
creditors
Order
silent
transition
fail
explanation
thrown
factor
moderate
learning
underground
indicated
bu@@
IN@@
wonder
attempts
modernisation
storage
Qu@@
99
strange
gross
grade
musical
passenger
collapsed
Bor@@
vegetables
Art
ys
ah
giant
sees
responsibilities
determination
approve
trip
Catholic
fresh
reads
serving
selected
pi@@
noting
gendarmes
ited
designer
que
Arabia
You
jihadists
user
Ros@@
publicly
Copenhagen
irregularities
fighters
belongs
Military
Internal
Man
Australian
holding
constant
meant
abandoned
ler
adequate
ona
ore
Cameron
tested
treaty
des@@
dealt
begun
ick@@
Microsoft
Sal@@
Sector
12.@@
presents
reporters
formation
quarterfinals
voluntary
district
unfair
considering
perfectly
bread
ampf
Ne@@
occasions
examples
eta
taxation
spectators
CNA
obtaining
opponents
FRF
Mercedes
counter
mafia
trains
victories
CNN
jo@@
credibility
quarters
Criminal
considers
89
treat
Ioana
Cal@@
scope
resulting
Tirana
120
enforcement
Super
Bureau
ess@@
reject
throw
anovic
function
Civil
answers
aviation
proof
professionals
legitimate
Rule
ra@@
of@@
7,000
recover
inform
equivalent
wonderful
criminals
channels
ves
humanity
12@@
fat
founded
DPA
closing
rap@@
diplomacy
ordination
flow
discussing
ards
breaking
guard
alive
anger
harsh
count
drinking
unc@@
declare
reporting
sugar
Islam
Pen@@
ik@@
IS@@
ement
no@@
78
qualification
Daily
objects
struggle
Raed
Monetary
Fair
eventually
acknowledged
seekers
stood
gift
liked
healthcare
alists
fallen
rape
Bistrica
symbol
operator
guide
contributed
substantial
ek
stressing
accounting
Munich
deserve
Women
shareholders
Irish
bribes
defined
sheep
protecting
71
n.r.
di
wages
ovski
Ashton
Stan
urge
songs
Macovei
Drag@@
emotions
grant
hectares
leg@@
Tadic
ug@@
Ol@@
st
down@@
unlike
competence
managing
EP
Fr@@
iting
clients
11th
ments
colours
Pi@@
shall
Garros
presenting
Bashar
ale
ip@@
74
alise
anti@@
destroy
celebration
Manchester
remind
permit
chemical
ba
0m
imagine
Prize
winners
Laurentiu
exercises
profession
exceptional
alist
hal@@
Mo@@
impressed
multi
Palestinian
technological
politically
shadow
pm
Guardian
occupied
fe@@
calm
Ro@@
ours
everywhere
amend
employers
Sk@@
ill@@
ue
maintenance
enjoyed
6,@@
the@@
PDL
drugs
worldwide
Airport
fees
ile
pledged
gallery
mutual
wins
Mag@@
aggressive
portfolio
RegUNK
NASA
visible
situated
cu
metal
truly
nevertheless
emerging
agent
confident
largely
defending
blocking
Pro@@
Po@@
magistrates
86
marking
resistance
qualifying
disposal
preventing
peaceful
Serban
69
PKK
segment
Sav@@
Ceausescu
facilitate
mixed
unity
ev
PL
beneficiaries
preliminary
exploitation
Wall
blog
accommodation
bars
meaning
obliged
hill
UPDATE
paragraph
moves
ow@@
executed
liber@@
int@@
refuse
Iranian
AR@@
voiced
screening
del
proven
appreciate
fled
ruled
CN@@
strict
School
der@@
feels
eurozone
Pierre
Neagu
eliminate
suspicion
totally
sel@@
academic
resume
satisfied
periods
ong
Im@@
sleeping
Journal
routes
assess
slowly
seized
justified
generate
retirement
designate
mar@@
strengthened
web
Movement
deeply
24th
lu@@
io@@
belong
61
Green
meets
emphasise
usual
Nobel
ises
trophy
discipline
In
Hol@@
beer
innovative
appoint
recommend
Bil@@
surveillance
disappointed
frequent
civilians
Music
stone
Lu@@
w
Pet@@
profits
fence
AF@@
ace
formula
73
Oscar
Children
Post
donation
Supreme
solved
monitor
crowd
scheme
offensive
attractive
cells
connected
fan
recovered
Stephen
motivation
dollar
processes
grave
subjected
ethical
adds
ash@@
considerable
1,500
Pakistan
Special
evacuated
praised
manufacturer
generated
repair
delayed
Milan
fisheries
ter@@
conquered
recommendation
medals
discovery
articles
Bu@@
ich@@
mil@@
wear
B1
operated
qualify
por@@
Mat@@
beaten
alliance
resumed
telling
blocks
announces
ven@@
commander
advisers
helicopter
issuing
genuine
ain
1998
boxes
apartments
Ur@@
constantly
decrease
restructuring
BC
rel@@
Investment
seeks
disputed
suggested
Yugoslavia
Anca
lasted
successfully
fields
Amendment
analyst
8,000
kers
19.@@
kill
substance
OSCE
exceed
prospects
conducting
prominent
corrupt
Gabriela
inhabitants
falls
Ungureanu
cutting
oo@@
16.@@
transit
department
beneficial
ene
ers@@
San
renewable
acquired
restaurants
io
killing
urges
encies
dominated
..
ranked
expansion
errors
entitled
Renault
novel
intend
ge@@
Situations
parliamentarians
celebrated
maybe
hidden
88
brief
Diana
ber@@
Exchange
reactions
ola
enti@@
gain
captain
miracle
FR
ious
lighting
micro
instance
2.5
threatening
Kiev
shocked
encouraging
legally
Ford
ell
fined
sw@@
112
harm
beach
Peace
ou
Valeriu
STR
ning
vacation
opponent
sounds
sick
dependent
ire
militants
aging
drawing
sued
Sel@@
sums
heroes
window
violated
ena
turnover
76
passion
iti
push
formal
publishing
adults
ot
Zoran
requirement
applies
unions
river
strongest
parking
sake
hum@@
smart
actual
ME@@
smile
retail
failing
shoes
enemy
84
ya
drama
resolving
Force
dismissed
consecutive
split
diaspora
130
intense
decent
ky
afford
char@@
Li@@
77
websites
mer
competent
min@@
hole
bot@@
Fl@@
argue
Sti@@
apparatus
watch
amended
arise
postponed
Tax
arrival
ps
Sciences
freedoms
newly
mental
findings
contacted
Procedure
Management
ick
demanded
VW
tension
laugh
charging
30,000
raw
sch@@
makers
cinema
hero
circulation
credits
Realitatea
Islamist
fought
prosecuted
preparations
ously
bombing
proved
trading
ariu
rail
Mer@@
va
pat@@
maintained
repeatedly
entirely
citizenship
ann@@
correspondence
Ph@@
possibly
Services
honoured
Cas@@
fighter
granting
ash
ances
lucky
iPhone
Tanase
hoping
speculation
solar
restore
convince
whatever
mercy
Ci@@
strategies
estimate
speaks
Economy
punished
familiar
deployment
whenever
Ilfov
Official
Pl@@
tw@@
visits
lin@@
contained
Begu
1992
nominated
cheap
Road
Pop
Medicine
generations
kovic
corner
owns
absolute
Rom@@
reacted
honourable
lit
sions
walk
interventions
holy
eng@@
communicate
lenders
assumed
contractor
RE@@
faster
MAI
stated
index
boat
Donald
assured
Go@@
ultimately
1991
Hal@@
retired
influx
68
Sar@@
Il@@
automatic
sen
Luxembourg
spoken
Francois
Revolution
Nichita
Indian
congress
Conference
affects
interpretation
Lucescu
Ma@@
defeating
Luc@@
lie
instability
sparked
ame
discover
Iulia
mobility
doubles
campaigns
ver@@
surprising
observed
pro@@
ta@@
titled
fac@@
counter@@
ches
fill
hi
avoided
Ge@@
cheese
Baltic
childhood
celebrations
California
commented
CEO
encouraged
ese
ths
referees
disputes
Project
rehabilitation
features
ably
Claus
belief
disasters
Tunisia
ear@@
pages
ura
enlargement
Tiriac
Her@@
wh@@
sovereignty
exam
Bol@@
Stock
eve
weapon
MEP
Remus
unknown
literature
Inter@@
constructive
fly
subsequently
bands
Cl@@
oral
81
1,0@@
Lithuania
crews
Balan
System
clashes
fault
ids
ECB
terror
burned
ure@@
sur@@
stick
Bir@@
virtual
ays
Ver@@
Petrescu
beauty
Trans@@
miss
parade
ere
exposed
languages
consideration
wi@@
vs
struggling
extensive
brands
compulsory
Cosmin
Valcea
pen@@
Dar@@
episode
earn
ord@@
older
applause
bel@@
Van
worship
awareness
sentences
PC
Insurance
upon
Alexis
viewers
UN@@
bacteria
iti@@
Gica
flying
perpetrators
suddenly
doesn
Adevarul
alt@@
inclusion
mockery
optimistic
urgency
eri
It
gen@@
Olympics
watching
Gh@@
tribute
C.@@
reporter
hunger
insisted
enters
gradually
classic
composition
negotiate
entities
conservative
25,000
Eur@@
ending
argument
Ser@@
Mladic
uk@@
reflect
Local
Dinu
Hollywood
innocent
proposes
vo@@
Jose
ub@@
exceeded
anch@@
DA
detailed
li
ush@@
emerged
sy
2018
Data
Hor@@
possession
complain
defended
Nita
punishment
PR
Summit
resident
79
cheaper
RCA
advantages
transmission
Singapore
autonomy
Radwanska
foreigners
liberalisation
creative
Vel@@
producing
delays
emphasis
Pav@@
Sim@@
16th
dreams
Dan@@
discharge
fee
volunteers
except
insufficient
ania
checked
react
ain@@
ranging
Cultural
combined
ci@@
priest
signature
ili@@
SA@@
sts
ans@@
whim
Del@@
Pitesti
den@@
lacking
1996
comparison
super@@
shouting
sub
Portuguese
kov
Orange
oiu
relaxation
Filip
op
condemned
Boris
87
Ben@@
Egyptian
crises
mosque
Pop@@
midfielder
multiple
ole
tasks
Nasaud
quiet
aut@@
smell
clothing
theme
Bute
restitution
ave
Concordia
Z
museum
intervened
ich
Dor@@
practically
explanations
ust
intensive
iron
ali
clinic
expenses
Vrancea
feed
photographs
definitive
compl@@
Kovesi
valued
IATA
drain
itions
federal
cable
protocol
intentions
fireworks
breaks
circuit
Campions
swimming
bat@@
mere
Socialists
hor@@
900
Filat
ack@@
eb@@
exclusive
din
psychological
minds
highlight
82
governmental
urging
Sz@@
tur@@
guidelines
bro@@
communism
Em@@
met@@
recall
me@@
applying
begins
editor
fying
legality
targeting
ingredients
diversity
Mother
fortunately
ANI
Ru@@
sive
Joint
attracted
Ger@@
83
chronic
chicken
coffin
Enescu
vast
Yugoslav
normally
accessible
Gi@@
letters
blackmail
ight
refers
NGO
churches
dressed
mobilised
savings
mixture
Islands
rea
eva
cup
ack
fewer
incomes
lottery
Recep
Christians
igh@@
Paper
tool
Banicioiu
foundations
entity
ministries
adapt
opens
row
obstacles
complained
unemployed
happiness
ices
salt
CE@@
supplies
unexpected
CAP
withdrew
footballers
credible
realisation
negotiated
dying
forcing
Ros
minor
Forces
invite
scoring
Stan@@
adopting
Tayyip
fears
addressing
bearing
Zi@@
ory
shortcomings
ition
ert
fil@@
testing
offence
EC@@
bail
highlighted
Control
automatically
dimension
ownership
villages
Gulf
Can@@
drafting
ements
Latin
1.2
challenged
exists
Neamt
Democrat
acy
friendship
insurers
Northern
stayed
virus
ama
rival
explosive
toxic
involves
placing
drive
mobilisation
Republican
Tourism
Tom@@
buses
settlement
suppliers
istic
Juncker
possibilities
reliable
ual
combination
regulated
Jewish
recipient
associate
listed
Isarescu
pays
Prix
oc
gunman
watched
maritime
Albanians
documentary
indicators
launching
ologists
returns
n.@@
calendar
ind@@
Anton
intends
flexible
Qaeda
wishes
badly
suggest
dynamic
prosperity
jury
expense
acceptable
civilian
overnight
motivated
movements
attending
walls
infections
municipalities
Audi
stones
moon
inc@@
achievements
quantities
Budescu
Ju@@
businessmen
territories
informal
barriers
Iceland
urgently
publication
che@@
clock
air@@
subsidies
identification
As@@
ged
prisoners
comfort
component
tim@@
preserve
NL
Stanum
inv@@
PA
13.@@
fa@@
0th
reflected
gala
cell
DE
actively
tears
del@@
ther@@
ns
demonstration
cast
q@@
Predoiu
Loto
ICTY
Old
Los
industries
28th
ballot
fairly
80,000
Telekom
Jordan
answered
hel@@
accusing
alities
unhappy
San@@
fer@@
contrast
Ap@@
forests
pilots
proportion
calculated
frequently
coal
personality
hearts
&apos;ll
Pas@@
Montenegrin
administered
Federer
allocation
consists
Sen@@
98
engineer
defender
respects
sustainability
cool
Pan@@
Life
competing
lying
attempted
examination
grateful
4m
naturally
Boc
rs
lessons
herd
lion
war@@
widespread
Hungarians
surprises
chaos
subjects
YouTube
gate
slow
ang
Alba
improvements
widely
Ed@@
Sam@@
Constantinescu
reportedly
Award
achievement
dec@@
grams
Best
gh@@
Rednic
arriving
household
kitchen
involve
emotion
functional
graduates
flows
feature
ceiling
panic
Lazar
rightly
introducing
envoy
illustr@@
dem@@
funded
blamed
symptoms
On@@
Science
noise
investigating
amending
col@@
CO2
oldest
Costin
ret@@
representation
themes
realistic
stores
Korean
consulted
Mac@@
chamber
remarks
Mihail
outraged
donate
Mail
copy
Child
excluded
Asian
occur
texts
indications
machines
programming
ber
Elizabeth
berg
mas@@
appliances
Rovana
Ram@@
celebrate
Autor
stocks
delivery
De
parent
truck
PMP
dam
ee
artistic
asks
heated
busy
AT@@
und
0,000
Report
replacement
donated
correspondent
n.red.
quota
ce@@
mix
pleasant
timber
Forum
thereby
minus
He@@
org@@
tly
clause
Press
advised
engaged
te@@
Bul@@
glad
consume
sen@@
investing
critics
ran
questioned
law@@
ej@@
funeral
thinks
Ronaldo
Second
guided
solid
gre@@
breast
poll
covering
Christ
floods
Stability
knowing
Mergea
FI@@
talked
TA
Sol@@
definitely
mines
Rehn
documentation
artificial
AKP
Oradea
conditional
foot
judgment
Afghan
ID
ond@@
Med@@
ech@@
Bro@@
radar
restoration
sharing
vis@@
1997
Mark
No@@
monument
extra
Sur@@
peoples
3.5
carrier
Socialist
mal@@
96
demonstrations
Independent
unnecessary
ATE
infection
default
ues
ap
affecting
Charter
ep
rapporteurs
ishing
components
fulfil
Water
concentration
Naples
head@@
Sun
somewhat
ery
applicable
Denis
15,000
Voiculescu
fails
sends
saving
cyber
ast
traditions
trials
tea
ners
lit@@
cycle
warns
elsewhere
footage
soil
Championships
aca
thoughts
dismissal
voices
tent
350
nearby
Tur@@
Tat@@
ulescu
Top
nation@@
crude
Mirel
Plumb
flexibility
DP
zi@@
ath@@
Te@@
Teodor
atory
negotiation
justify
back@@
threw
label
arch@@
recalls
welfare
Cos@@
ster
dog
tackle
deserves
ea@@
Unit
Sefa
papers
likes
coup
sixth
rounds
bet
speci@@
satisfaction
Nov@@
ys@@
noticed
reconstruction
listening
Grigore
angry
effectiveness
accuses
modest
windows
analyse
legend
Ak@@
Mi@@
hotels
Ali
taxi
adventure
Angeles
clarify
Communist
anyway
viruses
bottle
SIE
Pandura
click
ished
lea@@
responding
hate
Single
earth
graduate
RL
depend
regularly
pe
Antonescu
Novak
unusual
cake
atives
phrase
assessed
choosing
premises
signals
14.@@
survive
survival
containing
Plus
cope
Lake
assure
180
ost@@
Do@@
anda
lesson
Dis@@
beating
Strasbourg
Mus@@
worker
warrant
ip
rev@@
deliver
tel@@
object
erg@@
statue
shift
ey@@
extraction
isolation
ease
Democracy
suitable
mathematics
_
transportation
apparently
definition
Pact
roles
eligible
Staff
neighbour
UNMIK
bal@@
weekly
expects
extremist
roster
mining
capabilities
BotUNK
assume
editorial
HUNK
prospect
nightmare
runs
Mit@@
shocking
Latvia
alising
narrow
Bl@@
ides
tariffs
ici@@
approximately
foreseen
91
G20
anov
depth
newspapers
200,000
pensioners
rocket
meal
elling
suspend
recipe
elite
continuation
we@@
benefited
Var@@
Argentina
hoped
Russians
respondents
92
Nor@@
B92
pillar
Pentagon
gl@@
PT
allegedly
prevented
cm
basketball
TEC
ency
donations
Bloomberg
consequence
therapy
lung
keys
Spirit
Ombudsman
beds
petition
ika
residential
disciplinary
lights
unanimously
precise
thorough
allegations
26th
ru@@
tu@@
straight
ri
litre
landscape
ari@@
arena
emerge
manages
electoral
aside
mor@@
depression
40,000
subsequent
cigarettes
acquitted
Aurescu
decorated
Igor
W
transformation
Voice
quick
Dolce
universal
optim@@
scientist
una
Hotel
variety
Is@@
&apos;re
uz@@
operates
governor
experiment
deals
aps
Taliban
Gen@@
destinations
rumours
tools
honey
rewarded
calculations
temporarily
Legal
characterised
entrance
Georgescu
corporate
Ham@@
studied
fit
EN@@
lev@@
organs
grand
vari@@
1.3
Food
och@@
spokesperson
circulating
Adam
acquisition
mountains
oni
kin
Av@@
anywhere
apparent
readers
22nd
Stoica
sal@@
ride
shirt
hosted
admit
literary
oz@@
Bica
1994
Cornel
tal@@
withdrawn
Mos@@
gambling
electrical
OK
pride
uri
1.6
passes
ion@@
gets
deadlines
reg@@
Vas@@
sharp
Chris
Arctic
foods
publish
sovereign
att@@
opt
speeches
tolerance
oppose
23rd
nationalist
ites
Slovenian
bubble
retain
Caras
ranks
Res@@
29@@
ide@@
arm@@
tend
midnight
Munteanu
shape
measuring
expanded
soft
Home
Ms
memories
ym@@
Canadian
Lukoil
indicate
evil
orientation
Cristi
Republika
asa
sufficiently
Tri@@
define
GoodUNK
IM@@
shareholder
cre@@
generous
recording
reaches
GalaUNK
Kim
verdict
connect
freely
eth@@
form@@
import
trends
bre@@
Richard
EURO
zoo
Roxana
Marine
ete
restored
excess
let@@
plates
succeeded
storm
restricted
pose
To@@
her@@
packages
ging
Petro
Ev@@
cubic
ove
25th
unt@@
warn
confirms
eggs
viable
integrate
warming
Cross
medicinal
reveal
ool
asset
dual
Mel@@
soci@@
internationally
Jan@@
footing
diplomat
exclusion
MUNK
Ministers
pleasure
140
autonomous
8,@@
Mitu
finishing
External
guest
Fil@@
painful
enc@@
Marie
seventh
lift
amp@@
Get
expecting
Roger
grew
rejection
furniture
Daniela
aggression
summoned
mer@@
yl@@
Kazakhstan
coordinated
polling
portal
500,000
ase
utes
influenced
strictly
miners
sign@@
finances
Truica
Tan@@
super
ilo
Turks
go@@
Gigina
recession
branches
complaining
Noroc
background
mourning
royal
Messi
belonged
depl@@
entrepreneur
absorption
Badea
97
aff@@
neur@@
contemporary
significance
Political
2,500
contributing
Thomas
tram
expand
tre@@
permanently
disappearance
ank
clarification
jumping
architecture
Federal
checking
interrupted
BCR
93
AUNK
observers
spiritual
devil
Den@@
Cre@@
shield
ots
difficulty
Sto@@
kes
Zealand
praise
ish@@
surplus
ele
Power
upcoming
Bab@@
legitimacy
activists
throwing
Sandu
Stream
urs
wheel
ern
art@@
Estonia
cat@@
ette
log@@
Mas@@
mayoral
readiness
William
29th
....
abuses
worthy
graphic
bas@@
plot
ignore
ols
screens
litres
desperate
Me@@
eter
compete
imp@@
unfortunate
listened
roof
DE@@
condemn
Claude
firmly
roll
Az@@
investor
betting
Horcanop
Ramnicu
Framework
experiences
aud@@
insist
Cam@@
expressing
distor@@
winds
med@@
Stadium
Srpska
suspicious
tours
dered
passport
fed
mi@@
accuse
Love
Clinton
founding
frozen
2m
ignored
OUG
Albert
menu
focusing
vis
scared
servants
toll
airports
tired
Rus
islands
Corneliu
assembly
timetable
pressed
Cold
Resita
lira
sight
revision
satisfy
reminded
couples
investigate
debated
Opera
qualities
raises
farm
intelligent
Pavel
ore@@
crossed
trouble
drought
priests
Tulcea
outbreak
Milosevic
rely
champions
ER@@
9,@@
Technology
arbitration
draws
Gre@@
totalling
reward
ser@@
eas@@
pray
tenders
laboratory
deposits
disappear
ambition
BotoUNK
Delta
RATB
produces
600,000
embassy
vi@@
worrying
diagnosed
Cur@@
uncertainty
CIA
ny
landed
sessions
Mihalache
Scotland
din@@
gaps
coherent
tariff
comfortable
Nikola
delighted
crashed
harmful
wild
ade@@
Pap@@
BSP
surrounding
attacking
if@@
Laz@@
approaching
DIICOT
conviction
EU@@
calculation
attributed
outstanding
basically
launches
Michel
logic
dev@@
concession
client
tin@@
surrounded
golden
lic
centr@@
footballer
massacre
lan
installation
remedy
Germans
envisions
Industry
alarm
Patriarch
shoot
24@@
entertainment
Chirica
Time
eli
Kostunica
fy
377
Pir@@
At@@
Syrians
addresses
alongside
Sul@@
Anghel
maternity
3D
Safety
20.@@
CUNK
Bre@@
lifestyle
declarations
Manuel
environments
arrests
detainees
teaching
Sha@@
updating
Ra@@
Niculae
explaining
workshop
varied
flat
Bayern
grandfather
monitored
bonds
ects
maturity
Du@@
senator
31st
Kir@@
incidentally
debut
edly
extending
flags
liability
crossings
Dom@@
productive
Patriarchate
Sahtior
Dumitrescu
Chir@@
permits
airspace
manufacturers
Chi@@
merely
connections
admission
adapted
foremost
pointing
rit@@
providers
Dragomir
visual
nic
ome
lady
taught
protein
Loredana
Slav@@
ali@@
popularity
protested
gains
med
arg@@
covers
pushing
lay
CV
steal
Si@@
Arsi
engineers
Hans
Sy@@
Antonio
mothers
urg@@
az
tape
sol@@
Zacea
cancellation
allowance
Bos@@
length
examine
Gaza
III
removing
thr@@
raped
Pe@@
travelled
Deutsche
Funds
sensational
RON
Meteorological
painting
ageing
visas
IS
Negoita
divorce
bloody
geographical
ani@@
roc@@
diagnosis
ied
Cuba
Cathedral
taxpayer
erc@@
exact
bankrupt
ws
Mutu
hierarchy
Eve
broadcasting
nic@@
Sem@@
Mars
walking
beings
Leg@@
imprisoned
Governor
newest
yo@@
filling
Dancu
gained
Ps
provisional
AC@@
8m
Permanent
ink
aga
RO@@
One
ship@@
asi
History
envisioned
preservation
billions
safeguard
21.@@
thirds
mini
Election
turnout
wider
Vi@@
republic
Mic@@
lo
occupation
highlights
counts
database
kings
18.@@
photographer
deny
pas@@
shell
municipal
1980s
Eva
ci
HIV
impl@@
duo
Wales
Radulescu
Don@@
privacy
Nadal
Sharapova
emergence
Djokovic
Danish
phases
bureaucracy
Teleorman
doubts
march
professors
torture
ead
Costel
summary
94
EIB
acquire
syn@@
demonstrators
carriers
bil@@
CR@@
tone
ell@@
replied
ANM
sat
violate
honorary
thirdly
reductions
powder
barely
resolutions
ose
arrangements
reputation
div@@
anonymous
psychologist
dozen
nationals
electorate
bombs
trigger
Ter@@
Studies
stuck
submission
ok@@
tables
pending
Sab@@
pos@@
itation
Bopanna
cigarette
Technical
Alexandrescu
sin@@
agrees
assist
OMV
appreciation
Mihaela
ous@@
noon
fantastic
treatments
1993
trans@@
promising
diplomats
Hel@@
dear
transformed
minors
Eduard
pedestrians
subway
ab
http
supermarket
wearing
Ba@@
respective
sar@@
Marcel
attached
textile
graduated
onic
p.m.
ante
Lum@@
analysed
A.@@
households
symbolic
lovers
persuade
gun
ris@@
opera
Oana
Azerbaijan
invo@@
Ko@@
profitable
parliaments
raid
ota
Pa@@
favoured
ung@@
indictee
Cer@@
smokers
ward
Damascus
toys
purchasing
off@@
unless
logo
jan
Ha@@
imposing
imported
waves
rac@@
ax@@
ake
pur@@
mandates
norm@@
bit@@
awaiting
AF
tablets
bigger
suggests
vessels
accepting
Vol@@
Stockholm
fied
committing
acknowledge
feelings
Dem@@
27th
clouds
Cat@@
speakers
prestigious
Karadzic
Vo@@
Murray
whereby
hackers
Gy@@
pressing
Complex
hur@@
exposure
weaken
supplier
rarely
Mugur
iled
ferry
satellite
monastery
refusal
regarded
inflammatory
Gazprom
reservations
ind
redundant
unrest
struck
Thought
Matache
sup@@
rot@@
ational
Global
devastating
Pel@@
decides
print
surely
nik
hired
I.@@
Bra@@
tobacco
60,000
Buc@@
KFOR
audit
workshops
correctly
turns
denounced
Ay@@
sters
crash
queen
Wars
jump
pillars
void
Kon@@
Raluca
respecting
contractors
Livia
inspection
characters
posed
rated
ect
macro
illa
guilt
cleaning
guards
donors
SMS
iller
economist
invented
warnings
Rus@@
pa@@
signatures
horses
circle
postpone
controversy
Stone
grants
bor@@
read@@
rebel
joke
shirts
pol@@
arising
Rep
comp@@
thesis
EULEX
curriculum
Sil@@
serves
boats
&apos;ve
cooling
scores
phenomena
handling
cap@@
Vit@@
Charlie
resist
indictees
Steering
creates
communicated
avoiding
suspicions
fathers
touch
consolidation
professionalism
sively
What
Burleanu
knees
ga
bitter
verify
destroying
burnt
civilisation
refuses
Colonel
ize
Toronto
Geneva
detected
ensured
directives
drilling
processed
pregnant
prohibited
SP@@
patent
engage
Guard
appreciated
assassination
ign@@
Din@@
celebrating
ow
bin
missiles
drew
Chelsea
resource
infected
penalised
1m
Rosu
ions
fleeing
Warsaw
certainty
evolved
evaluated
1,200
Tribunal
aired
designated
Chief
behave
Bon@@
Stabilisation
All
methodology
believers
itor
begging
Commerce
ust@@
explosives
consequently
vitamin
apologise
CO@@
Rapid
lic@@
Carpathian
relative
separatist
Sumudica
Italians
1970s
enabling
belt
assessments
implications
Don
recognises
stimulate
Andy
repairs
rains
partnerships
nervous
properties
revised
preserved
chambers
simultaneously
23.@@
min.@@
younger
ZF
ines
hell
confirmation
wars
charity
certificate
consent
Baroness
neg@@
purchases
Srebrenica
Gallery
elegant
ori
Vl@@
SM@@
defensive
dist@@
Pon@@
candles
maker
testimony
owed
sacrifice
This
Porsche
FBI
Tournament
AndUNK
iri
Olt
Let
ils
Dambovita
hitting
Cost@@
yn@@
remarkable
rejects
exams
audio
evic
enjoying
pop
pursue
Kal@@
risen
ez
unch
boxing
originally
Speaker
ok
Pennetta
2019
Lo@@
margin
halt
observ@@
permission
dairy
Ul@@
fleet
forthcoming
ianu
Muresan
supplement
iro
Ben
decree
relates
reiterated
RO
Chiriches
Voicu
fortress
assistant
sy@@
surgical
economically
ost
folk
wherever
layer
biological
Show
Sa@@
gymnastics
Dubai
diabetes
chocolate
disabilities
scorer
suit
rescu
Evenimentul
Irade
commemor@@
desired
dependence
mobilise
HU
prejudice
packed
Rio
airline
contacts
consulting
9,000
adverse
bases
bi
zu
absurd
atu
edi@@
intr@@
marathon
coverage
amounting
interpre@@
techniques
Medical
GUNK
forecasts
Chiajna
studio
appeals
deadly
Network
ication
acid
Andre@@
Prague
sausage
evident
gener@@
Jews
ca@@
confrontation
val@@
eu
def@@
stepped
comedy
feasibility
Nicolas
Som@@
dubbed
Bay
acks
So@@
core
genocide
TS
mann
influential
eh@@
zones
lasting
congratulations
Jesus
recommends
DS
Marinescu
exceptions
SO@@
Tv
Rules
Codruta
Tim@@
Mol@@
innocence
Calea
employer
legendary
How
ren
rhetoric
Shar@@
breathe
300,000
reserved
college
contractual
upper
capture
Father
illness
Jo@@
translated
Mad@@
researcher
counterparts
replacing
land@@
linking
biodiversity
our@@
Wolves
Crimea
Lov@@
metr@@
incompatible
directions
elimination
Ahtisaari
motor
Cir@@
olog@@
Wor@@
toxins
ELSEC
Cinema
ured
ula
6m
castle
tied
engineering
argues
ft
rector
birthday
lifting
wo@@
det@@
tes
stem
Libyan
SN@@
kov@@
Nica
Flavia
denies
architect
printing
centuries
meantime
globalisation
treaties
Telegraph
Teresa
ger
elled
wording
smooth
Donetk
aci
supervisory
unlikely
macroeconomic
demonstrates
habit
arguing
Gor@@
visibility
confused
tense
anthem
inst@@
Far@@
Camp
twenty
ide
sidelines
Galca
sample
interpreted
wer
Miss
Silviu
criterion
computers
oy@@
Cap@@
isa
ains
Bistrita
drinks
Summer
Bible
Cantanu
Rob@@
colon@@
perception
Bit@@
franc
vaccine
mall
BA
Family
boo@@
ail
thanked
spare
populist
endorsed
aling
7pm
wa@@
somehow
ily
The@@
oph@@
teenager
ECHR
kova
SI@@
apples
preferences
timis
traffickers
indirectly
sex@@
emp@@
lands
Varela
Meh@@
24.@@
openly
Ferrari
Windows
labelling
unclear
potatoes
crowded
Rares
councils
inspector
sm@@
Lebanon
je@@
ii
na@@
Fer@@
Supervisory
subscription
questioning
exceeds
lers
Toma
ju@@
pharmaceutical
Stancu
evolution
ira
Pu@@
sort
shootout
reluctant
teenagers
eating
legacy
confusion
native
Adi
cure
displaced
ref@@
ag
perceived
Bill
Harghita
dish
Slovak
shut
Bush
ort@@
repe@@
refusing
stole
Ivo
110
fi
ST@@
trav@@
timely
pres@@
filmed
Roads
classical
hunt
sympathy
Crime
immune
seasons
Monastery
abused
lov@@
importantly
cemetery
Tal@@
precautionary
gather
liquidity
NA
airlines
dan
AS@@
bicycle
harmonisation
ek@@
Structural
149
tyres
aves
forgery
Operational
resumption
memorandum
Moisescu
uti@@
viewing
grown
allocate
Podgorica
constitu@@
licenses
sharply
bow
coll@@
cop@@
stamp
partial
cook
Liverpool
lake
Employment
differently
4.5
breakfast
orange
hardly
Malta
unpleasant
motor@@
Finnish
Ir@@
constitute
sum@@
Gorj
oh@@
openness
mel@@
net@@
contested
meteorologists
Os@@
contradic@@
Sand@@
describe
activated
tanks
uniform
vit@@
platforms
Papp
prisons
civilised
crops
philosophy
Calarasi
completing
surpass
definitively
Joe
1.7
eni@@
IUNK
Gabi
mag@@
dossiers
thin@@
Juventus
pushed
Lupu
triple
movies
ES@@
Ionita
featuring
rescued
inspiration
technocratic
Left
Carla
trucks
certificates
chi
ensures
astr@@
weakening
Electr@@
courageous
Sergiu
ights
firing
manufacturing
consult
EGF
BMW
Awards
competitions
Budget
arm
Victoriei
Heritage
Andr@@
Bag@@
dock
bureaucratic
mud
accurate
hand@@
forming
jointly
extremists
Horia
UNESCO
Corina
spouses
hip
R.@@
Agnieszka
socialist
lyrics
updated
Marc
nurses
investigative
assistants
essence
Big
Opel
ute
But@@
Sin@@
abolition
brutal
Dev@@
legitim@@
tum@@
clash
billionaire
farewell
imi
limiting
preventively
concessions
considerably
planes
Mun@@
dic@@
inappropriate
fulfilled
Stef@@
pack
doubled
Parliamentary
babies
Tom
arity
Carmen
Iron
runner
ility
disastrous
Ron@@
160
displayed
EM@@
ava
Sarkozy
bone
societies
exploded
Arts
Schulz
Rural
coastal
technique
just@@
Abdullah
conversation
Rac@@
scandals
petrol
insists
outs
gay
ars@@
Raf@@
deployed
Mur@@
1.4
carpet
incentives
dangers
ares
merit
hybrid
amazing
rings
appropriations
Dolj
regulate
ff
abstained
misleading
parks
Review
atr@@
dinner
feast
visiting
scenarios
real@@
PS
initiate
Jerusalem
damages
bonuses
Brazilian
disabled
cy@@
kilometre
eries
educated
WHO
Davutoglu
resorts
Fi@@
ule
dic
argued
ingly
brilliant
format
SV
Mountains
reflects
Front
survived
Blue
virtually
faithful
tri@@
Haiti
lim@@
11.00
ado
logical
ceasefire
deficits
machinery
Live
1.8
Piturca
hostage
Toyota
Des@@
bombers
damaging
abolished
demographic
Simion
My
annoyed
blast
Nas@@
translation
We@@
ver
hence
Cop@@
Kol@@
Madalina
Platini
rivers
dictatorship
washing
Norwegian
presumption
acknowledges
laughing
assault
enko
Highway
Klemm
Cocos
Rock
productivity
indication
enemies
sun@@
accompanying
patience
esa
CI@@
attentive
finger
mineral
promotes
cave
shake
essentially
Gol@@
employ
loves
pact
cookies
oxygen
institute
pockets
associates
devi@@
fasting
rush
Berisha
ae
LT
ail@@
Davis
potentially
irresponsible
bother
Smith
Georg@@
Avram
consistency
Mis@@
contracted
evacuation
appetite
anonymity
Euro@@
betr@@
Kvitova
ban@@
relief
0.5
ida
spots
nobody
yard
frequency
opoulos
clu@@
Yemen
assuming
May@@
welcomes
utmost
conventional
physically
takeover
landing
ethics
á@@
liberals
Illyrian
tia
Nazi
automotive
dignitaries
Channel
oven
tail@@
ible
ultimate
TE
bride
advise
Zilei
pa
trap
boosting
tery
threaten
relate
statistical
broadband
Nepal
Vatican
examined
Mu@@
Stanescu
retained
seller
du
evski
podium
timing
predic@@
brakes
concludes
amed
obj@@
villa
Transnistria
Heart
Bad@@
ands
Pacific
poorest
Ang@@
Self
hostages
attracting
3m
condolences
Sunni
glasses
sic
Manager
helicopters
poetry
Morocco
Vodafone
proceed
nonsense
Omar
talented
seeds
searching
enthusiasm
Frontex
Heads
recruitment
aring
jazz
Ras@@
Teodorescu
drastic
Tra@@
itoiu
Tehran
worry
aria
Tam@@
stat@@
consultant
Nova
tower
MA@@
reconciliation
loses
Julien
Dec@@
ently
Ponte
Max
Thessaloniki
sections
dictator
ero
classified
printed
top@@
ratification
enhanced
undoubtedly
Petra
Globalisation
watches
quote
withdrawing
trips
proving
ambassadors
cel@@
ska
revelations
ison
adaptation
rebuild
DUNK
chapters
100m
Bd
mat@@
freezing
barb@@
CA
Fal@@
Met@@
intensity
Faroe
lied
ni@@
tering
ock
ecting
san@@
Alzheimer
Fi
compare
paths
unt
Hom@@
eliminated
mentality
flu
palace
icu
physician
symbols
nam@@
SUNK
radiation
dividends
modernise
stops
eti
advertisements
anymore
excuse
Reg@@
eru
Baku
micro@@
AL@@
willingness
pet@@
Dav@@
verification
teeth
cul@@
ham
,000
inauguration
Jovanovic
Qatar
characteristics
Tade
guaranteeing
flee
Dana
ambitions
prizes
thief
Voda
tar
shelter
ads
ik
restraint
Suarez
dig@@
greatly
ney
crazy
renowned
factories
men@@
formally
bles
Enache
Kur@@
outdated
tranche
part@@
deeds
ashamed
Yordanov
PA@@
Watch
pocket
ime
Nopti
fun@@
pression
shaking
emigr@@
switch
Tre@@
transitional
initi@@
cooperate
schemes
experiencing
chair
pull
travellers
27@@
contempt
rid@@
Abu
Tro@@
dropping
Pand@@
7m
mails
Ri@@
Sky
notorious
stunned
Vadim
Age
aining
loc@@
grandson
organ
hospitalised
Strelet
vaccination
squ@@
eli@@
inadequate
equ@@
dissatisfied
ros
studying
continental
Ahmet
obstacle
Pay@@
auc@@
pot
facto
ment@@
oth
successes
Lau@@
0km
pan
abide
Put@@
ong@@
duration
describes
necessity
butter
magnitude
SK
commissioner
dies
methane
Adjustment
disappointment
terminal
soldier
Deva
eable
grandparents
challenging
violating
itable
clearing
stipulates
exclude
Airlines
interviews
path@@
verbal
Prophet
successor
30@@
info
shame
IV
RC
grey
suggestions
ridiculous
Minsk
satisfactory
Tsi@@
stance
ight@@
ec
Integrity
healing
Por@@
appearances
add@@
ios
assigned
thieves
Pat@@
itors
Ob@@
Hy@@
gathering
rog@@
OS@@
aya
Lavrov
pretext
understands
New@@
Tokyo
emphasised
regain
retailers
cit@@
stopping
Tel
pregnancy
Delia
Jos@@
musicians
cosmetic
zo
iev@@
sing@@
Han@@
medi@@
discriminatory
exchanges
Sanader
crimin@@
sta
AD
recovering
perpetrator
SP
contributes
criticising
Cosma
abandon
gang
ows
locally
expanding
RT@@
ros@@
tain
recalled
Mamaia
Hu@@
Bec@@
modified
ammunition
tip
Armenia
riv@@
remote
Frankfurt
denomin@@
jumped
birds
Small
identifying
Cannes
RI
Cuza
populations
uncertain
fingers
eri@@
sil@@
entrepreneurship
transaction
collectively
Rwanda
Florian
arts
ambulances
solely
flood
ury
150,000
Van@@
divide
purely
fic@@
annex@@
uprising
buyers
Mour@@
featured
sewage
precedent
UTI
Sah@@
weakened
frankly
sincere
Nem@@
partly
N.@@
fuels
borne
Kurdistan
Dhy24
shouted
rescuers
invasion
ste@@
new@@
organic
Rompres
specul@@
seizure
centralised
delicate
personalities
Village
Carter
male
waited
Fundamental
Isil
burial
simplification
HR
tunnel
ports
roots
hunting
Cern@@
unding
akis
Workers
convincing
compar@@
imprisonment
Partizan
gi@@
passports
thick
financially
ius
spying
traders
dramatically
Olisic
PROtv
ovo
public@@
heavily
monuments
lowering
responds
manipulation
Tusk
inclined
Clinical
Sergey
ters
Dobre
regul@@
hop
coma
maxim@@
Malaysia
Dre@@
Armenian
writers
sem@@
DJ
bol@@
vain
borrowed
imir
dy
Tu@@
Franc@@
Enlargement
tomatoes
load
Biek
southeastern
convergence
tech
telecom
sole
Index
unjustified
S.A.
predict
Mari@@
countless
ford
dre@@
eMag
Resources
Bat@@
EBRD
Walter
swift
flower
respiratory
ve@@
textbooks
spokeswoman
Fiat
Space
Corporation
Bran@@
For@@
FDP
finds
alia
chem@@
Lev@@
congestion
verified
Sava
Sr@@
fragile
brigade
Tel@@
orchestra
contents
int
ligh@@
mod@@
Christ@@
cred@@
Art@@
wooden
teen
accompl@@
regimes
attr@@
broader
Frank
don@@
economists
Arsenal
rapidly
interference
Tor@@
goats
lif@@
Television
Biden
fictitious
Agence
stresses
5.5
han
Property
2.2
appealed
irrigation
alarming
sensible
olig@@
black@@
deliberately
Gul
170
ine@@
lect@@
inevitable
Star@@
Anna
NA@@
lending
aw
pope
mouse
kind@@
wrapped
imbalances
analysing
wards
creativity
DhySport
author@@
Taiwan
arrives
loaded
rubbish
800,000
CANCAN.ro
Player
conferences
incur@@
undertaken
kil@@
sacked
Maior
universe
Directors
clauses
rean
tackling
debating
Pen
Civic
Nulae
deciding
volumes
2.8
stakeholders
Medi@@
stretch
enhance
conscience
ails
LPF
pool
aph@@
burg
bulk
fog
bright
complied
procedural
wise
rushed
formations
consortium
blu@@
recipes
reduces
packaging
flo@@
23@@
symbol@@
prayer
hom@@
ear
solving
AN
seismic
repression
survivors
vouchers
Leo
undermine
arteries
DN@@
advocates
controlling
dates
she@@
parameters
Fe@@
federation
forensic
Metrorex
Fashion
lad@@
Presse
harder
stimul@@
Securitate
motto
rein@@
Jones
post@@
Andronic
ku
tomb
censorship
accumulated
ke@@
environmentally
Su
hypothesis
structured
Growth
multi@@
Gazette
cancel
scann@@
holder
ders
pal@@
rejecting
sincerely
ups
Integration
Draghici
Anatolian
1.1
hard@@
enterprise
excise
adult
cycl@@
tors
devoted
photographed
Relations
Dragan
Bridge
spe@@
Jackson
existed
ush
Venus
pigs
composer
socio
Steve
arisen
absent
SIS
Doina
Young
disability
Iz@@
Arch@@
ored
Roman@@
Gigi
SMU@@
delegations
appearing
Ky@@
Assistance
keen
Islamists
Len@@
describing
indicator
disadvantaged
Solidarity
ratings
quake
meter
homeland
umbrella
reorganisation
hosting
reassure
Istvan
eco
zi
divisions
neutr@@
Varoufakis
sor@@
earthquakes
greenhouse
tenants
rob@@
IP@@
25.@@
pup@@
bonus
Mary
Dobrogea
accessories
terr@@
decorations
iman
prefer@@
protesting
risky
robot
telecommunications
ie@@
Oltenia
Dublin
ther
Gelu
ija
technocrat
adjustment
facilitating
Louis
cer@@
Bac
RA@@
Ottoman
woke
whilst
debtor
richest
eighth
criticise
auto
Rafael
advocated
Navy
otic
historian
sang
profound
ives
modernising
FA@@
D.@@
regrettable
striking
ultra
storms
weaknesses
sand
gaining
stored
Fin@@
bac@@
benefiting
livestock
captured
adi
competences
Da@@
elect
chemistry
liquidation
pled@@
utility
bones
Austr@@
secrecy
optimism
shoulder
For
ING
ect@@
aiming
revenge
masters
DC
Pul@@
250,000
neo
fishermen
sible
import@@
fies
cared
Commissioners
angle
rented
postings
Rompuy
tened
Greater
copyright
followers
prompted
PD
graves
rivals
tolerated
longest
sli@@
manoeuvre
ond
aspirations
Vis@@
Kristina
con
renewed
Gruevski
Rompetrol
lab@@
reflection
outset
rever@@
Lam@@
750
ins@@
Kerry
complexity
tank
yp@@
teach
exhibitions
sooner
arrangement
centimetres
Patr@@
Inter
planners
Gazeta
slogans
Rem@@
Castle
Costa
Thaci
complications
ANRE
globally
phot@@
Sof@@
efficiently
serv@@
precious
merger
kills
Nice
beef
ruins
Mand@@
alcoholic
00m
dum@@
12,000
imposition
viewed
voter
Wh@@
collecting
Ocean
benchmark
psych@@
Web
Focsani
disguised
worried
Nea
arr@@
Jan
exhausted
eternal
ogue
disturbing
dedication
offshore
geopolitical
allowances
insul@@
regulating
hot@@
Georgian
utor
combine
disgrace
banner
Strategic
manoeuvres
Harry
handled
ared
prevents
iar@@
promp@@
prop@@
ille
ath
mar
Cooperation
Corps
farmer
pilgrimage
tuna
exhib@@
manifest@@
awarding
headlines
ui@@
Dragu
bids
indicates
hol@@
La@@
burn
Marg@@
unite
protective
AP@@
subscribers
Gj@@
beware
liver
inclusive
Luka
Sudan
spreading
legislature
Hitler
Pla@@
Agr@@
iving
comparable
height
recipients
candle
favourites
grid
Guinness
distant
DolceSport
GB
thir@@
farms
allocations
truths
Manea
ately
measured
KUNK
Kurds
conquer
stepping
Virgil
lifts
Greens
protestors
multipl@@
repl@@
acceptance
conver@@
everyday
marine
Cypriots
quantity
fix
iers
Way
olive
passionate
Claudia
Hon@@
Net
COP
Ban
overwhelming
ough
00pm
wire
mood
existent
climbed
crushed
justification
ACP
simplify
clever
dust
Jak@@
vicinity
buyer
Initiative
Ali@@
tak@@
pork
sisters
embarked
aUNK
Ratko
freight
torches
12,@@
Ionian
faculty
simplified
IT@@
tial
throne
amnesty
Boz@@
prohib@@
Wil@@
exemption
halted
arises
lifted
Bern@@
courtroom
witnessed
sue
assessing
pavement
archaeological
separated
Brown
extradition
Andrea
rice
unified
USL
sudden
threatens
7.5
baking
convention
declined
rest@@
consistently
ailing
shock
compo@@
GozBecali
proves
Chile
preserving
annis
Ren@@
assurances
recycling
sym@@
momentum
disc@@
aki
A1
ump
circus
excellence
mess
acquittal
unblock
anthrop@@
incentive
ony
puppies
Slobodan
Ah@@
Barbu
southeast
hes
mol@@
multinational
cab@@
bypass
margin@@
separatists
eful
junior
Lav@@
farming
Mario
Libera
Costescu
acquis
seriousness
determining
opted
graphy
suggesting
II@@
carries
70,000
BUNK
advocate
systematic
50@@
genetic
WTO
remembered
wid@@
cardiovascular
Division
RA
ading
ening
inov
Dob@@
stipulated
slogan
coloured
Tg
manual
hy@@
Customs
Produc@@
SS
tran@@
barrier
iliation
consultancy
Communication
myth
Doru
deaf
pic@@
fol@@
Luis
contracting
ima
wished
persecution
tangible
IPJ
&apos;Ivoire
gratitude
akes
Orchestra
transl@@
2.3
youngest
tics
jeopardis@@
surrender
memorial
cargo
retr@@
MS
mirage
Der@@
licence
ye@@
wind@@
translator
US@@
Territorial
imagination
dif@@
fairness
ital@@
Kos@@
unconstitutional
Vlad@@
Holding
nicknamed
banning
toppled
gun@@
Bog@@
transform@@
grass
distinguished
ega
Oz@@
falsified
hydr@@
hygiene
madness
fe
matched
veteran
revolutionary
sophisticated
treasure
Pri@@
manifestations
simpl@@
Sir@@
cu@@
pum@@
ached
exploited
Lim@@
assisted
audiovisual
Solana
resid@@
Bulgarians
continuity
dental
Palestinians
mi
poisoning
care@@
Dj@@
theatres
separately
Ath@@
disturbed
abusive
misery
lastly
answering
ideological
diam@@
Tol@@
ster@@
uni@@
install
approaches
AIDS
prefecture
ned
compatible
Bour@@
rel
frustration
cont@@
my@@
antibiotics
2.4
dumping
bottles
Ku@@
closest
mirror
repayment
flock
Synod
Mitrovica
edge
ideology
fatal
sponsorship
lu
zic
gradual
My@@
TEN
attitudes
canyon
accelerated
enjoys
Amsterdam
samples
Hamroun
Joker
bullet
osis
bake
Paula
Petersburg
races
imminent
reli@@
uk
scholarships
liquid
contests
ba@@
Penal
sn@@
supplied
execute
Library
overcoming
composed
Parin@@
Cel@@
oured
reverse
beverages
Sor@@
beloved
eres
formulated
mechanical
deport@@
phil@@
Has@@
ined
oriented
rep@@
Pot@@
Amazon
PPE
Carpathians
AM@@
appalling
migrant
Judicial
ratified
ij@@
deterior@@
spite
Yordache
Emirates
multiannual
AC
commissioned
multilateral
Dim@@
admire
pets
EFE
flagrant
distinction
Tony
kovici
knocking
Mali
spectrum
Op@@
demonstrating
FT
correc@@
Pascu
NO
notion
Roberto
CIT
outgoing
motiv@@
subsidiarity
capitals
oss
expelled
backbone
Sarapova
entr@@
immigrant
itr@@
pity
Vil@@
aren@@
Night
flown
liv@@
MApN
CNAS
Attila
Saf@@
Epiphany
Lat@@
paintings
crying
embassies
bur@@
Baneasa
sighted
sponsored
RUNK
aforementioned
Zar@@
ancestors
copies
authoritarian
sealed
census
clean@@
hon@@
Estonian
ES
Targoviste
Geanina
workplace
Marina
Empire
moder@@
cruel
Chipum
doping
codes
fer
punish
pay@@
communists
bullets
boom
direc@@
cleared
beaches
Victory
Rusu
Bologna
Ki
fatigue
Abdeslam
Mah@@
exciting
tune
empire
Florish
Net@@
maps
chanted
compensate
Bryan
ith
performers
slight
115
Banja
Salaj
clarity
ON@@
Ax@@
asts
Maz@@
tendency
proceeds
Nabucco
eak
dissatisfaction
Migration
dome
submitting
slipped
Bor
é@@
objections
cultiv@@
forever
unveiled
fibres
Hen@@
dioxide
ignoring
rer
Bah@@
ocean
tures
stupid
Ele@@
merg@@
SPP
notified
casualties
Claudiu
Laszlo
separation
distribute
offences
Kerber
row@@
lag@@
identical
references
scrutiny
northeast
Luk@@
Presidents
TI
Simon
ANPC
skilled
Dmitry
Cav@@
logistics
sphere
exercising
exile
sexy
Preda
organisational
Mid@@
typical
beans
unilateral
cult
bombed
commerce
dry
stupidity
prostitution
ProSport
fraudulent
chickens
slaughter
Polacy
foul
Monaco
clarified
blank
kidnapped
halls
ger@@
motorways
builder
expires
occurs
hills
engagement
Yan@@
err@@
seas
stabbed
ordinate
refuge
organiser
sweets
ections
Dol@@
icity
ables
luggage
catastrophe
Miron
fascist
capacities
ritual
3.3
Airbus
Vojislav
Mikhail
locate
CO
tabloid
lig@@
DI
civic
Baghdad
rocks
weakness
desirable
dness
predicted
partially
routine
monopoly
attorney
conditioning
Diaconu
Philharmonic
ought
Nik@@
advisory
exploration
Winter
Vic@@
romantic
notification
Is
vary
alternatives
Mullahs
attraction
Szabo
rotating
sells
observation
premature
Crin
Neymar
imagin@@
Cad@@
defeats
donor
choices
AT
delaying
Mike
Auto
pedestrian
Oil
450
condemnation
technician
11@@
bio@@
Turin
revo@@
poultry
avi
termination
BS
Aegean
handle
unaware
Liberty
nomin@@
Kanal
cooper@@
critic
run@@
pharmacy
validity
28.@@
cites
demolished
pul@@
pot@@
forgive
sympath@@
sanction
0.2
navigation
Welle
Border
broadcaster
Emperor
Kost@@
ecological
Bond
wounds
ni
Es@@
sho@@
attempting
Mosul
sustained
Millennium
Banat
Consumer
melting
deceived
bunker
gates
Aviation
defining
CSU
encourages
physics
explosions
&apos;clock
Na@@
accountability
rig@@
reveals
unanimous
dare
rigorous
mature
confirming
nationality
pragmatic
Hamas
focuses
illusion
Anton@@
proclaimed
poses
heir
Shi@@
cautious
ries
veness
Communications
ences
compromises
aggres@@
Rat
painter
Coman
boxer
grandmother
perimeter
ulate
Nicolaescu
initiator
Ludovic
Mioveni
Jihad
Arseni
Mak@@
Ziarul
Boc@@
retention
wel@@
costumes
26@@
deliv@@
recognising
secular
imperative
Eurostat
sweet
USSR
confron@@
fossil
ining
advances
Terceanu
Tomas
flooding
abita
ifying
Cabinet
defenders
turbulent
nings
ibly
encing
hiu
amounted
subsidiary
outlined
Carlos
marched
inner
Top@@
cyclists
Kat@@
Floro
set@@
3.8
stabilise
contr@@
guitar
robust
Mem@@
Mall
escor@@
Justin
versions
jail
stormed
anescu
onions
ased
dose
mut@@
exempt
Borisov
19.00
ty@@
Kenya
adop@@
Abaaoud
hyper@@
medics
dar@@
validated
Vinci
helpful
Mark@@
mysterious
ture
coordinate
sons
likelihood
bishop
photography
discontent
Logan
altar
polluting
Coalition
pupils
Djindjic
Mohammed
wash
attrib@@
Patrick
eliminating
grad@@
conservation
Mincu
Sinai
Refugees
indicating
Stoltenberg
ballistic
port@@
Gl@@
hungry
volunteer
Sergei
1950s
Liv@@
evo
Nigeria
fake
humiliated
deliveries
posting
Fo@@
sav@@
Hillary
Olli
Miller
confiscated
waiver
Sta@@
Pur@@
Ves@@
assumption
catastrophic
VUNK
educ@@
flour
AD@@
diplomas
Post@@
abstentions
questionable
bridges
Records
predecessor
asp@@
azi
Fre@@
lunch
briefly
conce@@
establishes
naval
coat
patr@@
Ghi@@
10m
condition@@
testified
surveyed
fre@@
cruise
ishes
clan
tap@@
Holocaust
cheapest
brink
pipe
inability
ender
fulfilling
beliefs
fragments
Toader
dating
patriarch
ened
Dica
fixing
od
trib@@
TUNK
legisl@@
govern
CS@@
cranes
jurisdiction
Badescu
Traj@@
stein
ancy
suits
Danes
Jer@@
ation@@
cof@@
ras@@
treasures
Beke
culmin@@
Dam@@
reckless
metro
indirect
ze
isms
Gara
Competition
Bis@@
TC
diver@@
standardis@@
Turk@@
erupted
capita
corrections
tactical
tis
SMUFF
cyclist
Boca
2.7
diverse
ard@@
Round
interactive
Arabs
Gregory
Adriana
=
peacekeeping
Lidia
powered
extracted
anski
dancing
mosques
Eurogroup
traces
EF@@
Scott
pig
accountable
cousin
Lyon
integral
uted
ug
ero@@
laptop
debtors
convoy
Valencia
broadcasts
Emilian
aqu@@
uncomfortable
scam
rockets
stranded
Mihnea
iding
operative
Vasil@@
SEE
tenor
unds
exercised
toy
basin
beneficiary
torch
Neasily
realities
exploit
conventions
RDS
unfounded
Rose
settled
fur
pun@@
Gotovina
slow@@
Chirila
severely
endorse
activ@@
maintains
Stade
keeps
shipping
Tomislav
ico
hn@@
explore
dar
osa
var@@
Welsh
Montreal
transform
delegates
clinics
ms
priorit@@
Adriatic
aur
Hong
Ker@@
Ni@@
pressures
understandable
tear
APIA
ech
Galaxy
occupying
SF
magistrate
tragedies
patri@@
landslide
ironic
politic@@
Register
Crist@@
1918
locals
encountered
innovations
breath
disappearing
ami
transposition
boycott
2.1
Ohrid
fif@@
hepatitis
dece@@
appreciates
ecosy@@
alistic
conven@@
Af@@
consolidated
Atanasiu
guarantors
expectancy
favouring
radically
shorter
Tamas
renovation
Indonesia
Papandreou
collaborated
manufacture
dominant
Dayton
dirty
cloud
Rarstill
Dur@@
20m
Hellenic
Gadea
jic
bikers
penal
ende@@
Richter
Ivanovic
Rashing
pulled
professions
Johnson
Port
shif@@
pers
unification
petitions
ato
lowered
Theodor
bold
Colombia
holes
sson
accessed
securing
trou@@
upgrade
Lugoj
sis
gestures
bulbs
judgments
stemming
unchanged
foster
ass
tactics
antly
cultures
0.1
envisaged
postponement
paradox@@
Moraru
warmer
backwards
ocr@@
Rec@@
Gab@@
oj@@
Uber
Mariana
ills
exemp@@
Lip@@
relaxed
aming
concentrated
flame
Romeo
atively
scars
secrets
Han
MI@@
borrow
editions
idis
intensified
comment@@
escal@@
EL
vocal
osp@@
Aviv
bird
intercepted
reply
ili
weaker
freeze
Ef@@
mortgage
Aurel
ancea
OL@@
Cu@@
cher
indigenous
injustice
poorly
vacuum
Credit
a.m.
responses
avo@@
fuelled
root
Factor
supporter
deepening
ote
generals
proliferation
medieval
fool
Mesic
water@@
Sun@@
proximity
initiators
reunification
astronom@@
conquest
quar@@
Naz@@
ui
barracks
Darren
shores
apologised
shed
EPP
3.2
exceeding
Medias
Roundup
conductor
ECR
informing
festivals
Kh@@
eous
transplant
theoretical
spotlight
delicious
Kas@@
Yes
cream
Protocol
sensors
insisting
affordable
fascinating
igg@@
irony
Carrefour
distr@@
hoc
pharmac@@
episodes
feeding
proportion@@
expresses
Uta
Ham
losers
transatlantic
Innovation
ministerial
minimal
129
occupies
Bruno
e.ro
sor
ears
settle
Goran
collections
Tesla
supreme
sanitary
amaz@@
bans
LUNK
domain
governed
abilities
fundament@@
rupt
progres@@
caution
climb@@
behav@@
Agricultural
bizarre
nominal
inj@@
IG@@
neglected
As
Lab@@
fusion
decentralisation
drones
Oprisan
mourners
refrain
renewal
Wreath
Gav@@
ajna
advocating
earmarked
FR@@
aka
additions
til@@
harmony
redundancies
stabilisation
acc@@
Nissan
Kata
6.5
arranged
prosperous
Y
export@@
bankers
abandon@@
van@@
Moldovans
360
Gaddafi
extremism
safely
privileges
inform@@
beg@@
pir@@
stimulus
ifies
idity
ly@@
200m
rental
Easter
lap
outskirts
correction
chair@@
exemplary
semester
Boo@@
freed
Angel
cabbage
nar@@
signatories
Ke@@
q
Wuhan
lined
Electrica
activist
JHA
offended
Platform
Pod@@
Dz@@
recalling
dly
intermediary
400,000
sensitivity
Prosecution
welcoming
red@@
Florentina
implic@@
televised
library
0s
Ster@@
fiction
Kong
otherapy
stag@@
ergies
detection
Comanescu
rational
murdered
resistant
sin
pan@@
smallest
deserved
On
1945
escalation
segments
ition@@
OR
CD
Days
eds
stems
shaken
1987
humour
curious
Silence
explicitly
sman
fores@@
honesty
courtesy
edy
resettlement
tioned
Pant@@
FO@@
commun@@
Declaration
mouthpieces
1984
tic@@
Div@@
CP
sensation
barbed
ign
isl@@
suggestion
Secret
Timofti
monitors
eventual
restrictive
veterinary
Bukovina
Fed
loud
advisable
forestry
Venezuela
testimonies
walnuts
succession
intercep@@
veto
dinos@@
pursuing
Andronescu
Point
ousness
nominations
break@@
Dorel
Sydney
affair
Eurozone
kovski
bears
Master
cardi@@
cheque
killings
Lungu
virtue
Software
AI@@
protects
tra@@
nursery
Fisheries
canc@@
backpack
embargo
formidable
anna
master@@
preparatory
dismiss
acute
vegetation
wanting
spor@@
Forbes
von
Bernard
ected
Ti@@
anim@@
Statistical
habits
extends
1986
Govern@@
Aut@@
50m
Patricia
inger
hostile
venture
PD@@
Lup@@
assailants
stakes
adapting
destabil@@
assimil@@
progressive
Masters
ords
minerals
sey
noble
traditionally
interpret
backing
viol@@
anced
compet@@
stand@@
collaborate
reopening
Porosenko
tongue
Edward
essors
Decision
HD
opolis
Piraeus
B1TV
frame
ald
harmon@@
nationalism
Diary
iles
deanu
tel
certified
880,000
expect@@
act@@
incitement
unfavourable
Natasa
gro@@
reopened
fugitive
guitarist
Ashdown
Kl@@
Son@@
Peninsula
Spr@@
racist
Tatarusanu
unpaid
Lanka
Sef@@
Caribbean
consist@@
UNHCR
bull
conf@@
Men@@
hypocrisy
Mount
EL@@
Danut
insulting
walked
wondering
CD@@
Fox
syndrome
yan
3.4
optional
non@@
sibility
fa
deposit
ester
SOS
reactors
holders
assurance
peninsula
clinical
supplemented
flames
PMB
3.7
&apos;m
CL@@
neighbourhoods
echo@@
Figaro
Change
advent@@
Three
RE
hits
PE@@
wisdom
loyal
jet
sac@@
erup@@
persuaded
spr@@
costly
mediation
Ot@@
fers
intent
sorts
Birmingham
listing
smiling
instructions
chairs
ees
oling
3.6
harmonised
aches
elephant
Tennis
Fraud
weighed
Poiana
Koc@@
obesity
licensing
dress
DR
prototype
anticipate
Dialogue
Tour
soup
keepers
36@@
Thailand
jeopardise
cup@@
eth
ouch@@
Save
jewellery
intern@@
Bud@@
ologies
Secretariat
Region
Petersen
Les@@
ho
lurch
safer
accessing
Malaysian
careers
Caucasus
meg@@
embezzlement
negoti@@
circulated
Rog@@
igned
supermarkets
Island
tight
explanatory
amongst
Stav@@
gasoline
hesitate
Smiley
milestone
Jamie
ji
considerations
balcony
Moroccan
Cojocaru
Zuckerberg
ection
anxiety
ao
queues
Javier
rad@@
deterioration
iness
copied
tolerate
applauded
ges
ground@@
Ken@@
directorate
Miroslav
continuous
List
homeless
temple
Ecaterina
evalu@@
resem@@
Polytechnic
Stre@@
drag
oth@@
mega
expired
ABC
complementary
panel
Iv@@
kissing
disciplines
Statute
Boeing
1972
embar@@
ratio
Solomon
oy
versa
phorus
undermining
Radovan
atten@@
sided
i.e.
Nad@@
Mechanism
1,700
inevitably
destructive
relax
Seville
Valentina
oglu
Prut
inspections
opposing
CU
vitamins
cooking
clearer
folklore
pure
formul@@
yogurt
Caransebes
bound
inhal@@
Fiorentina
clashed
conn@@
low@@
cat
garlic
Vietnam
Doha
PRO
Philippines
ales
Otopeni
Pyramid
Mexican
icul@@
Express
Trust
intellectuals
prosecute
Bouchard
prud@@
stimulating
nonetheless
TA@@
animated
predictability
assy
quantitative
Literature
Coast
motorcycle
novelty
controllers
polluted
Porto
musician
cannabis
Gendarmerie
ancing
reiterate
chemicals
Wi@@
revive
custom
assem@@
currencies
play@@
disappointing
poly@@
sits
Turnu
Men
violates
bust
explicit
concepts
revolution@@
Angel@@
Motors
everybody
Pole
Madalin
Eth@@
spy
35,000
neutral
dominate
Mobile
emission
toilet
resorted
reproach
audiences
ification
approached
itat@@
description
Skoda
privileged
enz@@
Journ@@
explo@@
Tunisian
Franco
prestige
O.@@
Team
evaluate
Virgin
highways
subsidis@@
nur@@
FF
ress
Chairman
Croitoru
icians
EE@@
Sejdiu
advis@@
Muniru
positively
preventative
ili.com
Nuclear
Lopez
stunning
magazines
adjustments
Copou
developers
elt@@
ardo
sounded
ran@@
Ibrahim
Physics
generating
ander
shar@@
postal
wary
convey
button
Nig@@
sustain
dict@@
stays
impetus
coherence
owe
Me
Zurich
Super@@
Investigation
scoreboard
Maj@@
deprived
human@@
Universal
radioactive
revolt
rolling
isic
jerk
Progress
Catalan
135
mam@@
awaited
stationed
pers@@
fantasy
Govora
Sri
terminated
rak@@
blond
Annan
productions
anno@@
umb@@
host@@
Maxim
Cart@@
exagger@@
star@@
Southern
itive
academ@@
aboard
Carlo
applicant
ugly
havens
16.00
stream
geograph@@
vessel
unused
inski
DF
favours
wn
13,000
2050
Wolfgang
cycling
conversations
character@@
foot@@
sburg
Chicago
trans
bert
inaugural
sia
vaccines
supervised
cas@@
meas@@
hu
Pac@@
banners
ained
Pit@@
altogether
laboratories
fluctu@@
crackdown
dea
deceit
AG@@
1988
Mes@@
accounted
extrad@@
particles
Girl
Torje
eless
Shanghai
thro@@
Semitic
ord
sta@@
piano
bio
bidders
clon@@
desert
Jeremy
sponsors
Mt
sand@@
Vanghelie
af
prev@@
Dani
Kam@@
Crisis
eding
Blair
dimensions
accredited
jets
Chitu
restriction
reforming
IMI
Netanyahu
By@@
onia
continuously
campus
banana
declining
tab@@
fertil@@
Resolution
Florida
deforestation
4.2
past@@
unauthorised
eaten
promotional
Canc@@
Stalin
burdens
Hoop
Lady
flooded
ching
designers
hobia
Char@@
Brit@@
shad@@
lanes
acknowledging
Gas
voluntarily
overhaul
specialising
select
ito
introduces
FUNK
motions
tav@@
arian
Bob
Nicholas
Borders
caring
hero@@
Texas
spends
advers@@
Sw@@
Christianity
misled
nutrition
365
resignations
iUNK
inaugurated
bum@@
Care@@
Bak@@
gymnast
terminals
Nag@@
breach
Marco
Broadcasting
forbidden
torn
Today
bin@@
orer
230
2021
synthesis
underestim@@
commod@@
denying
Hora
vocational
rank
testify
ruin
condemns
240
fingerprints
Flor@@
ential
exotic
aba
impunity
West@@
tournaments
inland
chains
improvised
mentoring
alties
Budgetary
CPT
8.5
Ruth
hurt
swe@@
outlook
Ivan@@
inherited
unblemished
mentioning
costume
nets
Fatmir
counted
Miami
undesirable
worsening
unstable
lah
mountainous
dor@@
bog@@
Nick
Maruta
cau@@
Handball
DI@@
derog@@
Mafia
mistaken
mac@@
destiny
gUNK
Ukrainians
observer
restoring
sti
judged
advising
atrocities
TE@@
ectors
obliges
revival
approves
cry
Vasilescu
departments
gaffe
Prov@@
inciting
acu
internally
globe
cinemas
Mih@@
ops
Nic@@
Penitar
arily
carrot
ailed
prolonged
delegated
delete
Basel
glory
105
4.1
promotions
substitute
occas@@
guidance
Scheffer
substantially
ret
Raiffeisen
Moise
enthusiastic
Tosca
accepts
diversification
feasible
containers
RFE
bailout
Ies@@
1.9
elli
Europol
PI@@
personalised
retailer
Vr@@
wrongdoing
flu@@
cracks
Cab@@
ee@@
victor@@
genuinely
steadily
Te
email
Venice
rallies
1977
Andreas
ovac
invention
likewise
designation
Riz@@
wrest@@
strip@@
ric@@
atism
Ramona
announcements
detriment
Cast@@
hes@@
Rutiera
similarities
contradictory
07@@
seaside
qui@@
opo@@
downtown
cease
eam
AEP
Happy
reviewed
registr@@
archive
sworn
totalitarian
Cozma
gentleman
Benjamin
Jack
bathroom
volcano
Lukashenko
rey
casinos
restrict
annex
Cy@@
journalism
Saeed
infiltr@@
clas@@
Language
simpler
Higher
Lamb@@
enta
volcanic
ister
Mitr@@
Cinc@@
Alexa
kicked
Stuttgart
affection
eness
margins
horizon
problematic
Economics
ort
iga
Ste@@
amp
posters
Baj@@
etta
ange
IO@@
blames
ken
tis@@
Support
Studio
rubber
thematic
opolitan
systematically
ArUNK
insurgents
rulings
keeper
125
provider
differenti@@
affiliated
honours
Mod@@
Head
expose
Hay@@
capitalism
26.@@
bass
Nikolic
repatri@@
compensated
Curtain
connecting
militant
ingual
jak
poster
Kevin
solvency
shortage
registering
nes
comrades
ography
laying
bicycles
Tahar
recru@@
batteries
Mugabe
pac@@
lining
therhood
ult
discovering
logistical
Cob@@
1985
27.@@
ye
weighing
tos
psychology
ei@@
demolition
Task
pick
vowed
Neighbourhood
stealing
Poles
leap
terror@@
but@@
backs
technocr@@
pharmacies
Sam
Dodik
unitary
compos@@
itated
USA
deadlock
whereas
lan@@
supervis@@
Govor
deton@@
Sum@@
Mission
Red@@
Pers@@
Ton@@
collaborators
Honda
managerial
Stale
Henri
Medvedev
predictable
thanking
mortality
premium
Glob@@
C7
commenting
Rho@@
dom
Carp
concentrate
depic@@
executions
schedule
Congo
eradic@@
tents
extr@@
Ok@@
Ret@@
omin@@
util@@
need@@
shameful
sional
cuisine
exp@@
onto
Edil
shale
Bes@@
Costea
Budgets
Diaconescu
disadvantage
extinction
hikes
Sec@@
thoroughly
Brigade
cea
absorb
ninth
liquid@@
Cohesion
Bojan
dynamov@@
perf@@
ham@@
Pos@@
exc@@
availability
Bou@@
eu@@
festive
earning
catalogue
anticipated
verge
Sev@@
princesses
lam@@
oli
Ly@@
setbacks
Rud@@
tonne
expressly
Soviets
recommending
expenditures
tries
UMF
influences
blocs
obstruc@@
contaminated
Under@@
isor
ionally
doctrine
jewelry
Crvenkovski
insistence
Ca@@
mot@@
runoff
tuberculosis
Sho@@
1974
com
stricter
hometown
iling
Moon
fundamentally
Rico
ancies
unpredictable
abduc@@
Djukanovic
Benz
spontaneous
Mare@@
workforce
Zam@@
Ghencea
idi@@
thread
ioni
horror
denounc@@
1973
installations
archaeologists
dissemin@@
Conservative
drum@@
Far
glob@@
intermediaries
tern@@
Alex@@
esta
ze@@
resumes
Dance
Je@@
notice
swept
coins
Guinea
Islam@@
plat@@
blaming
modernised
mankind
anders
headscar@@
parked
Lis@@
PO@@
struction
academy
fulfilment
JUNK
Urdareanu
Tim
specified
rem@@
stating
.co.uk
rainy
reinforce
embarrassing
conversion
Savu
constitutes
fits
Metropolitan
Coca
Gloria
interfere
contamination
lav@@
dUNK
Jens
incompetence
Marko
Jen@@
sword
road@@
anny
grip
undertake
convene
Bulevard
enshrined
Leonardo
Rosca
basket
grad
cro@@
by@@
dos
Muller
failures
Czech@@
corresponding
blessing
Yulia
shaped
dimin@@
Lebanese
incumbent
exported
ificent
repercussions
impress
Nat@@
Gra@@
interaction
detonated
Lan@@
etr@@
polic@@
IA@@
wasted
reminiscent
TV@@
reminds
Captain
Oliver
ome@@
deeper
Fat@@
PUNK
stir@@
influ@@
reason@@
nis
shoulders
Catherine
Andrew
deliberate
oti@@
rifle
punishable
sified
chron@@
fish@@
Cuban
spar@@
broadcasters
District
violin
Guar@@
eing
Ka@@
twin
ventilation
pes@@
wines
transpos@@
Duda
Blan@@
wholesale
Common
subscriptions
Had@@
hydrogen
electronics
1979
Berets
invitations
grassroots
accumulation
systemic
precarious
sectoral
ople
inos
overwhel@@
Rand@@
Philip
bodily
Benzema
wonders
predominantly
Archbishop
normality
a.ro
polluter
distributors
formerly
oon
unionists
.net
fulfil@@
hazardous
trail
hop@@
sion@@
Azarenka
Progressive
renov@@
disagree
Nu@@
Combating
dian
Mazhas
aking
intimidation
ax
input
buf@@
sut
champagne
Eric
redistribution
Mai@@
prof@@
eased
encouragement
Cesar
scripts
Us@@
Clinceni
55@@
indispensable
Natra
goodwill
ken@@
privati@@
Process
hanging
Area
VOA
subordinate
cand@@
teaches
forwarded
Mostar
baton
forefront
mm
south@@
650
horrific
Dulguerrillas
Videanu
commissions
HotNews.ro
Georgi
orous
inmates
avian
tasked
lor@@
Berlusconi
entrusted
Di
bomber
meals
abortion
creditor
saddened
bo
celebrities
radic@@
artillery
unresolved
cocaine
enforce
authenticity
haven
shor@@
midst
hap@@
museums
inde@@
Lad@@
UNICEF
crossroads
3,500
9m
400m
Kis@@
monarchy
Mohammad
grandchildren
dependency
successive
hist
Countries
circulate
wreath
manslaughter
wireless
Cul@@
veterans
decre@@
array
Sak@@
total@@
pursuit
Jong
tasty
Mesaru
Cin@@
administrators
fibre
DeGai
Rossi
nutritional
aim@@
Francisco
slowdown
ef
championships
Bere@@
screened
degradation
block@@
garde
ais
endor@@
fat@@
woods
despair
tastes
Ful@@
singing
Mar
knife
trauma
Operation
Georgiev
firea
centred
than@@
cen@@
riots
raided
humiliation
Tak@@
rol
dorf
devalu@@
opol@@
resur@@
2.9
mask
projections
Archbishopric
shacks
funny
camera
landslides
intimid@@
adic
bling
protectionism
fences
iz
wr@@
kan
unforgettable
reader
Petrache
shortages
deemed
Budva
Mirror
Fernando
nerves
Meg@@
Telec@@
Gaman
subsidy
doc@@
surgeon
overs@@
earned
interfering
Scientific
inhabited
Croats
populism
underlying
represent@@
A.
specialisation
accordingly
swearing
BE
IP
ician
Reserve
obligatory
relationships
alls
Sag@@
convictions
Statistics
concealed
creator
Madeira
tou@@
cattle
overc@@
Mine
elites
Valaku
adjusted
VIP
painted
polar
miles
Somalia
origin@@
cafes
isers
forgiveness
sal
continents
09.@@
Citiz@@
denounce
Harvard
Mik@@
emperor
Dal@@
4.6
Swe@@
Zimbabwe
counterfeit
Ivor@@
coastline
simplifying
venues
mediator
eligibility
staying
impe@@
Ari@@
alled
Jr
Transparency
Petrom
downward
experiments
jur@@
Covasna
Rar@@
stream@@
assumptions
isations
ace@@
lin
staged
iation
Organised
Argentinean
omir
heirs
salmon
Orhan
Guseth
amic
Smart
bath@@
interinstitutional
similarly
egg
sculpture
jevic
bury
compromising
Acc@@
Latvian
109
intensify
observe
Prevention
Pto
concentr@@
kidnapping
DG@@
gery
Lju@@
Sorana
Cernavoda
Angelique
Fili@@
Lewandowski
Sali
corners
Gear
filmmakers
infringement
Der
divorced
BRD
bike
emia
accompany
Nordic
enables
NSA
believing
underline
alerted
sid@@
amateur
tun@@
Laurent
concluding
ua
volatility
1968
tracks
Ottoman@@
Viv@@
endless
ique
disparities
populated
tra
vague
ater@@
Sandra
grades
Terrorism
cle@@
discourage
kas
plunged
provocative
remittances
ori@@
6S
unidentified
airs
aver@@
amen@@
licences
efully
Vidu
yourself
tie
ism@@
strikers
appreh@@
Bianca
Beta
Jolie
inescu
alises
persist
bing
She@@
frameworks
8pm
ben@@
complement
defamation
posing
reconc@@
0.7
ru
hypermarkets
Zemun
physicist
Busteni
piracy
withdrawals
Virginia
icing
wit@@
differ
Kabul
drowned
Scottish
Banica
ults
carols
Les
ective
appropri@@
islav
hopefully
Fu@@
From
exten@@
chol@@
Cristring
Youtube
Jur@@
atomic
exporting
Sharapowill
NadLake
trace@@
Lee
concretely
mushrooms
ente
Bata
modulation
Arghezi
hen@@
guardian
withstand
itary
icals
detect
aled
Bri@@
hita
inequalities
wet
albums
Hil@@
OS
lat@@
LE@@
assisting
03@@
Adamescu
thy
BB
administrations
negligence
elephants
tist
vulnerability
boil
random
lane
railways
vUNK
2030
panels
severity
locked
reinforced
barrels
Devintu
Goals
apped
derived
democratisation
Brancusi
delegate
Cairo
pipelines
Unions
enroll
accomplices
ia@@
hospitality
Rod@@
reserv@@
yn
Associated
harassment
dispel
reformed
Glasgow
sit@@
entails
illicit
meaning@@
pyramid
39@@
jective
establishments
Ho@@
evade
Novi
uma
book@@
oath
Lufthansa
requiring
Kor@@
embrace
adequately
prefect
Clinic
Sad@@
oled
indeb@@
axis
incorrec@@
ify
ina@@
Leon@@
epidem@@
dawn
oups
contrib@@
reconsider
2.6
BE@@
hUNK
aires
ordinating
religions
coun@@
Arabic
ella
codecision
temptation
AU
Zh@@
Split
emerges
disrup@@
occupy
mystery
s.@@
Paun
If
sat@@
salad
remembers
excluding
Mohamed
surpassed
Disney
mild
0.3
temp@@
cycles
Aleksandar
Command
sanitation
affirm@@
assert
Communists
inte
Agenda
Ursu
oul@@
bond
Standard
glu@@
blessed
republics
bering
Sir
Py@@
heart@@
pianist
calculate
apology
boast
inflated
arable
TP
Ianis
Anti@@
Lieutenant
conveyed
Chair
eup@@
vac@@
vin@@
corporations
Ce@@
legislator
4.4@@
cast@@
Tz@@
jud
notable
Ponlii
complic@@
intergovernmental
correspond
blasts
cumulative
lifel@@
shells
dil@@
opposes
Rodica
prot@@
Olaru
Gil@@
ectivity
guns
blackmailing
intention@@
long@@
defends
Stars
laptops
accelerator
penetr@@
iced
Tig
san
Olympia
depriv@@
dissolution
Week
Sanmar@@
flawed
Manole
biography
parental
aston@@
pools
approving
builders
unsustainable
Voj@@
circles
1975
3UNK
Barba
specially
tening
Focus
constraints
democrat
expedition
11,000
Aqu@@
ules
320
GSP
Robin
provinces
characteristic
parted
Fab@@
aching
brut@@
positioning
Xinhua
refinery
competitor
preferential
manipul@@
devastated
Anda
insp@@
abi
rom@@
Tuc@@
Rozaje
Abdelhamid
Jov@@
instit@@
hamp@@
Cola
recre@@
ton@@
Bob@@
Marica
220
sponsor
creations
proc@@
iction
firefigh@@
oes
Wahhabis
Mirela
tenth
arrogance
balances
passersby
Ga@@
Douglas
sticking
alling
Wol@@
hurricane
Construction
respon@@
bon
MB
Ces@@
mix@@
14,000
taxable
prevail
JO
marry
hast@@
Barlad
weak@@
compromised
Gaz@@
uga
orph@@
yas
council@@
entions
200@@
aspir@@
confes@@
trade@@
certification
Online
acher
sul@@
fu@@
inspectorate
Camp@@
giants
prepares
Pantilimon
Bucur
Digital
pra@@
emphasises
incomplete
suffers
capitalise
FRY
ood
hed
Insider
abstain
fron@@
conform@@
jel@@
ips
sadness
Maur@@
misuse
breaches
Prim@@
ature
sacrifices
MasterCard
stan
incorporated
cowar@@
Line
Telecom
brave
Apuseni
101
vegetable
Sumudic
Gas@@
adjust
strugg@@
Cour@@
emphas@@
Xi
Kel@@
prescribed
Israelis
Ciurel
ICT
Jelena
pri@@
greeted
Dobr@@
bananas
Rogers
allocating
dismant@@
tightening
ashed
historians
asphalt
Memorandum
1944
Philosophy
daughters
reciprocity
ough@@
instruc@@
oria
disproportionate
cod
iohannis
ario
Spiegel
Municipal
rav@@
et.ro
burden@@
rhyth@@
chaired
Renaissance
Branko
Gavr@@
spectacle
Tomac
Recovery
4.4
Gate
caru
ope
constructed
peripher@@
Rah@@
hazard
Kom@@
Dul@@
Raz@@
Mob@@
Basin
Catalonia
Lord
privilege
shoe
TO
settlements
Diego
dubious
1948
Hill
Come
tales
migratory
breeding
CE
planted
tricks
enabled
Bai
shore
branded
expressions
prescription
merits
static
categor@@
impasse
Carl
ethnicity
tranches
succeeds
Air@@
reviews
tro@@
Manol@@
ILO
Ferdinand
remuneration
elin
scrap
190
Gul@@
smoothly
inhumane
asha
Vujanovic
exacerbated
sUNK
nowhere
band@@
ras
ANCOM
Jorge
wishing
housed
ema
pathetic
McDonald
Simu
chev
10.00
clergy
surprisingly
aded
quo
201@@
mir
genetically
strengthens
Lithuanian
tain@@
asie
Volvo
photograph@@
Natural
technically
iate
riot
discount
Dab@@
entrepreneurial
Linda
elists
Vuk
Ris@@
Good
pioneer
hairdresser
EA
repay
ept
Stud@@
Jacques
arians
noose
earliest
Barb@@
abs@@
discreet
archy
Town
Boy@@
Helsinki
aide
Thrac@@
illnesses
chancellor
Grigorescu
isc@@
cooked
quarter@@
Jilava
seasonal
complacency
enforced
550
dra@@
Infrastructure
iot
train@@
varies
Our
revived
acquiring
Lou@@
insured
kson
n.r
constituency
Croat
cos
ghet@@
reopen
Environmental
Climate
scenery
persist@@
interruption
Anne
dynamics
Nikol@@
3.1
lava
Corridor
inovic
exaggerated
dog@@
disorder
interact
Center
haul@@
recreational
liqu@@
dagger
Lind@@
closes
aying
rus@@
Sheikh
OECD
Up@@
reminder
preference
dt
ingredient
ray
Rhine
Sandzak
Hell@@
0.4
Former
mas
Bg
Falca
collision
strained
ticking
siege
To
35@@
Fest
metals
separ@@
asteroid
envelop@@
Zaharia
PrUNK
probability
distinc@@
eren@@
penal@@
shout
explode
flagship
Travel
doses
linguistic
ordinates
inquiry
tUNK
fever
cyanide
.com.
horizontal
Vuk@@
brokers
percentages
airplanes
speeds
Teixeira
17.3
Ili@@
Milorad
nes@@
ias
storey
Borcea
ballots
Hotnews
atures
iana
Rak@@
Seoul
tin
vig@@
stomach
warrants
reacting
Craig
inefficient
sink
conc@@
Jam@@
incubator
magn@@
ular
sociologist
materi@@
liter
EEAS
Ciuca
Forests
Petar
quorum
evolving
anic
architects
Rosberg
scandalous
Shal@@
prof
Galerie
allev@@
Pedro
HC
obsession
person@@
mg
Sullivan
negotiators
Indi@@
intervening
blew
incorpor@@
Riv@@
Hard
utors
vaccin@@
OHR
1982
su
counterfeiting
scratch
poll@@
articulate
energies
Pic@@
1970
Packett
supplements
Lig@@
sceptical
bled
conjunction
highlighting
feder@@
partisan
Abr@@
recycled
Karamanlis
communic@@
eric
Au@@
summar@@
Ghatea
overdue
profitability
limitation
equity
pessimistic
eager
leather
practise
Lud@@
Mures@@
relocation
aric
hus@@
witnessing
transmitted
astically
intensively
lobbying
revis@@
oce@@
Hashim
evolve
appealing
carto@@
troubled
interoper@@
niv@@
ces@@
ratify
Duster
detrimental
abundance
abolish
saints
Alexand@@
Oslo
expul@@
traded
1980
origins
ogy
contradiction
oto
disagreed
slaugh@@
1978
Arist@@
Assistant
Ped@@
domin@@
39.@@
SME
seminar
auspices
fur@@
hectare
excavations
pensioner
interpretations
stringent
Ann@@
benchmarks
accuracy
CEC
performs
0.8
plea
shelf
distrib@@
KelvHo
fabricated
pursu@@
Thunder
Ty@@
Kov@@
Visa
poisoned
outdoor
billboards
Plat@@
genes
multinationals
pornography
forgot
Jim
dried
militia
founders
independently
Guilherme
breakaway
sibly
elic
ket
statute
paragraphs
pesticides
Gon@@
Serie
FM
meteorological
Burma
Pitt
shortest
conservatives
tsunami
swim
Rain@@
Vegas
permitted
transferring
NUNK
Haj@@
Bild
pardon
Raj@@
Lub@@
harmonise
surren@@
oe
psychologists
700,000
shields
Saftoiu
Ivanov
blog@@
Palestine
AM
publishers
Swift
evenings
021
Pandor@@
SM
Cambridge
bidder
Dorina
applicants
bubbles
unequivocal
dealers
equip
reaffirmed
soap
radicalisation
116
toler@@
ambiguous
GBP
Toni
sket@@
criticises
disagreement
recordings
discour@@
Nicosia
SchUNK
Go
scho@@
erie
optimists
T.@@
Pliskova
striving
cite
circum@@
ley@@
pole
Planning
CC
myths
masses
symptom
premi@@
microphone
Comm@@
cats
rapists
checkpoint
suring
Pres@@
kic
planting
glance
attackers
Nistor
depreciation
orn
Web@@
EPA
aler@@
Kyrgy@@
LA
confuse
inventor
Sund@@
Felipe
lately
enrolled
cereals
Mazda
desperately
flew
hire
odd
GPS
stra@@
lakes
reintegration
betrayed
gravity
MH@@
47.@@
nuances
anis
Death
anj@@
rooted
crosses
ifications
participant
Castro
portrait
stadiums
stir
racism
sights
Arthur
mal
hab@@
Alice
Kaz@@
lease
poems
Lia
anom@@
Stalin@@
Unominations
che
campaig@@
Sere@@
xenophobic
eful@@
iste
antine
iches
northwest
iner@@
outrageous
quanti@@
lacks
fierce
precondition
renovated
dragged
districts
regrets
tains
forc@@
projected
best@@
preced@@
ICJ
turmoil
design@@
Techn@@
accustomed
plac@@
Rup@@
jan@@
Hug@@
any@@
booed
Bosniak
conspiracy
socially
Velea
stabilised
pag@@
elle
intolerance
malls
iment
councillors
copper
generosity
lamb
Lu
Europa
Stanib
Zalau
Judges
applaud
Dimitrov
Junior
promot@@
dragons
Prehill
Vojvodina
ape
oud
wealthy
orchest@@
Litex
tack@@
authorisations
warmth
kidney
pu@@
manufactured
Engineering
inconvenience
Om@@
unting
throat
dispose
Yanukovych
valid@@
Novosti
prey
institution@@
Steven
isn
Turkmenistan
Section
drona
congratulated
Ziil.com
Lac@@
MC
treating
114
Breev@@
Green@@
loyalty
offset
columnist
absorbed
wheelchair
reas@@
Silva
inventory
exploiting
Weber
masks
Gates
hing
Boston
Halloween
worsened
Tul@@
dean
discretion
narrative
rosy
Lazio
Mustafa
10pm
valley
C.
asting
J.@@
UniCredit
G.@@
trac@@
py
Draga
traced
paralysed
individually
Cooper
Cho@@
HDZ
chang@@
anticipation
advantageous
0.6
Leonard
ores
Fon@@
invalid
taxed
RF
adj@@
generates
dictated
craf@@
footnote
astronomers
Nicole
repaired
Veterinary
geance
280
incidence
Arm@@
stabil@@
IR@@
uz
Hoti
Brian
heroin
corrected
interviewed
anni
Dun@@
vest
Gheorghiu
sten@@
4.3
Caspian
boards
lecturer
multimedia
eur@@
Bay@@
manipulate
govern@@
easiest
harm@@
wasn
Bosn@@
qual@@
succumbed
surgeons
Ciocoiu
gram
mercury
infring@@
ful@@
capitalist
fertility
four@@
stre@@
hanged
Scandin@@
SFOR
taining
passions
Uruguay
juices
congratul@@
blowing
Morosanu
Macedonians
deceased
Erit@@
ceremonies
Ral@@
redress
13.00
coinc@@
.ro@@
Industrial
occup@@
condemning
equation
novel@@
unearthed
consist
perver@@
depths
attered
thly
128
var
Guardiola
spiral
wall@@
yers
tortured
feedback
await
Valentine
1967
Grau
safeguarding
Costas
Jeremic
interloc@@
ank@@
avour
Major
Sl@@
concerted
Gno@@
Zaman
Regions
motivate
Kot@@
bacter@@
triumph@@
communal
debris
bath
cornerstone
sch
Blatter
indifferent
God@@
mur@@
Observatory
disturb@@
Dragulescu
rece@@
hag@@
film@@
Understanding
tag
Allied
GM@@
Store
1981
Florence
democratically
ANA
pract@@
grows
stif@@
Coc@@
grou@@
grain
biased
imperi@@
relevance
Vlaicu
MW
footsteps
e.@@
arium
Sport.ro
challenger
endangered
manag@@
CB
energetic
anges
ysis
Chernobyl
tempted
Dog@@
stret@@
rebuilding
unlimited
sniper
Konstant@@
corn
triggering
av
ator@@
consci@@
kis@@
weigh
laden
technicians
oma
les@@
142
lUNK
supplement@@
juven@@
boasted
defines
4.7
vet@@
recruit
martyrs
38.@@
Semitism
nerve
4G
War@@
nec@@
extinguished
1983
chips
Plaza
inequality
Alb@@
coincidence
grapes
iki
scourge
Nazis
substanti@@
pronounced
beg
mos@@
Ril@@
potato
bloodshed
Garden
ae@@
multil@@
Ryan
abl@@
passive
ces
ruminants
collateral
aviour
slavery
Samsung
limitations
hardest
Pad@@
secretaries
Rama
Gun@@
harshly
alien@@
enriched
Tit@@
Crown
Jud@@
safeguards
yach@@
queue
Beg@@
quet
guar@@
quick@@
complement@@
relocated
suburb
Caroline
ectives
Vet@@
Mitrea
reiter@@
rou@@
fairy
tougher
integrating
passages
measurements
confessed
Munaf
decreased
impover@@
Georgiana
Wells
barrel
Ry@@
creators
ü@@
210
bargaining
Auchan
leasing
Phil@@
yiel@@
adv@@
grief
choir
TB
specify
drawings
decisively
pluralism
deser@@
PfP
altitude
Willing
curiosity
coaching
inder
Szek@@
ww@@
appointments
Dy@@
Prefect
minim@@
Puerto
pos
translate
Regulatory
bers
Guantánamo
Equality
rifles
militar@@
rewards
Blood
Krist@@
photograph
restart
oxide
reconcile
Joska
distributing
qualifiers
wives
Gog@@
oda
declar@@
Arh@@
migr@@
child@@
Hat@@
precision
Belarusian
Ses@@
occurren@@
trumpet
Misu
Sis@@
wrongly
oft
iter@@
agri
jo
autom@@
Sky@@
inda
unconditional
Ts@@
Galatasaray
reh@@
Ivanovici
Amorim
landmark
side@@
irs
Zel@@
All@@
Hre@@
Log@@
caf@@
Phot@@
avi@@
admiration
armoured
EEC
entirety
fruits
Calais
lio
arescu
Jar@@
uniting
positioned
Madonna
146
Monde
unfairly
3.9
usa
signalling
wa
Ciu@@
inviting
bee@@
repertoire
overe@@
undergo
offs
Angelina
tphones
manipulated
recruited
Wigler
Radic
IJ
Bear
semin@@
generic
ignor@@
liters
tle
RETT
tv
Lin@@
reat
desp@@
escaping
Mehmet
ipes
Martin@@
gases
Wedding
sculptor
Jordanian
02@@
é
bag@@
ape@@
regulator
Pip@@
tale
utilities
addiction
discards
Hality
oh
newborn
provoke
FK
plenty
Santiago
Zit@@
Aj@@
layers
nail
work@@
Os
Fukushima
Renato
Euronews
GE
Enel
alley
countryside
hesitation
ombudsman
aa@@
fastest
script
battalion
pollut@@
26,@@
Bet@@
northwestern
1976
trace
recast
hydro
fire@@
Lucas
Liberties
disclosure
ques
Marketing
instrumental
preceded
Enrique
Silvia
finalise
Hour
handing
iev
physi@@
Annex
prob@@
Neg@@
feared
ock@@
ration@@
common@@
Fool
remin@@
peppers
aftermath
ader
ram
pursued
Bull
mes
Promotion
1,300
reform@@
detainee
imbalance
assed
Tem@@
Nord
mo
30.@@
resist@@
searched
tighten
handful
ph
Of@@
ifor@@
invisible
diversi@@
zer
Stop
succeeding
ND
isport
warm@@
hid
Mocanu
homosexu@@
phos@@
NE@@
Pakistani
Mufti
libraries
Gym@@
ideals
PAF
STS
restricting
briefed
Seat
04@@
inoc@@
horrible
destabilise
Charl@@
rena
polled
skiing
itical
Alibec
NO@@
Pam@@
Suk@@
ceanu
Lajcak
Gordon
PetrUNK
crack
Coanda
affes
exhaust@@
ANAK
power@@
commemorate
rele@@
treasury
stalemate
Nec@@
philosoph@@
whist@@
slightest
Natalia
udi
pon@@
paving
fairer
numerical
Ram
Est@@
Consumers
Paolo
biometric
Wikipedia
Tibet
fanat@@
1940
tigh@@
boasts
Functioning
humility
deepen
Lar@@
refin@@
Caine
aggrav@@
dan@@
had@@
thal
Metr@@
atra
perpetr@@
employ@@
Nam@@
diver
pi
Docum@@
Tolontan
Monitoring
confidentiality
vol@@
mob@@
tedness
Presidential
reimbursement
120,000
show@@
ases
homemade
Brat
decreasing
adis
lac@@
RM
databases
tles
Irimescu
incredibly
praying
MTI
screenings
tar@@
With
unrealistic
une
charter
ually
Administrative
survivor
insofar
wrestler
catal@@
convenient
villag@@
aire
cannons
Adelina
shel@@
Bar
atovic
coordin@@
Urban
notary
sted
esses
iser
topical
excited
Bran
danc@@
tom@@
chaotic
intestinal
dragging
IC
Cyril
expl@@
Kelly
continually
disclosed
embrac@@
dignified
mounted
firearms
minimise
fugitives
Teo
rain@@
icor@@
sinking
glers
Stam@@
borrowing
annulled
aftershocks
pel@@
consular
slots
guess
Procurement
Yanukovich
teammates
combines
function@@
Lagarde
advertisement
Fac@@
ont@@
arte@@
diverg@@
nutri@@
Malmström
drops
Ever@@
culprits
Robu
cables
195
mutually
recti@@
illusions
forums
Def@@
shades
dismay
sanctioned
itative
arge
dilemma
heal
mand@@
dementia
Black@@
Decrees
Li
notably
oci@@
Karadaku
alli@@
erly
reti@@
speeding
fruitful
barric@@
strive
suited
nuts
irr@@
labels
ReUNK
ATM
isol@@
improves
itarianism
Coelho
pros@@
indignation
capitalisation
Lor@@
Neacsu
tan@@
unhealthy
Hern@@
Atan@@
prerequisite
Alep
remark
Tch@@
Brother
overthrow
amps
SDP
ever@@
kal@@
democracies
Barry
trampl@@
meters
whatsoever
Ecumenical
combatants
flavour
Borussia
scap@@
accelerating
Popovici
bul@@
lynx
Kath@@
far@@
minimis
Ball@@
smug@@
Uk@@
lessness
intra
indefinitely
atis
Hamburg
Edi
eties
Ryde
mid@@
confusing
wel
Ivica
5.6
antu
examining
gg@@
wolf
filters
cot@@
honestly
Juan
crip@@
Commander
breathing
fig@@
aque
Newtari
inspire
Sv@@
cyn@@
Mul@@
bra
nast@@
Let@@
bees
vas@@
equipping
arbitrary
psychiatric
steady
industrialised
Costache
trillion
stalled
dele@@
intersection
66@@
accurately
Peru
Mineri@@
reassured
Esp@@
mitig@@
uncontrolled
lay@@
catching
monasteries
Borc
nea
vr@@
consuming
mom@@
reaf@@
Parinists
Tower
respect@@
hypocr@@
compassion
kable
grap@@
stor@@
SFF
Las
variable
frustrated
literacy
knock
cured
yi
hurdles
Sarat
doz@@
rers
Carag@@
enders
kos
time@@
flowing
Euroins
Pus@@
ulea
robber@@
rol@@
class@@
shaping
graphics
laugh@@
sunk
Gusa
Study
supervise
Id@@
triumph
bound@@
consultants
irreversible
Baz@@
hin
documented
grievances
Hasani
esty
activate
radio@@
Team@@
Tottenham
Botezatu
accreditation
MourRompuy
Faroes
anica
Yanis
rub@@
acces@@
6,500
watch@@
Eurob@@
Instrument
displaying
authentic
A3
MWh
tiny
beggars
bank@@
sabot@@
thin
Freedoms
flour@@
ceased
tor
ason
ult@@
dictator@@
document@@
etic
Milos
CDU
solo
fairs
wheels
malicious
stroll
5km
syl@@
breakthrough
formulate
adjourned
Sanchez
uncle
interconnection
frightened
antibiotic
heaven
Ear@@
ballet
Buckovski
prisoner
2.0
biof@@
guarded
500m
Barnier
outright
Zoltan
Partners
1956
tyco@@
prohibits
Registr@@
alike
garbage
Bravo
doctoral
echan@@
Mam@@
fabr@@
gir@@
puppet
HorUNK
Sony
admits
with@@
professionally
downgraded
Leicester
L.@@
organises
stroke
aquaculture
fle
Duma
taxis
lab
robots
elaborate
urious
extract
calculating
terri@@
Alfa
repaid
levy
indifference
even@@
SL
bd
Deng@@
IBF
270
rup@@
Cancún
compiled
145
Conservatives
Attack
test@@
Sax@@
sacrificed
risking
Hot
Navarro
mits
1971
admit@@
nik@@
sim
cofinancing
architectural
ented
economics
Hayssam
Stipe
costing
praising
hats
cad@@
Tara
ego@@
SE
entious
balancing
Tun@@
Parvanov
armies
bell
1,600
cardboard
murders
crow@@
ER
Operations
nica
151
Contact
depreci@@
Rux@@
Block
rebuilt
ix
Orlando
reshuf@@
asser@@
Transylvanian
idia
Die
BR@@
devoid
lays
í@@
eric@@
osion
murderer
bias
Svet@@
erec@@
Eurobonds
orphan@@
differentiated
felling
Maritime
224
fore
enormously
legs
clari@@
vide@@
foodstuffs
transporting
handover
deter@@
remedies
persistent
Jazz
1,00@@
SEC
Fug@@
culinary
doubling
cuc@@
identi@@
sification
intoler@@
novels
1930s
Astana
Ethiopia
democrats
Revenue
retrial
elev@@
ishops
Q
Dep@@
asca
colony
ador
Zlat@@
towers
gath@@
patriotism
advancement
argy
confidential
lap@@
paradig@@
blatant
qualifies
4,500
istr@@
DS@@
FBiH
accommodate
consolidate
Steph@@
Crimes
Morar
Jankovic
reluctance
thless
ET@@
Delors
DPMNE
carcinogenic
prol@@
7,500
Adele
tonight
colourful
AFI
Confederation
pepper
lux@@
gangs
lovic
monopol@@
Damian
infrastruc@@
UNDP
quit
portfolios
VMRO
disagrees
aud
fal@@
agre@@
Story
Zap@@
instig@@
accelerate
budgeting
Pack@@
19.30
U.@@
balk
terminate
6.8
renegoti@@
depositors
Rat@@
appalled
learnt
ruler
skeleton
850
trage
Hoban
insecurity
Duckadam
principal
Lul@@
Stela
Why
330
nitrogen
gunmen
Bira
dom@@
Question
atisation
prerog@@
stamp@@
Colomb@@
coordinating
Admiral
Human@@
distinguish
Boj@@
unanimity
arly
questionnaire
variant
Galut
insects
etz
Steiner
contingent
attachment
quoting
conduc@@
eted
priv@@
install@@
incomprehensible
tered
journeys
skill
rin@@
Laden
103
onds
Radut
ante@@
presid@@
itly
scholars
Ileana
ansing
stelists
ibility
N1
lungs
kic@@
Philippe
Trafficking
frequencies
gynec@@
Allah
ICA
pina
leaf
Aura
consulate
Non
marred
anga
1,8@@
vicious
p.@@
execut@@
imposes
Hyundai
Albu
penny
textiles
Alfred
Flo@@
selective
Plant
line@@
CNE
undertaking
Cent@@
oman@@
faceted
punishing
honour@@
Vlas@@
Salata
presentations
Persian
Kad@@
enhancing
politicised
wal@@
Bronze
patrols
deception
Sad
hr
proactive
discriminated
vigilant
AG
dia
Lag@@
ALE
occurring
Rab@@
graph@@
Thir@@
ayal
SR@@
orbit
Afghans
Biz@@
semble
Trans
mobilising
corporation
financi@@
Bodea
Jas@@
Loc@@
humiliating
inch@@
decommissioning
Jonathan
confiscation
Rail@@
este@@
1964
FP
intervenes
conceal
ram@@
exer@@
negl@@
Mont@@
modes
Hurriyet
arb@@
itu
improv@@
ASE
Card
Rodriguez
preserves
ming
Petrica
theories
Banu
disruption
aided
impres@@
bull@@
celebrates
gradu@@
vehemently
trick
Gri@@
trem@@
chann@@
dreaming
imagined
conceived
isis@@
Ane@@
ull
asters
TI@@
Ramadan
bir@@
legends
SR
iza
output
Matt
smoked
avoids
paradox
CHP
specifications
Representatives
54th
enne
facilitated
exceptionally
M10
antry
oting
Henry
fragmentation
Koran
gol@@
loudly
domination
KLA
Reconstruction
whole@@
tings
lah@@
Descan
Anghel@@
duplication
cathedral
Chechnya
less@@
6.7
injection
annul@@
Ciobanu
reliability
hip@@
ishment
prosecut@@
woes
Constantin@@
contest@@
aman@@
rigour
dy@@
Tuzla
speculative
Plesu
secularism
disper@@
bosses
AL
Orastie
irrevoc@@
traumatic
breath@@
admirers
oblige
achi
secur@@
arrivals
stuf@@
Friends
epicentre
prayers
poets
Olympiad
collapsing
pretty
Timis@@
attendance
rupted
deleted
Wit@@
som@@
inventing
Caz@@
Oleg
30m
distinct
sati@@
harvesting
BK@@
UUUU@@
intact
destined
archives
Blic
wild@@
Bolyai
132
Fried@@
Marija
Petrsteel
deficiencies
Down
Treas@@
itude
persecuted
hies
Nis@@
50th
Implement@@
Jel@@
accord
banker
tractors
eting
pref@@
dismantling
transplantation
Bernardino
Systems
overies
reap
diminished
disciplined
pec@@
prochement
35th
Arb@@
correlation
NBC
ecology
uj@@
marches
Competitiveness
hysteria
Syndrome
decency
pilgrims
Hos@@
semifinal
deduc@@
Treaties
Kiss
trivial
tyre
Shk@@
specific@@
boarding
spectre
ashi
unilater@@
sed@@
mitigate
mentions
medic@@
accommod@@
7.2
undermined
iest
jana
cement
sou@@
recital
Salman
Alpha
Consulting
nu@@
bee
Marcu
Lama
Alpine
Architecture
pounds
Tibetan
dra
kar@@
divers
Communism
Lut@@
leng@@
Cafe
IKEA
Nokia
succum@@
Hezbollah
unbelievable
sos
icons
Tab@@
morator@@
Click
outer@@
mort@@
consul
16,000
4.8
Palas
Uz@@
inic
aciu
beat@@
Cucu
Elazig
thered
Peugeot
hub
Goes
icks
tling
Mlad@@
oveni
Karl
RES
PASOK
videos
Without
Armed
TAROM
descu
remedi@@
commission@@
loopholes
los@@
Ven@@
Houston
1,800
Up
Interpol
prudent
TEI
icles
USS
autop@@
usion
recogn@@
yield
Electronic
brown
tyr@@
Braz@@
ilians
Memorial
ectively
Silk
08.@@
Nadia
Stanishev
Martti
marri@@
Rach@@
revel@@
dire
Land@@
hammer
night@@
broch@@
wat@@
modern@@
Guangzhou
RIA
executi@@
Cath@@
Greg@@
Gaulle
Klopp
dens@@
dynam@@
lem@@
len
ogen@@
femin@@
compens@@
14.00
Investments
dentist
han@@
mentor
85@@
discus@@
Standing
Camin
dn
thetic
ater
yer
uncer@@
49.@@
deal@@
predec@@
smo@@
104
imen@@
wish@@
enberg
uran@@
slalom
Zeitung
timeline
Amnesty
incompatibil@@
tabl@@
ocarb@@
Horatiu
plag@@
aja
EVZ
Tet@@
5.7
Pes@@
north@@
ew@@
arsenal
leverage
ris
speculate
Horn
Sarah
secret@@
Step@@
950
1,4@@
Paunescu
sig@@
pit@@
CAF@@
regret@@
Dinkic
PS@@
DV@@
Stroe
incorporate
PP
Kro@@
Miz@@
Bod@@
Grexit
Scorpions
Benitez
ral
clos@@
determin@@
efin
olic
mutil@@
ul.ro
Bursa
disput@@
tal
fs
convic@@
asy
ety
protagonist
Floren@@
paramil@@
Alexandria
quart@@
patern@@
pin
Wozniacki
AR
educate
Vincent
understand@@
prin@@
cru@@
anting
ACTA
fried
expir@@
Gavrila
itor@@
mos
Ash@@
utu
Report@@
remov@@
Grigori@@
strain
theoret@@
s.com
Nature
1,7@@
PSI
fax
occ@@
Ney@@
Princ@@
Win@@
plo@@
Metro
volatile
Branc@@
Sym@@
ional
Marseille
Kuwait
Jessen
Survey
inspir@@
1,3@@
Comarnic
arbitr@@
lou
Golubovic
emb@@
Radical
tav
Herastrau
broad@@
PNR
Berg@@
KA
uts
hir
PM
embarrass@@
inov@@
Verts
anos
Cine
Bac@@
entia
rum@@
1953
experimental
Magdalena
Matthew
Jag@@
ANA@@
Romexpo
Pan
element@@
JN
flat@@
dov@@
shr@@
revol@@
abol@@
reflect@@
Monitor
Ran@@
Marathon
1962
Denisa
0.9
discrep@@
short@@
MI
Aureli@@
aft
angered
Buceschi
22.00
uv@@
admi@@
facil@@
simul@@
ozia
Peskov
anta
stereot@@
saf@@
protoc@@
shine
Stefanov
armament
88@@
Copos
Fan@@
RI@@
Ho
Metal
sto@@
suf@@
ö@@
Hus@@
persp@@
Hans@@
grace
arica
peace@@
Gur@@
lets
Ciol@@
Milo
computer@@
lia
consum@@
arel
Adel@@
superficial
bach
clim@@
Tobacco
Beauty
Hussein
dings
itate
fare
Sut@@
nas@@
tactic
developer
Securities
onom@@
olis
Talat
excav@@
Mold@@
Darius
bak@@
owski
artifici@@
streng@@
Inzko
Mic
Sara
Taj@@
Anthony
Shor
prise
BVB
cock@@
sus
Country
construc@@
Suz@@
unted
Ioannis
demagog@@
polo
.org
Boyko
Daj@@
fost@@
perce@@
MTV
Etica
Aur@@
Rajoy
Fran@@
superior
Base
eski
Marin@@
sti@@
hold@@
Caf@@
Dimitris
booking
injur@@
Siberia
fortunate
Nagy
configur@@
spo@@
Sahara
Antalya
124
glu
Sou@@
Fel@@
smil@@
dle
Bus@@
prost@@
hood
stres@@
123
tl@@
Rov@@
Chivu
lov
pil@@
45@@
frustr@@
gar
remem@@
particip@@
iter
Stor@@
Ispas
Ltd
Joh@@
Belinda
versus
IN
stic@@
165
Varga
bus@@
xenop@@
Neculai
mentally
See
tation
ria
last@@
Steinmeier
Melo
propor@@
Olaroiu
modific@@
Podu
peac@@
ii@@
wrap@@
Bogd@@
sopr@@
indicative
amo@@
ies@@
Pin@@
oring
ESF
ester@@
Pec@@
inademedi@@
provo@@
Beirut
Cou@@
anal@@
Sant@@
pesed@@
aerop@@
auer
Bahrain
parad@@
utic
33@@
Jug@@
Burg@@
Berca
Excel@@
107
2,0@@
radi@@
111
warding
yst
SD
Iotcu
AA@@
spir@@
studi@@
Guta
abilitate
Moz@@
cord
ifi@@
Hogea
Chem@@
Bavaria
rian
nav@@
Regul@@
blogger
mun@@
15.00
GM
internation@@
Yves
kill@@
260
Tos@@
outsourcing
aste
Liu
Pep@@
U2
175
Rosen@@
mediocr@@
Apol@@
ier@@
a.@@
ridor
FGA
enthusi@@
prejud@@
SCA
mad
naive
guarant@@
shocks
aster
omed
MAS
Dalai
refer@@
Dimitr@@
transnational
collabor@@
imon@@
56@@
Audi@@
illed
Alan
charg@@
Model
compas@@
pattern
iPad
Tru@@
briefing
PM@@
Roz@@
inn
D.
ultan
tant@@
blow@@
ural
Rasmussen
ede@@
bloo@@
ovita
Curie
typ@@
Anadolu
MHz
Fire
vertical
mortem
Kelemen
itant
mit
autism
Fur@@
Sheen
Hai@@
Zah@@
Be
ARADON
swit@@
innov@@
Bow@@
Oxford
EurActiv
Julian
Christopher
Simone
surviv@@
Pascani
Cantacuzino
enrich@@
volt@@
Barna
Sharm
umes
Magurele
NGL
Eng@@
Olteanu
complac@@
mit@@
BU
LED
lav
Ljiljana
Ant@@
Goj@@
Domin@@
Nicol@@
PwC
neighbour@@
Christofias
Training
Kardashian
repres@@
Ljubljana
ridicul@@
DSS
Tribune
deliber@@
inh@@
Enterprises
vi
Berceni
drum
pseudo
35.@@
scholars@@
Jovan
histor@@
Fren@@
Vlasov
iss
bet@@
ozone
eh
rebel@@
Janeiro
Cernat
Rugova
cord@@
cic
E.ON
tripartite
Vettel
Nes@@
Sic@@
PIS
Can
pen
nea@@
Sporting
Two
Bridges
Herald
curren@@
rigid
lis
swi@@
asing
arova
las@@
achi@@
6.2
echn@@
wed
Ada
gren@@
ycl@@
Wi
blogg@@
tropical
overed
Tomis
Irimia
eca
ector
pow@@
Jes@@
SIF
strateg@@
ause
arti@@
lier
SWIFT
gering
Schumacher
mus
Chit@@
Pablo
lips
kis
container
integr@@
Cons@@
emotion@@
princ@@
resign@@
tural
Law@@
ucci
pris@@
suffici@@
mode
ju
Werner
Transpor@@
ommun@@
wings
snow@@
Crinuta
ilia
Gaburici
eon
Andrzej
embl@@
Rug@@
Gold
Shakespeare
stac@@
download
Jinping
genital
Mara
1947
weal@@
Camer@@
GN@@
Hak@@
dinal
Ref@@
secretariat
Lea@@
incl@@
Academic
ior@@
apl@@
erent
exod@@
ismatic
Mugur@@
home@@
ints
korn
buc@@
nicu
Ji@@
reimb@@
essed
electr@@
Banking
Echo
eption
vand@@
regener@@
psi@@
I.
Trium@@
Salzburg
uring
Suc@@
pric@@
pt
industri@@
tionary
126
anese
lik@@
Cazeneuve
Pra@@
gor@@
canu
Wa@@
True
Challenge
Fore@@
curricula
ainst
Economist
vegetarian
bes@@
ongue
Verhofstadt
construct
vic@@
Hollan@@
Oettinger
Porumboiu
Electric
intellig@@
Markovic
trader
lobby@@
Gabor
Ante
Giulesti
fle@@
aden
aku
Pris@@
ved
Eg@@
complex@@
facilitat@@
inion
Sandero
memor@@
defl@@
urm@@
Rusescu
Liberation
Rol@@
tini
goal@@
assassin@@
NET
Prodan
vent
n.r.@@
denti@@
pile
scepticism
Sparta
Dracula
Svetlana
seces@@
estic
Conduc@@
kes@@
Kou@@
Ababei
neoliber@@
voc@@
1965
nette
Jaguar
Rel@@
marijuana
burgh
Jol@@
Societe
Intel
nosocom@@
refrig@@
ilescu
Evans
TF@@
oves
Ek@@
Liber@@
combin@@
uch@@
Konta
demon@@
Mahm@@
Brum@@
enter@@
rul@@
acies
RT
Raq@@
1960
Khan
Salon
list@@
Kok@@
1939
Mountain
Pancu
coin
HO@@
umi
comparative
anca
Semcu
drow@@
itarian
mathemat@@
ercial
Haret
gat@@
22@@
vocabul@@
trail@@
scrup@@
ergy
expire
larg@@
Christine
encl@@
aianu
coli
cartel
Salaru
TO@@
Josipovic
simult@@
thouse
Blo@@
ESA
urg
Lak@@
Stat@@
Lac
Murg@@
Independ@@
Dell
Breban
mul@@
emerg@@
Tatar@@
Cant@@
Neam@@
Bourceanu
Depp
Hr@@
etc.
Liechtenstein
rians
hei
Frunzaverde
Nav@@
ovska
Dorob@@
Solar
philos@@
dedicate
Everest
Toro
.bg
Hydr@@
popul@@
Little
angel
vin
Transnistr@@
Lung
Š@@
Cadariu
puzzle
itz
precau@@
Minaur
106
evolution@@
GSP.RO
Boboc
adh@@
vic
licen@@
reinv@@
bon@@
Avram@@
Domo
opportun@@
kne@@
Ed
Kazak@@
itit@@
Haradinaj
eda
emetery
unce
apar@@
v.ro
enec@@
uru
Technologies
Larisa
mult@@
Fenerbahce
Syn@@
lustr@@
Mug@@
BP
Hum@@
gin@@
Gir@@
Corbett
Polo
Florescu
AZ
Margareta
lobby
setia
kel
1969
Atlanta
chen@@
mus@@
Mot@@
ashian
37@@
gastr@@
117
Atom@@
Manolache
Cic@@
og
imb@@
NBA
Ljajic
heal@@
Guy
ming@@
Leh@@
L.
Maia
screen@@
adul@@
dictate
Morgan
Rai@@
Buil@@
Schilling
Puscas
Dusan
Rice
drift
trio
glit@@
Doi
Francis
king@@
where@@
request@@
Grad@@
Kuk@@
OLAF
fascin@@
slip@@
organ@@
concep@@
truc@@
POS
discriminate
Maastricht
Dou@@
ux
atus
orus
reb@@
Breazu
aiman
Ther@@
camp@@
icevic
fran@@
nostalgia
RD
dez
Che@@
aic
36.@@
aders
Odor@@
147
maj@@
Sputnik
odia
orious
Yil@@
scar@@
Boko
Paddy
Sapunaru
boycot@@
proportional
Johnny
Hammond
anja
digit@@
vill@@
Olga
Turda
Daria
Rou@@
Steel
gam@@
Eminescu
map@@
ouse
Fant@@
Pil@@
č@@
contag@@
num@@
Reghe
intere@@
eptic
CC@@
evac
wen
ymes
arrog@@
pav@@
habitat
coerc@@
ston
tional
Trading
UR@@
itian
drag@@
Clean
cum@@
Kun@@
ambigu@@
some@@
alumin@@
Astronom@@
olos
pies
EUFOR
exhum@@
box@@
Sport@@
anth@@
sof@@
Sas@@
Integr@@
det
Wilson
inser@@
impartial
hev
Prepelita
Priv@@
spiritu@@
KGB
59.@@
Montana
prio
vent@@
ree
Aid
Tbilisi
accus@@
ht
Tech@@
n.red
constit@@
Berc@@
LG
Lit@@
uding
Hope
pitch
sty@@
DJ@@
Mariano
Molenbeek
EY
Brothers
1963
215
Cat
LV
heav@@
GMT
splendid
sent@@
Csaba
expropri@@
inning
ITU
reproductive
ISJ
sexu@@
oUNK
luc@@
E.
recur@@
jek
370
................................@@
brib@@
Carolina
ROM
locomot@@
138
Cati
ezi
136
Tes@@
oo
Adriean
155
gi
surro@@
Visan
weigh@@
rop@@
ulet
ITER
Cartarescu
iss@@
chenko
Markets
Osama
ishments
Draghi
Trai@@
guerrillas
Scar@@
prepare@@
Jaap
intermedi@@
igu@@
bea@@
Electoral
cere@@
Turner
sci@@
Erasmus
Automotive
Ball
Daianu
janin
egu@@
Khal@@
ept@@
5.1
Your
utiu
provoc@@
health@@
istan
Woman
obi@@
Volksbank
SRTv
scriptions
prim@@
1949
incompetent
arbour
Borde@@
Kyoto
ilovic
nick@@
Derv@@
Chiv@@
F.@@
Szij@@
ests
grand@@
ulties
ided
Hot@@
lum@@
lea
pet
Moussa
coupl@@
121
VI
Fri@@
OTP
alleg@@
now@@
Ajax
god@@
edi
Budeanu
Ib@@
Pontif
heim
nest
777
Muntenia
Bradeanu
Moore
eaded
urn@@
Emma
jung@@
grenade
los
suspend@@
alina
Cora
Kuz@@
rab@@
Dacic
Dnevnik
Quartet
Four@@
tot@@
aras
Jenner
mainstre@@
hai@@
Basarabia
Zoo
aman
WikiLeaks
enn@@
idi
Potter
pit
usive
tention
imin@@
elles
Bug@@
4,4@@
Vali
Mathieu
Ahli
Boxing
Ilan
Anim@@
Sup@@
137
las
compli@@
Rotterdam
Zivkovic
Zenit
gu
Cristoiu
Naum
102
Acr@@
Cook
Kos
body@@
Fa@@
29.@@
f.ro
oms
cameraman
aco
Stoichita
Song
Ceku
usted
bec@@
Brad
thor@@
CoE
inist
ugg@@
BT
zini
Suez
Timmermans
percep@@
Rez@@
politi@@
Tito
Prot@@
BN@@
frig@@
ums
repro@@
Nicu
Hand@@
Nev@@
amic@@
Mihal@@
gendarm@@
COM
Sey@@
haz@@
dos@@
prompt
UPC
delta
archae@@
preval@@
Wel@@
premise
Feren@@
reciproc@@
gn@@
Mediapool
Globe
Sre@@
graded
inci
Dolcesport
321
App
1955
erian
Cancan
bre
Max@@
1966
opt@@
scrip@@
Guran
urn
Diesel
Magic
Ahmed
urement
Turcescu
Dumitrascu
Draskovic
Dow@@
Danc@@
aban
IA
Lib@@
Barrot
provincial
Jadran@@
traffic@@
certi@@
Samson
degrad@@
IBM
Beckham
108
vv@@
Trav@@
oror@@
Saakashvili
MCV
colos@@
Nar@@
UD@@
asted
emplo@@
Gonzalez
aila
gy@@
Indones@@
Stanculescu
bate
Fort@@
Lampedusa
CSS
lef@@
Dnev@@
Design
Austin
Schmidt
horr@@
cognitive
Vom
1961
Howard
fas@@
tant
dep@@
fort@@
icon
ON
awa@@
Years
Agre@@
Kunduz
proces@@
Ig@@
logod@@
til
underg@@
resor@@
acle
Catalina
Madison
Icel@@
133
37.@@
Vid@@
tual
sint
Kul@@
amin
zer@@
itives
green@@
Min.@@
cind
Mecca
Tir@@
reve@@
Musk
ien
exacer@@
Bruce
aving
Dallas
Lap@@
POS@@
Florica
lucr@@
Calinescu
exclu@@
Pana@@
NT
hat
chat
Colin
Chil@@
Mueller
comed@@
dot@@
1959
anism
vor@@
renew@@
itic
Kil@@
spl@@
otti
122
sel
Reding
Ja@@
envis@@
Thi@@
cons
volunte@@
geo@@
apter
umb
Holdings
Stej@@
Got@@
tile
Massimo
ă@@
1941
Timea
allow@@
Cernea
eventh
Buble
iou
Muhammad
Matthias
potasiu
reset@@
Illy@@
bodyguard
Boeru
Vanc@@
wart
destin@@
Balta
Valeni
Kathimerini
Prlenda
Christina
Josh
may@@
LDK
blin@@
Sean
regist@@
Fern@@
ral@@
425
decl@@
inspector@@
Ned@@
imper@@
niceanu
Boldrin
provis@@
127
forcement
kon@@
Thom@@
ANR@@
Carreras
Are
Strat@@
aaaa@@
accoun@@
Orsova
Lora
Stanford
hu@@
dol@@
Comput@@
sentim@@
Caru
rom
ymen
urs@@
45.@@
agr@@
postpon@@
FTA
Lenin
Expo
dier
1950
fit@@
án
ox@@
Anto@@
aar
erna
colonel
ultranation@@
evska
ified
rim
Motor
Multi@@
bye
ident@@
Lucia
dest
Chan
ovi@@
develop@@
anka
rem
Uganda
186
CL
acceler@@
abund@@
agues
UE@@
Las@@
Berdych
Fire@@
ple
Teodora
Stoian
fragment@@
Organ@@
Gavrilescu
contrav@@
eling
opedia
Daciana
polar@@
auxili@@
Nur@@
Ze@@
185
Kap@@
Bej@@
leanu
eded
Brug@@
bill@@
MIA
Call@@
Juli@@
Einstein
Bratislava
statut@@
rez
ć
ograph@@
ben
INA
Tod@@
Cristescu
infl@@
Thompson
itu@@
Vital@@
plan@@
Davor
region@@
Dunca
189
Mihalcea
Stoich@@
inade@@
Poor
Alek@@
limb@@
pct
Balcescu
circul@@
rah@@
Rihanna
Trandafir
achment
unded
Geographic
adi@@
narcot@@
1930
Interfax
ès
Maine
account@@
Kosor
unch@@
sis@@
culpr@@
Dedu
ultimatum
Euobserver
adjourn@@
Ira@@
ital
DG
Hein@@
hion@@
McLaren
Franz
Vod@@
definite
Ross
Bencic
hear@@
itional
Kosov@@
sigh@@
incap@@
evacuate
osc@@
prom@@
Brav@@
ode@@
abil@@
clip
TOP
pled
EFD
phere
chip
avita
Bitu
Kazan
Bolivia
Eurov@@
akovic
Hossu
scienti@@
kins
het@@
assess@@
surve@@
Bobbi
153
Osi@@
irescu
Stoj@@
Tanjug
Morais
foc@@
PRM
stig@@
fect
mined
suppl@@
bid@@
EI
contrac@@
ommunications
Protv.ro
rationale
118
That
shoot@@
Beh@@
Slatina
INS
rela@@
asi@@
Tyson
EI@@
Marshall
intensi@@
Invest
anne
Giorg@@
conclu@@
olli
anticip@@
Djur@@
Vor@@
aly
301
esp@@
275
ICR
jici
-2
ojevic
icirc
Motor@@
gy
Lech
fus@@
Nano
Mev@@
programm@@
imped@@
brok@@
pop@@
GUE
290
satel@@
avljevic
EADS
evol@@
s.ro
apolog@@
inje
tras@@
Iglesias
roaming
subsidi@@
48.@@
divid@@
point@@
beu
elop@@
ann
Ghenea
Sabine
EV@@
Ashraf
Strauss
statistic
cade
estone
Homs
Adela
reactor
Parc
sle@@
desper@@
affiti
Smil@@
cz@@
Tus@@
Tren@@
Filip@@
ikistan
appe@@
sident
cho@@
proj@@
99.@@
teanu
shire
Gerard
complet@@
Lun@@
Florentin
eau
Grecu
Saddam
Americ@@
Diaspora
recap@@
polit@@
chin
inity
opher
Matel
resum@@
RCS
Skype
Tucu@@
Snagov
abor@@
enced
Ist@@
Sust@@
Magheru
161
catering
Protest@@
proven@@
Karim
ennium
Dimit@@
CCA
Anderson
Karolina
stry
agro
instinct
protection@@
Ded@@
intim@@
iP@@
mirr@@
BU@@
Watson
Martinus
Ontanu
massac@@
paint@@
boar@@
ih@@
Kofi
alin@@
cour@@
Diyarbakir
iefs
Fol@@
Palmer
lor
Tripoli
TF
tas
Turk
oae
Madagascar
Dubrovnik
ingu@@
Blerta
ovisual
Mich@@
Nim@@
Vir@@
aroiu
Monte
SV@@
Antarc@@
transp@@
ET
uda
Bucegi
lock
usi@@
Salah
nerv@@
And@@
ataru
Foniqi
Biris
anding
Ghimbav
cali@@
apocal@@
Cra@@
166
sprint
iments
eana
good@@
Jobs
protest@@
univers@@
Vision
gal@@
swim@@
Dud@@
2022
Maril@@
replica
spa
Rosenborg
Tender
TDI
ios@@
alt
forest@@
Zen@@
Will
Fischer
nov@@
declas@@
journalist@@
disappoint@@
Bakr
AK@@
electron@@
Cohn
Enceanu
erence
achs
frigh@@
Brad@@
igr@@
173
Nenad
practic@@
reni
deriv@@
tend@@
Hart@@
vacant
Nikolovski
420
sam@@
310
Auschwitz
DSP
Tap@@
aro@@
Harbour
iring
osh@@
destro@@
Siveco
franc@@
99@@
Fabius
eminent
issu@@
ovica
ISA
extrem@@
.1
Jude
Hav@@
Gaga
Simionescu
anco
Mina
Fitch
Grahovac
Kan@@
eac
Nine
Dag@@
LI@@
B7
Zu@@
Bonn
emet@@
ó@@
paral@@
Andorra
imparti@@
constr@@
Mitchell
Safarova
grav@@
PI
suburb@@
mic@@
Sever@@
Hann@@
berger
generative
pass@@
Zak@@
Burn@@
Mav@@
chil@@
sec@@
report@@
iron@@
Direct
Samard@@
prono@@
desc@@
ugs
Blu@@
Radauti
Interagro
Dalli
tap
Start@@
144
draw@@
Mut@@
cova
Ericsson
Armen@@
2025
ESM
Balaj
Davila
Bosch
exacerb@@
Burkina
repar@@
doub@@
rin
ane@@
DUI
Eliza
159
polis
CEx
enea
007
orge
KPMG
biom@@
Hadnagy
Athan@@
ographic
Iran@@
condol@@
Sus@@
adly
pione@@
oljub
rang@@
Avi@@
Petru
Huawei
Durres
Gros@@
Sib@@
uki
persu@@
parole
zz@@
340
att
Stri@@
24.ro
bure@@
PV@@
Chef
Bendit
nia
Verheugen
ener@@
spectator
Mbps
URI
obscure
Viet@@
Ferrer
Altern@@
sens@@
lau@@
Comaneci
Bren@@
olan
Tis@@
USAID
Dra@@
\
380
cles
extern@@
Lj@@
practi@@
Ruti@@
ofan
uled
Titi
eters
Hingis
Argent@@
flora
Sima
greg@@
lecture@@
aments
Tec@@
inita
diva
Lugansk
infer@@
Postav@@
Fed@@
Nebojsa
inga
Jo
Catal@@
ello
discrimin@@
bic@@
diploma
virt@@
Danilet
Aven@@
FE
Lep@@
Christie
ymous
submarine
critic@@
Côte
PDK
Fagaras
Tas@@
Nest@@
Money
Makfax
Vosganian
176
Rexhepi
other@@
Cior@@
dow@@
1938
caric@@
consolid@@
inth
Transgaz
uck
inscri@@
PSV
Fit@@
Rolling
eg
z.ro
Band
Bam@@
zen
evard
Slov@@
ego
Moody
Ples@@
hac
dres@@
Duicu
modest@@
oughly
fen@@
compatibil@@
Maiziere
mov@@
1936
uman@@
Rohan
TSD
Rahova
ament
CI
neanu
impec@@
Johannes
Algeria
Kovacevic
Voronin
Wild
Esca
Hello
qi
12.00
Dora
suff@@
hec@@
serial
aa
choos@@
superi@@
dul@@
Daul
homosexual
Naval
ayed
indict@@
ience
TIFF
Airways
Superior
162
Bea@@
Paci@@
131
Iliev
horri@@
rez@@
Wal@@
SG@@
UPI
156
Baluta
Sirbu
AB@@
Era
itar@@
mond
ker@@
realism
Mihaj@@
Mahmoud
Herbert
mers
fauna
Kogalniceanu
Sing@@
Vila
G.
tino
arrest@@
SOLVIT
Vukovar
Martina
Arsen@@
deep@@
ovanovic
Hapoel
Gavril
org
win@@
akov
Babacan
custom@@
ague
Gand@@
Balea
elj
uri@@
HA
tan
book.com
Kore@@
gastronom@@
natur@@
proce@@
aur@@
Petroleum
ede
gle
Vassil@@
Medic@@
uns
IE
Almunia
Papadopoulos
Sc@@
avan
Pear@@
erous
Leon
Ciurchea
Lehne
etres
Titanic
202
Dorobantu
CERN
Veronica
Coltescu
attle
Tina
lent
DGASPC
Bobby
sincer@@
superba
Alexe
INSCOP
Jurassic
Pink
EX@@
Kit@@
alg@@
Bangladesh
WW@@
Fame
siz@@
Feder@@
cosmet@@
Broad@@
Good@@
tre
sist@@
G17
ether
etu
FB
aint
icism
maar
ceded
Ferguson
Halle
Campbell
Brajshori
civil@@
fare@@
Chitila
Jaz@@
your@@
Alison
Vul@@
Jimmy
debit
oje
robot@@
Poz@@
alog@@
Employ@@
Trab@@
illes
Schwarz
upd@@
embr@@
Faso
Berry
achiev@@
iver
nez@@
Olivier
domino
judo
S6
Miley
Tour@@
demonstr@@
gs
awi
1946
Gina
idal
Phenian
Ecuador
Jobbik
dupl@@
Sabau
77@@
Hassan
Gratiela
EG@@
gage
05@@
Private
abstr@@
Tob@@
Dow
Brok
Lipa
Amend@@
Afric@@
Lesbos
.dr
rectific@@
ging@@
descend@@
Barem
arache
glic@@
Dumitriu
Marta
March@@
tiv@@
Il
MOL
mark@@
fin
Elek
Europe@@
Milea
bem
Jay
ingen@@
113
acti@@
victor
Vuc@@
1958
Mitic
inher@@
zon@@
letic
157
vest@@
sim@@
defin@@
demol@@
1905
Europ@@
Kus@@
Dolin@@
aval@@
OFM
pleas@@
adar
akia
Mom@@
Mercosur
Saturn
sculp@@
Tig@@
placement
Him@@
Monum@@
pertin@@
eline
adapt@@
iva
incarcer@@
oslov@@
hacker
Balotesti
M.@@
Coun@@
avia
coal@@
--@@
enic
expon@@
Priz@@
tox@@
UC@@
64@@
Inf@@
lament@@
uf@@
icia
Kob@@
utenant
Asachi
Allen
Istr@@
Romprest
Stankovic
Petkovic
Out@@
Citroen
idance
Tai@@
igea
tit@@
Sher@@
Bang@@
Neil
Gro@@
VV@@
Cristea
Beyonce
ilova
UG
tag@@
Stuart
oug@@
Planet
Selim@@
birth@@
Croati@@
dimen@@
Blag@@
conflic@@
abling
Vin@@
appoint@@
Anal@@
ystal
Kaufland
lahs
1954
Tsak@@
Goian
invit@@
turbul@@
UL@@
Unica.ro
V.@@
merge
Rum@@
Profes@@
Qaida
4x@@
Whitney
Michel@@
Grec@@
1957
aer@@
Samuel
Clo@@
Bio@@
Bey@@
inhib@@
invalu@@
rop
GA
Puric
milit@@
Soc@@
Rap@@
index@@
cin
cuta
FA
usanu
r.
admis@@
dosje
marc@@
143
hre@@
codific@@
Milovanovic
dified
Ruz@@
Isa@@
Tarom
Audit
instal@@
Bayer
Bojana
PIC
Pecanha
Milososki
Mirjana
pren@@
ption
Honduras
Jul@@
ordin@@
ISS
proclam@@
Ian
Visinescu
Varujan
epilep@@
atis@@
BCA
illo
Invest@@
Four
480
Bakoyannis
Obreja
FE@@
Gaz
ID@@
agu@@
tem@@
junc@@
odor@@
Romano
stak@@
osit
Hills
anx@@
HINA
Herman
lyn
confer@@
Bin@@
1952
CB@@
interest@@
ezer
icate
Eri@@
apo@@
ision
G7
depos@@
Kaczynski
anin
deepen@@
ango
po
18.00
Netoiu
Yord@@
Roy@@
tier
Terapie
Rot@@
Havana
gue
Vlado
lex
Nis
Bals
igu
Rep@@
Kop@@
ts@@
opia
Xavier
mail.co.uk
Hur@@
Test@@
Zsolt
athlet@@
uniform@@
golf
Muraru
ediatr@@
Contr@@
ogr@@
Poli
Harris
Paltin@@
Ahmad
Guc@@
Ale@@
emin@@
ANU
C6
thres@@
Pep
Silvio
SEAP
Dil@@
Niro
Lef@@
ahov@@
biz
fest
A4
selves
Cit@@
Tud@@
maz
Crudu
uce
Tav@@
Papua
anning
Miriuta
Sorina
icky
complicate
rels
VI@@
207
Lex
edo
bis@@
Ve@@
Distribution
bis
Mizil
Banc@@
ein
Gradin@@
Lawrence
polite
Salv@@
lob@@
SDSM
ale@@
Joachim
208
premat@@
Nelson
Sek@@
eur
jug@@
Detroit
Zor@@
billi@@
hib@@
Dean
itis
Balti
Mona
Melbourne
Zeljko
Span@@
patron
Belg@@
membr@@
fering
kok
analy@@
sik
icula
asses
claim@@
TVR1
Pascal
Onesti
BC@@
Mitsubishi
jum@@
F.
Cilic
Grey
respond@@
matr@@
t.@@
MIT
recep@@
Murat
Whit@@
Temp@@
Polirom
1933
Vive@@
exor@@
Columbia
Hun@@
lass
DGA
six@@
Brand@@
Thr@@
Dum@@
oslav
rie
1951
Lucaci
Kurt
Pere@@
mist@@
Robertson
Oancea
Abram@@
tim.ro
uth
Rosso
onal
firm@@
burs@@
omis@@
mu
-1
morg@@
Lil@@
OG
mirac@@
Kozlo@@
Molotov
ATE@@
urt
Muam@@
HTC
goo@@
neys
ental
alty
Vucic
Prislop
Cvetkovic
Dejan
Titu
Tw@@
stana
Martinez
Philadelphia
apor@@
itar
Tajani
Buenos
cure@@
Muntean
asph@@
Olten@@
1000
Io@@
cosm@@
glo@@
divor@@
Ronald
Pacur@@
geometr@@
kl@@
Benedict
eland
Hop@@
Giovanni
Ion@@
235
cle
Miguel
1927
igi
Rostov
alias
overty
bibl@@
Yem@@
Konjikusic
CH@@
Kabashi
Gran@@
Iurie
hir@@
laure@@
atiu
vious
TM@@
Ric@@
Celtic
Koh@@
infecti@@
INML
Lore@@
cin@@
Eremia
OO@@
Volunt@@
etry
Maniu
vana
instinc@@
Financiar
Bach@@
anie
suspen@@
Ias@@
iru
inica
idar
cant@@
Adomn@@
Waldner
Necul@@
Wang
combust@@
Novo
Coposu
Long
aceutical
flam@@
Cartel
Sig@@
Chereches
MX
Ero@@
Mungiu
Ferma
Haris
tore
sm
ido
Agan@@
Plov@@
lech@@
Sub@@
Deloitte
oub@@
Iniesta
transmit@@
traum@@
Rasnov
urel
Tou@@
aum
retro@@
Jeb
1.
Fall@@
Alain
eping
timet@@
1937
usic
Grap@@
Camb@@
Pique
Ray
Hilton
Donbas
RATP
isions
altru@@
ceremon@@
Steliano
Do
comb@@
Vf@@
won@@
Ta@@
gang@@
09.00
Perianu
strong@@
elim@@
compatri@@
dello
Stolojan
Coti@@
LS
22.30
asser
recal@@
Gorg@@
Merc@@
oney
Abdul@@
Direc@@
iel
iko
pragm@@
Aron
Schauble
igno@@
reun@@
Inna
iar
GDF
oper@@
Lug@@
usz
saga
plur@@
Kennedy
Muhamet
ga@@
rad
Stand@@
Ciorbea
Beach
Hanescu
itas
AGA
Benc@@
spatial
tang@@
dilig@@
Stoke
Oncolog@@
Von@@
Piersic
Dragusanu
Goldstone
osan@@
Tiraspol
Jazeera
atia
subscri@@
Or
bs
Inc
298
unve@@
Serban@@
Events
cent@@
Odeon
Buh@@
LIBE
Dick
BAC
Gord@@
liter@@
Cro@@
Parasch@@
carri@@
IPA
conserv@@
IB@@
Ergen@@
Wh
Roc@@
iotis
Phil
Huffington
andu
accumul@@
Harrison
henkova
parliament@@
retrosp@@
Collins
Eco
deplor@@
Cis@@
Constant@@
š@@
Fratila
parter
techn@@
ss@@
buz@@
Kemal
ineanu
Toulouse
forehand
Turcan
decor@@
Zlatan
machin@@
Pepe
phys@@
Ode@@
gur
energ@@
lim
DM
merc@@
ajelu
MR
ikov
egr@@
Bamako
prelu@@
Psi@@
vigil@@
aln@@
168
Djelic
Emil@@
IGPR
Soci@@
Dhabi
Za@@
191
Turcanu
hoi
Cepelova
Bale
rests
Barbara
phas@@
Beligan
question@@
Mistral
Flutur
325
Erste
lau
conspir@@
Wall@@
Sampdoria
Rev@@
Olympiakos
unequivoc@@
house@@
Commun@@
utely
Rubin
ampi@@
discred@@
Ardelean
Hama
Topi
fisher@@
inas
Lausanne
humane
agon@@
Silaj@@
Panama
elia
Bawab
152
Frans
37,@@
corpor@@
Polaris
apol@@
SRS
celebr@@
e.com
iji
Hugo
Clark
Ziv@@
investig@@
Not@@
enia
gog@@
iei
1914
1244
sie
Grig@@
134
Campania
Confederal
Ionesie
Cecilia
Generale
Angola
Mirko
Bj@@
225
protagon@@
Sanzi@@
Prom@@
falsific@@
183
tled
Alberto
lib@@
Alaska
hai
Bundestag
Bajram
ei.ro
Adnan
peni
Market@@
decentr@@
confeder@@
inska
abst@@
Nae
Aires
nepot@@
igo
reloc@@
individu@@
usan
presum@@
141
ilina
ric
ITM
Parisien
hips
molec@@
resh
draf@@
Johann
Daimler
country@@
Pena
Belu
Oc@@
acqu@@
Buzek
team@@
Cuc@@
illu@@
gent@@
unaru
ses@@
clarific@@
inactive
ont
Nikos
foreig@@
atom
oz
Ghica
Multescu
Carson
cruci@@
extingu@@
Dolha
Izmir
atlantic
elan
Eurot@@
Jab@@
911
BO@@
Silicon
icio
oup
Kall@@
exces@@
termin@@
Walker
1920
multicultur@@
Barbutov
Fred@@
Alonso
tari
Beq@@
Peers
Rutiere
Stanc@@
ply
osn@@
cond@@
Brammertz
Istrate
bean
ate@@
Balint
Sandoi
Lelia
Ludogoret
Moti
Sud@@
Zoubir
Stancioiu
stagn@@
transparen@@
Leverkusen
PO
Bry@@
rap
multicul@@
an.ro
candid@@
IL@@
fall@@
program@@
Ruse
Margaret
Chr@@
DO@@
och
Markus
extraordin@@
UM@@
Hob@@
Maries
Agim
Chip@@
constitution@@
unge
Iorgulescu
inflex@@
solem@@
gas@@
uting
Gold@@
elt
Mayer
Luisa
Barz@@
emor@@
Note
nap@@
Chirita
Dogan
Managing
bun@@
Ramad@@
Tihic
Malmo
cultivate
Ferrero
Ohio
yl
amor@@
aspor
estr@@
MH370
Pass@@
profit@@
Patrascu
Abdul
TRA
oprea
aven@@
Belene
stim@@
Enter@@
how@@
Schaeuble
ercul@@
icescu
edr@@
CM@@
gorj@@
trepre@@
eum
ume
Fun@@
prerequis@@
aug@@
EN
eze
Helmut
unis@@
Ionela
mic
Cla@@
Even@@
Miros@@
coincide
cy
AE
B.
Grab@@
vency
Besiktas
oom
Egyp@@
Cornea
Hul@@
oblig@@
farm@@
Curt@@
culescu
Cle@@
oci
antic
Det@@
schi
MA
Natura
demo@@
Civ@@
timid
idu
AXN
jud@@
tim
profil@@
atch
sinszky
adverti@@
Irak@@
etti
Tok@@
Meri@@
Nul@@
Llo@@
Prof@@
odi@@
spre@@
Helmuth
ugiu
Gazzetta
Andone
Rica
uci
microc@@
Venezu@@
Stojanovska
Capat@@
MedLife
youtube
Santos
Sumud@@
Pal
Moisiu
arina
ona@@
Band@@
Lynn
Andor
Kras@@
view@@
success@@
insurg@@
inite
frag@@
lick
harvest@@
Dobrog@@
hat@@
Dorian
romani@@
hydro@@
hypo@@
Marasesti
Strehaia
MMA
isan
endi@@
phenomen@@
found@@
Hadzic
Mateiu
ident
Mi
sco@@
Caram@@
iulescu
duba
Hahn
deb@@
wski
Cez@@
ody
Kle@@
Jos
scrutin@@
avu
Blaj
Nu
tripl@@
eller
laun@@
S.
mail@@
ruption
87@@
ciuk
Economica.net
Labus
Mititelu
440
resp@@
uc
Sirian
ierra
Staicu
evi
reaffirm@@
Wenger
div
duc@@
Gener@@
Traf@@
tu
Arsinel
Beng@@
Frat@@
Orhei
Sore@@
Guillermo
South@@
suf
icki
Bigiu
old@@
rison
yland
insi@@
Fortus
2.5@@
polem@@
Belfast
Borza
Andi
oti
NIS
Vica
Lara
LT@@
Ast@@
ling@@
LGBT
asia
FP@@
Autonom@@
tees
Burgas
AK
Jersey
PL@@
abdomen
Koln
Riga
quest@@
Iov@@
revoluti@@
attac@@
Titus
Lux@@
demos
ior
chr@@
Joel
yna
eder
ECO@@
177
Allianz
Elon
Mr@@
erv@@
Bottas
nastics
AKI
pu
Florina
hit@@
Ora
Anastasia
Capr@@
CAR@@
arom@@
Plam@@
Cotonou
Simsek
Griv@@
Institu@@
Viva
uca
ig
Ethiop@@
astero@@
ä@@
cow
Surdu
Taylor
IF
Visegrad
CSA
Swoboda
Arde@@
dzic
Krasniqi
ulung
o.ro
unta
Jules
Alexei
Schwarz@@
Just@@
Next
Ciuc@@
Palic
onate
atar
evid@@
anesti
Maricuta
Abdel
Ramos
eigh@@
suscepti@@
slu@@
Boloni
ady
Tot@@
Mazilu
Gino
navig@@
Soros
PU@@
yst@@
astic
cut@@
beh@@
139
Susan
Commit@@
.fr
bly
Mac
humili@@
BP@@
Observ@@
ois
à
Fot@@
Marino
exasper@@
Marovic
Spe@@
enh@@
Mineriada
sanc@@
oke
obe@@
bes
ile@@
Pub
UB
Harv@@
ghi
agram
Hasdeu
Vasvari
tril@@
sentiment
acron@@
uman
yram@@
Cyr@@
Calug@@
invalid@@
yo
pex
Groza
ype
Arizona
waln@@
Siemens
alie
Euseb@@
Conf@@
ki@@
Sit@@
Koz@@
Aleksandr
Savarsin
Uzbek@@
Ancelotti
Füle
usca
eras
Adolf
Guil@@
Cosoi
Lung@@
Lexus
Ellie
DeGale
NU@@
Bistr@@
Paraguay
Vers@@
rr@@
119
Simpson
Cornet
Karab@@
nova
Play
Mubarak
sust@@
zinc
Roth
Hilal
verdic@@
Impex
188
nel
blonda
esco
CT
rude
Pof@@
cheap@@
HSBC
29,@@
oper
Vla@@
esca
6s
UKIP
Bib@@
Kyl@@
quot@@
rov
Stepanescu
Necula
Zaharescu
arita
afa
dianul
Bendeac
tz
week@@
olo
Relig@@
CEZ
teri
prote@@
blan@@
VII
worn
iuc
drav@@
Delhi
cob@@
Parker
Abbas
Corlatean
enica
omen@@
Schro@@
Salini
pere@@
Uran@@
dis
Damon
Demetr@@
duhov@@
bered
rati@@
cariu
Sauber
Mirza
Larry
telec@@
Drian
R.Moldova
460
LE
cus@@
Eag@@
craft
abet
Luke
insky
carn@@
ceram@@
Kalas@@
anot@@
ott
superb
lawed
ussi
Sabin
Cup@@
eman
eza
Samo@@
acel@@
IML
Meridionali
Miron@@
Kalin@@
Cioran
CEFTA
Zeg@@
Bloc@@
Vader
Socola
Navodari
ject
Dij@@
hina
bord@@
ycle
Rebreanu
dice
Thal@@
atl@@
TR
Ox@@
har
167
Termin@@
gym@@
bbc@@
deterg@@
fici@@
aos
Jankovici
riil
Shenzhen
Jav@@
fos@@
Vidal
PR@@
iera
izi
uli
isy
31.@@
accident@@
Sigmar
iOS
Elton
Tatu
UPU
Chiriac
stem@@
trigg@@
Deleg@@
J.
Conc@@
igan
agu
Angelo
Valbuena
Alexandr@@
festiv@@
dela
T3
aceut@@
Vac@@
promo
Sanders
dispar@@
LD@@
Fetesti
Ferre@@
Panc@@
dorm@@
rescu@@
virg@@
Hid@@
Ark@@
Damb@@
McL@@
GER@@
Rub@@
Resp@@
accidental
ayne
Get@@
Camelia
lej@@
secular@@
iul
1912
Roh@@
reversible
prosp@@
lou@@
Nicolita
blood@@
Startup@@
Brez@@
admir@@
Refug@@
Vari@@
song@@
Lucic
Laj@@
Dominic
Premi@@
flex@@
Rest@@
tr
Vest@@
sova
fic
Izvor@@
FI
Russell
Soph@@
dir@@
Mediu
bos@@
Ismail
usage
Patriciu
Mozart
Greenpeace
harsh@@
Industr@@
ilateral
Labor@@
Billa
Pog@@
verti@@
oza
kur@@
hier@@
environ@@
520
weap@@
ice@@
erica
Ludogorets
uset@@
tandem
estors
Fide@@
dialog@@
AI
Munte
ş@@
hang@@
206
fiert
Cov@@
ince
Out
Publ@@
Nop@@
igiu
Radisson
itator
Stanculea
Napole@@
remed@@
adona
Concuren@@
Kac@@
osity
Iasiul
Osman@@
bum
auz@@
toria
Cen@@
JR
-3
ciolos
ires
174
anck
tion@@
min
monstr@@
430
econom@@
Haz@@
Telea
uly
Galile@@
moc@@
Gut@@
BB@@
Picasso
uper@@
Const@@
adver@@
spea@@
Alecsandri
Maps
FOTO@@
Mou@@
Mach@@
WC
itiner@@
nostalg@@
intensific@@
lins
nom@@
sacrific@@
Cum@@
omen
lid@@
Stel@@
inson
Pay
intu
ochi
Dac@@
Jeff@@
Katerina
gust@@
CA@@
154
odor
useni
Grebla
mania
Economica.@@
stop@@
184
biscu@@
Paulo
dram@@
reput@@
cocktail
Hoo@@
Vuj@@
Rita
ceil@@
patriar@@
disp@@
Jane
inteza
publish@@
Ajun
Wis@@
Stiripesurse.ro
anel
virtu@@
approv@@
Alp@@
elu
arc@@
dur@@
Pasca
IAAF
Adri@@
dang@@
158
Orb@@
uni
finger@@
eral
eared
bilete.ro
....@@
Automobile
apt@@
Aud@@
inian
Groz@@
ovolta@@
Merg@@
strang@@
ode
len@@
iuta
Aurelian
mess@@
Grah@@
Psih@@
pill@@
ini@@
Goga
athl@@
icani
imar
emit@@
assum@@
bander@@
Final
itiu
sensitiv@@
raph@@
Jon@@
stigm@@
lar@@
Necola@@
iac
Nicolicea
asiu
gie
jer
examin@@
colab@@
osanu
Romain
Chry@@
seg@@
Tolea
ailles
Nikolai
Verg@@
yle
Mati@@
nor@@
IAR
smar@@
arov
vibr@@
uary
favour@@
cani
ista
correspond@@
siv@@
Gag@@
ICI
entit@@
gran@@
ul.info
sych@@
Massach@@
Hem@@
brig@@
Nexus
driv@@
Dragh@@
legion@@
GSP@@
shoul@@
Key@@
asig
circumst@@
orel
Balk@@
necess@@
mission@@
Voc@@
Welt
eld
Associ@@
emis@@
crush@@
Fish@@
aliz@@
ashing
adolesc@@
Jana
ron@@
Varst@@
OM@@
estim@@
DD
stai
CITE@@
eor@@
entina
blat@@
Financ@@
ame@@
kid@@
Cardi@@
LO@@
ketball
Raicu
submar@@
acon@@
broc@@
Ferr@@
republican
Oh@@
inadmis@@
atsApp
etings
gul@@
curse
jko
Sunderland
a.com
Neur@@
0,@@
news.ro
term@@
propag@@
Milos@@
Culte
isha
TH@@
alp@@
cauti@@
Deut@@
Arg@@
itan@@
pessim@@
vention
campa@@
egel
ajic
itan
redund@@
nos
meteor@@
hoteli@@
Zamfirescu
gem@@
Gov@@
.eu
Gru@@
pix@@
mila
Mitz@@
Program@@
Tran@@
ert@@
Arges
Ecat@@
sect@@
187
pea@@
referendum@@
stip@@
pol
ISE
ican
Marquez
affor@@
erate
ssel@@
osu
ob
giv@@
UL
sured
Hog@@
UPD@@
Dodon
Conserv@@
shop@@
indus
mig@@
Vatra
Flori
referen@@
02.@@
iano
seiz@@
Braj@@
led@@
ville
Atl@@
rera
Sap@@
bud@@
Dub@@
oid
emn@@
Paraschiv
89@@
ecti@@
distingu@@
rug@@
acr@@
orient@@
Viol@@
gsp.ro
atur@@
ib
method@@
ritu@@
Sursa
hoods
Meadows
dens
Zal@@
Berbec@@
Jurca
Lunca
Montenegr@@
Cau@@
icle
antic@@
disgu@@
oration
pic
ods
prolong@@
capit@@
odo@@
SPA
scept@@
Deb@@
anska
reck@@
Prosecut@@
opport@@
fina
Author@@
ault
main@@
Bercea
absorb@@
tol@@
motive
nit@@
uren@@
It@@
anina
Abraham
borg
rehabil@@
Andreei
Ad
Tabac@@
mile
pasta
Aston
repet@@
calm@@
delim@@
avant
Solutions
Lot@@
Gus@@
m.@@
Serb@@
ologic
sus@@
stra
blind@@
brasov@@
eag@@
tog@@
Formula
sler
exped@@
introduc@@
emat@@
Gat@@
comit@@
Campeanu
pare@@
cing
princip@@
ron
Ala@@
repre@@
andez
sz@@
ief
inquir@@
fruit@@
Brig@@
agan
Romani
gov@@
incon@@
Consult@@
Opr@@
67@@
elabor@@
cas
infin@@
revoc@@
surpl@@
catel
hora
ems
fan@@
pez
aha
ste
elift
enig@@
pati@@
21.45
Mini
alloc@@
Ghimp@@
fu
76@@
imo
templ@@
sting
djan
dele
aught
digestive
countr@@
azy
28@@
isely
Codr@@
Arnold
stru
blat
approxim@@
Um@@
Must@@
icel
Ló@@
prises
rasp@@
StartupCafe
dil
obses@@
tat
Moh@@
brad@@
tina
fon@@
Ik@@
ager@@
aug
Cot@@
ampl@@
cus
PRE@@
skel@@
Eli@@
Prefect@@
sir
cler@@
Zvon@@
invest@@
apowill
21.30
lip@@
ict
clandest@@
spag@@
omb@@
iper
cher@@
SIM
one@@
uel
anci
pri
tedly
muf@@
TT
adjust@@
Bei@@
juni@@
Vec@@
Tianjin
catastroph@@
tire
alu@@
Congres@@
handicap
desi@@
apie
DIN
SAR
Spir@@
Nicul@@
cen
enous
trop@@
onica
Michelle
manus@@
ple@@
control@@
Pier@@
erson
An
rene
inging
PF
pres
loy@@
agiu
entive
Afr@@
kinson
Mill@@
gust
Ekaterina
Under
rence
open@@
aren
concept@@
V.
Vars@@
ecuti@@
bene@@
Run@@
bob@@
gul
adows
organiz@@
dam@@
cav@@
zy
Pietr@@
Zol@@
Antonina
fasc@@
Padur@@
Flavius
ERIE
protector
Nob@@
Prun@@
anz
sula
epidemi@@
Princip@@
nei@@
bureaucr@@
argu@@
SU@@
Ono@@
ried
major@@
dole@@
alin
psychiatr@@
sar
satis@@
mon
valu@@
profession@@
sil
captur@@
elihood
Tih@@
Da
Nedelcearu
upr@@
cocos
USB
oughts
9.00
aret
izons
Cold@@
Legisl@@
Eug@@
coleg@@
ernat
angel@@
vez
kn@@
ership
retur@@
164
oj
Aug@@
EURO@@
atti
oca
Dresda
Adr@@
Pom@@
enescu
depart@@
Templ@@
naiv@@
usu@@
esis
Fabio
ichi
haine
indul@@
longev@@
implicit
Mess@@
informative
Adascal@@
lag
Topol@@
dana
Ibrahim@@
Dari@@
Aless@@
Zim@@
dal@@
sange
safegu@@
Haven
impul@@
ext
FO
rente
Malm@@
dine
Senior
hion
ien@@
ase@@
aris
ativ@@
murde@@
there@@
pap@@
oski
Tere@@
rella
Botez@@
angu@@
bust@@
Disc@@
discre@@
urban@@
Buj@@
diu
Cerc@@
iciu
invent@@
recl@@
azu
oianu
Bilbao
dem
infern@@
ias@@
Tibet@@
Care
nan@@
Villarreal
Gom@@
kilom@@
kit@@
FIC@@
ensive
Bergodi
sian
ieri
envision@@
SN
ultr@@
tun
ures@@
Europeana
salv@@
stel@@
eneg@@
UM
fel@@
Dincu
marty@@
Ro
inka
exist@@
Warner
castr@@
SAT@@
macro@@
quant@@
DA@@
Germanos
astre
tau
petr@@
morale
handic@@
.RO
dro@@
asescu
mini@@
amn@@
realist@@
33.@@
distur@@
Polit@@
are.ro
cap
ifer@@
ector@@
opol
SAS
Cru@@
que@@
Stefanescu
sa@@
EF
Herc@@
20.30
amant
prov@@
Aren@@
thers
Brandan
atically
Anonymous
rach@@
uck@@
CPI
fraud@@
icea
see@@
eo
Ind@@
irc
Cordoba
arie
itious
Zenga
get@@
27,@@
Municip@@
pad@@
205
depend@@
eme
10,@@
video@@
NE
nutrition@@
parall@@
ware
RAT@@
torn@@
text@@
isco
Image
consul@@
areanu
Chin@@
uters
fam@@
check@@
Fet@@
afi
Regina
tisti
auti
Vat@@
XVI
bare@@
Alf@@
aughter
ll
offline
spot@@
sov
conferen@@
onda
Wahhab@@
relax@@
arta
nel@@
Ign@@
paraly@@
oman
orin
feren@@
uze
epil@@
oding
emir
sche
Nap@@
Seg@@
IK@@
absur@@
tas@@
sored
decreas@@
Gaal
grow@@
nis@@
Claudi@@
microph@@
orate
tiv
.....
gil@@
Belar@@
core@@
ő@@
teana
Hab@@
tent@@
ix@@
Alber@@
Bret@@
ecr@@
miracul@@
tac@@
afat
ese@@
arag@@
Mec@@
VIII
event@@
ASE@@
Lyn@@
furn@@
Organiz@@
asco
Vass@@
nost@@
aul
spontan@@
bast@@
Port@@
Nedelcu
Fas@@
Boris@@
fore@@
CRE@@
entially
compatr@@
Investig@@
paras@@
Contin@@
Trat@@
Lorenzo
pus
Axente
chi@@
Goo@@
Nichol@@
cron@@
zici
ece
ebr@@
MO@@
utter@@
tene
Rabla
ophy
44@@
small@@
forestation
enda
oa
satur@@
principl@@
ud
iang
Xia@@
Brancov@@
undering
flot@@
fai@@
pistol
diox@@
ention@@
ripesurse.ro
funer@@
Hrist@@
shi@@
barg@@
Arab@@
rade
BO
tv@@
Bieber
oped@@
adequ@@
turing
hia
defect
Adam@@
Econom@@
OPEC
blo@@
enger
kidnap@@
captiv@@
scri@@
dor
AFA@@
POSDRU
bombard@@
Yo@@
interc@@
incep@@
Roch@@
paramed@@
ysics
aldo
i.ro
igh
Maxim@@
Core@@
tica
Tirgu
SD@@
Abdel@@
abrup@@
lad
inch
arez
itati
Volk@@
giul@@
Dres@@
Scot@@
inexplic@@
rugby
ention
soc@@
aia
const@@
Trencin
Moga
ş
sf@@
wheel@@
hen
stelist
BH
Diplom@@
Vre@@
Gaesti
equival@@
hr@@
Marcel@@
ext@@
Corporate
Jeff
uld
puzz@@
famili@@
abia
ications
ulp@@
oas@@
á
guerr@@
neam@@
Ittihad
TR@@
da@@
20.00
chim@@
convo@@
overing
capota
abo@@
Part@@
Bordeaux
icol@@
score@@
oha
volcan@@
prefect@@
Ador@@
trust@@
ustur@@
apr@@
applau@@
ylan
Paul@@
aily@@
asion
immun@@
contex@@
supr@@
Hou@@
sponsor@@
strain@@
Anatol@@
urse.ro
NI@@
tac
curs@@
kina
omag@@
put@@
Eforie
math
torate
arad@@
empl@@
Amalia
woo@@
Puiu
stipul@@
market@@
lobb@@
victim@@
pres.ro
Terr@@
tian
Cred@@
egal
unj@@
appl@@
Ten@@
urb@@
Transelectrica
UT
José
Saget@@
par
asz
refr@@
Ibr@@
kia
Rock@@
Yor@@
inver@@
2.7@@
seism@@
ux@@
cs
č
schol@@
dilem@@
forec@@
acan
Eagles
plant@@
iculescu
uros
andro
Rieu
iday
OR@@
italised
atom@@
ifer
pus@@
roch@@
inel
obl@@
ustr@@
val
cio@@
usal
Dut@@
Southampton
validate
ador@@
magne@@
asov
ussia
consen@@
Si
Nep@@
keri
dou@@
ahn
differen@@
iun@@
IU
Fay@@
altern@@
mountain@@
4.5@@
NR
antim@@
Dez@@
eleg@@
nu
erial
Muz@@
perpetu@@
oit
vir@@
MT
ermo
dated
quir@@
Sat@@
Popular
Elizab@@
Manu@@
ween
voy
tives
afax.ro
proclaim@@
fru@@
congres@@
emit
bia
sez
Inst@@
transmit
ax.ro
icuta
thre@@
sever@@
Carm@@
oara
Abdes@@
expan@@
fitness
itim
Univ@@
RU
cou@@
concili@@
liance
bal
yu@@
umez@@
controversi@@
lac
bey@@
aure@@
usur@@
microb@@
rat
Nico
Bö@@
Dani@@
aina
journ@@
mans
ohi@@
tren@@
tru@@
collap@@
pharm@@
Jessica
Bart@@
bail@@
excell@@
Educ@@
Auc@@
juris@@
Laf@@
vas
aho@@
ã@@
unat
PAR@@
excel@@
aska
neigh@@
preh@@
eci
ingo
Sloven@@
orata
Bond@@
olv@@
vec@@
reless
omo@@
Clas@@
urship
counterfe@@
fir@@
automobile
electric@@
Metal@@
ambers
blin
orn@@
Fog@@
persev@@
adren@@
solid@@
societ@@
jurisdic@@
tere@@
busin@@
PUZ
descri@@
CAN@@
MEDI@@
jeopar@@
Marit@@
OOOOOOOO@@
disproportion@@
Vide@@
tele
°
ghi@@
Alec@@
yen
Bost@@
sham@@
CR
iul@@
Tunis@@
Activ@@
judici@@
friend@@
Karad@@
permis@@
phy@@
ATI
actic
opor@@
ström
illi@@
axy
matur@@
18.30
vulner@@
detr@@
aus
mast@@
Vill@@
instrument@@
itely
Info
popular@@
Dhy@@
gand@@
lead@@
orb@@
hem@@
vouch@@
Multi
triv@@
symptom@@
orita
i.@@
ner@@
Balot@@
borro@@
ethnic@@
aste@@
scor@@
conting@@
piv@@
izon
ived
acknowled@@
Opris@@
teach@@
demis@@
inec@@
rov@@
een
commit@@
Guantanamo
amput@@
.com@@
evident@@
osur
nez
restric@@
icide
unde@@
exempl@@
mam
numer@@
igns
tick@@
enum@@
Lanc@@
Hawking
orescu
Rox@@
anian
ICO@@
ample
Uni@@
arrang@@
diei
mani
ando
rat@@
iders
Schal@@
solv@@
ohannis
devast@@
akos
Bav@@
inte@@
suti@@
inferior
gad@@
Wah@@
Garb@@
coo@@
Romgaz
SCOP
dead@@
cies
este
Alt@@
ovine
Doc@@
Tut@@
infr@@
experiment@@
rell
ipl@@
Clar@@
clea@@
Nist@@
stro@@
entara
Presid@@
plut@@
Muham@@
Ios@@
r.@@
tacit
statist@@
osof@@
inds
kilogram
mechan@@
ror
spokes@@
aces
Cs@@
alese
trad@@
lem
ampton
ynamic
Kovac@@
sad@@
FN
tint@@
Baile
zica
tained
metic
Aw@@
iden
monum@@
corp@@
thful
Ma
hou
Ciur@@
tt@@
tific@@
aza
cultur@@
etion
PE
ellation
guide@@
postp@@
mem@@
itia
mim@@
Gent
hair@@
erships
azil@@
ens@@
alb@@
acea
gen
rase
arasi
uno
fiz@@
aari
substitu@@
itudes
haul
Bill@@
comprehen@@
shir@@
Titan
ń@@
ims
optimist
Jef@@
Game
reaction@@
casting
mari
ussel@@
nutr@@
stric@@
presi@@
MIN@@
Lon@@
iol
devot@@
Pieptea
Aleksand@@
burg@@
rand@@
Stu@@
t.ro
CANCAN@@
vulescu
indiv@@
akens
propos@@
sh
ère
indr@@
eM@@
vap@@
icated
ement@@
visory
imon
ul.@@
incet@@
anal
feed@@
Bun@@
iros@@
ox
grindina
Kard@@
diagnos@@
eces
blon@@
ONJN
Azerbai@@
perio@@
Mos
lun@@
ê@@
B.@@
Eurosport
opolit@@
ook
oncolog@@
recycl@@
lot@@
egas
instant
Tex@@
eover
bilet@@
arde
utt@@
bankrupt@@
Cea@@
If@@
eurs
lop
hobby
purch@@
parch@@
plic@@
iel@@
estyle
fronti@@
frat@@
gras@@
Italia
n.red@@
telev@@
Bust@@
ç@@
asc@@
Dubr@@
battal@@
gaf@@
zis
curba
vu
consol@@
Huf@@
Minist@@
Appe@@
ł@@
denigr@@
incub@@
diagnostic
Sus
eks
settl@@
Teatr@@
amet@@
vat@@
bu
Oper@@
boc@@
Lavinia
Saman@@
VB
unk
17.00
regim@@
án@@
ancement
buil@@
aida
edon@@
Crai@@
tara
xit
BI@@
arsen@@
myst@@
Miha@@
Viorica
Nab@@
inary
conve@@
hob@@
pack@@
Dort@@
Intel@@
Que@@
34@@
Farm@@
icious
ivers@@
ped@@
alta
Busin@@
sures
Ori@@
1500
iment@@
vel@@
tup@@
miine
airo
inge
ian@@
Lithu@@
inding
ames
GH@@
turist
istics
corner@@
2.4@@
haia
word@@
crit@@
ghel
enant
happ@@
cur
confiscate
trum@@
remark@@
atroc@@
orgol@@
Elisab@@
retrogr@@
asn
Verde
rech@@
ser
2.3@@
Gem@@
astra
nei
aux
Spea@@
inhab@@
abon@@
UU@@
refl@@
esel
Marcus
arma
ematic
reng@@
autob@@
herme
Zeng@@
chen
cinemat@@
emed
ptions
torney
ATA
start@@
icat
unat@@
timis@@
2.9@@
retic@@
arro
CM
ucan
mina
compan@@
Gaudeamus
Samp@@
Pest@@
Fier
indefin@@
adean
research@@
cartel@@
Cz@@
ishi
Ramn@@
Dmit@@
contin@@
ilibr@@
adap@@
urias
isi
shou@@
grind@@
anted
Mund@@
Mov@@
Micha@@
plast@@
dum
GE@@
praz@@
priz@@
plen@@
expos@@
Fin
ightest
Bend@@
stead@@
Doy@@
scr@@
turn@@
absol@@
Pros@@
Rost@@
ACS
paste
sustain@@
Veter@@
Lop@@
Gherg@@
anc
resear@@
Bent@@
Lid@@
Alger@@
Tudorache
iliu
atol@@
Vene@@
substit@@
Nedel@@
Arti@@
multilater@@
cir@@
accentu@@
Smar@@
Hir@@
cep@@
zak
tavan
Cvet@@
sau
Pag@@
elis
ı@@
Proc@@
Fag@@
tig@@
ouri
udi@@
oted
TU@@
King@@
Dro@@
LOR
fail@@
Anon@@
Marm@@
Cher@@
Mous@@
Nen@@
supra
Garcia
Buf@@
ansk
Liter@@
card@@
eton
Manch@@
affili@@
ilic@@
inar
Urs@@
verb@@
abdom@@
anei
agog@@
inaugur@@
exh@@
trag@@
mourn@@
remor@@
addy
Ach@@
convers@@
rail@@
laud@@
amo
----@@
fon
Pakist@@
Matth@@
Nation@@
sched@@
Week@@
bas
KeysFin
erner
Schwe@@
celor@@
Occ@@
German@@
dial@@
High@@
seng@@
Cub@@
stuffs
consult@@
Bundes@@
Syr@@
Aer@@
para
buz
CER@@
Misc@@
Cioc@@
sef
Int@@
asu
arn@@
enting
sap@@
atist@@
aeron@@
fis@@
adare
irea
aie
factor@@
iv
edia
amon@@
GT
ñ@@
bic
etern@@
Ziua
rud@@
imul
ival@@
pent@@
chim
gig@@
ampa
eph@@
bik
15,@@
ato@@
Mladen@@
Agricole
fice
onest
Rosia
superst@@
audi@@
Ama@@
model@@
Tin@@
Gig@@
democr@@
cross@@
cren@@
inund@@
Slobod@@
cos@@
manded
structur@@
Cahill
interv@@
ARE
colour@@
enshr@@
Judici@@
minc@@
è@@
Kau@@
00.@@
erile
zon
tured
prap@@
rhet@@
ï@@
Barn@@
Fras@@
ole@@
bom@@
Harg@@
detail@@
Sarb@@
sag@@
ihil@@
Siem@@
fair@@
icioiu
onim
Buk@@
mean@@
Anast@@
oric
digi@@
live@@
agra
eder@@
Bla@@
bours
defer@@
limit@@
ibu@@
atmos@@
P.
Dumbr@@
mir@@
Olym@@
istru
sine
fov@@
ient
etre
Jude@@
â@@
arul
essing
fec@@
Pho@@
preserv@@
ellite
accord@@
........@@
urse
arbit@@
rema@@
Ţ@@
Casa
Carp@@
Asi@@
Mass@@
Sau@@
Engine@@
Crud@@
manuel
tram@@
grati@@
irul
ld@@
istor@@
aescu
DR@@
Mult@@
amin@@
drea
racks
Bure@@
bec
independ@@
illing
indol@@
Azer@@
omot@@
oul
atel@@
carte
son@@
capital@@
Srp@@
it.ro
erine
eschi
bilater@@
exclusiv@@
roman@@
imer
Arta
c.
mamica
CAS
insolv@@
resti
acquis@@
insur@@
present@@
API@@
comprehensible
Urban@@
mote
Inde@@
Iuliu
parta
ture@@
ball@@
Emin@@
elector@@
ilor
Karol@@
CSAT
zka
explor@@
Wozni@@
21.00
ulos
KO
urse@@
lyn@@
reme
apid@@
algorit@@
tul@@
ket@@
jen@@
chequ@@
arei
Open@@
andi@@
porno@@
Suver@@
otb@@
zar@@
udic
brie
bros@@
mes@@
enorm@@
entional
fris@@
Cim@@
dest@@
justific@@
EA@@
pas
enie
Rodr@@
nov
reprim@@
Ilin@@
Teod@@
manoeu@@
istry
zg@@
aine
tax@@
Dod@@
emot@@
brun@@
iori
Mois@@
onaire
AU@@
geopolit@@
Thess@@
idon
trait
auth@@
ellers
iak
ALA
ST
nip@@
Astr@@
disadvant@@
inse@@
Initi@@
ief@@
hine
tex
countered
kowski
Rafa
OP@@
catar@@
ader@@
spec@@
Apost@@
umin@@
nag@@
drome
arh@@
scription
ael
Cass@@
Domen@@
sour@@
icon@@
Tay@@
Pis@@
hail
ugu@@
S.@@
wrong@@
tanu
alth
bistrit@@
Fam@@
moastele
FOR
East@@
wil@@
Pov@@
Develop@@
applic@@
Ambul@@
roi
perm@@
Giurg@@
egi
astia
asar
Jason
hol
evacu@@
diola
Basar@@
ň@@
infect@@
ficient
technici@@
esh
fix@@
Elev@@
reanu
ė
arme
oviste
Desp@@
stadt
lii
Rid@@
CNA@@
croc@@
Stir@@
CF
eria
Histor@@
Day@@
great@@
Joc@@
ved@@
40@@
vie
13,@@
regular@@
transfer@@
urgie
Proper@@
dramatur@@
vert@@
did@@
Spec@@
enrol@@
ider@@
ilfov@@
bav@@
ulete
fier
ako
Rotaru
idges
aze
defen@@
favorite
VA
Math@@
inspect@@
Balc@@
wan
wis@@
dismiss@@
iat
Video
hie
recast@@
cel
eurosc@@
scen@@
gat
agen
ungi
fere@@
predominant
mach@@
conform
ğ@@
ories
dica
aux@@
frau@@
Duminica
effici@@
Renzi
aust@@
Andron@@
aluc@@
Bulg@@
Balt@@
fut@@
H.@@
baz@@
erb@@
ofer
hla@@
precip@@
remuner@@
lini
Libr@@
reunite
ired
surance
hain@@
Kem@@
asov@@
Motoc
Targ@@
fav@@
east@@
insistent
cia
tail
periodic
Foc@@
anest@@
pian@@
39,@@
inti
Simonei
app@@
pras
wanska
web@@
Hass@@
SW@@
permit@@
gab@@
Siv@@
prec@@
uties
moale
evita
Grigorie
urici
raf
incrimin@@
consequ@@
zid@@
bruneta
idge
fil
Paun@@
Proced@@
IM
toug@@
repatr@@
Lauren@@
tainment
incre@@
ograf
ogenic
Util@@
hobic
Compl@@
Poly@@
Exper@@
Rugina
ulty
cum
accept@@
undup
cov@@
rensic
iger
Sper@@
Carre@@
bla
ageous
AV@@
tha
high@@
presup@@
satisf@@
Conv@@
oam@@
brow@@
olu
ced
Fis@@
DNR
trom@@
eases
arely
Carta
amag@@
tenham
Zv@@
ami@@
pizza
berg@@
pist@@
aband@@
vely
Giul@@
atiz@@
ihad@@
Crven@@
isible
lang@@
scre@@
Nicolina
cons@@
tat@@
HS@@
statu@@
camer@@
prescrib@@
rani
Ghe@@
ipi@@
adel@@
aro
obr@@
associ@@
unfor@@
vei
imm@@
aresti
nat@@
Khar@@
Petrol@@
jer@@
odi
pig@@
asch@@
ø@@
rich@@
calam@@
sarm@@
ę@@
freez@@
Frank@@
inc
Hill@@
Autom@@
bine
warr@@
paren@@
pain@@
hul@@
serb@@
sortim@@
zice
incid@@
poison@@
prom
parti@@
indu
enship
scur@@
UP@@
lywood
Keys@@
odina
Mij@@
Philip@@
Paris@@
iara
odari
Comp@@
duh@@
mode@@
superfici@@
UNH@@
ML
zb@@
sema@@
appreci@@
rets
Zimbab@@
osex@@
rying
orded
amat
ProTV
edat
14,@@
physic@@
itism
Sej@@
hel
restructur@@
zo@@
00,000
Jad@@
dob@@
uti
stly
VIDE@@
brevi@@
afir@@
fr
scrib@@
stul
iber@@
peop@@
stal@@
DN
Parti@@
Cep@@
baro@@
Herz@@
oare
ripes@@
iasi
IR
uit
euroscept@@
idence
pest@@
mc
ioiu
lumin@@
nurs@@
Munten@@
Cris@@
Donet@@
unita
answ@@
uba
osport
ldwide
deploy@@
mith
ograp@@
25,@@
itaries
Schum@@
Moc@@
uia
etat@@
opar@@
rei
pragmat@@
aff
arianism
mobil@@
š
ayer
ulat
Plu@@
augh@@
Chann@@
quali@@
sians
stre
fir
orica
viral
Made@@
zal@@
Syl@@
Shenz@@
vor
ieni
surances
stap@@
parap@@
Τ@@
Sos@@
coc@@
Willi@@
ocul@@
anas
wea@@
bour@@
coh@@
Crimin@@
Olt@@
trol@@
Stojan@@
temper@@
Peri@@
aints
Conn@@
intercept@@
Schil@@
oulos
Lie@@
biometr@@
Sepp
Kes@@
plung@@
defici@@
tes@@
Sala
normative
segment@@
string@@
iot@@
tour@@
adre@@
perpet@@
sements
Magistr@@
Fir@@
fiers
anul
confis@@
Pent@@
ege
flag@@
Rober@@
tentative
suprem@@
disen@@
inean
incenti@@
Vad@@
dore@@
Irim@@
Fig@@
excur@@
Corp@@
gim@@
jun@@
You@@
europ@@
sas@@
tir
requis@@
pediatr@@
vot@@
yol
inate
inari
Stein@@
him@@
detect@@
Recon@@
gros@@
lement
sei
bris
RM@@
gres@@
uries
Gala
grab@@
avery
Trib@@
cerebral
alul
lom@@
Mate@@
aradeni
Sf@@
Pipera
acu@@
tech@@
ble@@
galax@@
Repub@@
hil
Stur@@
mili@@
ARA
Valenc@@
ecolog@@
sting@@
iew
amus
mez@@
Α@@
Ancel@@
1.5@@
will@@
yel@@
erit
nest@@
indign@@
Otel@@
gaz@@
Sahti@@
Baghd@@
upa
Spati@@
ahar
tub@@
egal@@
pari@@
dans
ymar
manif@@
quakes
Mog@@
gaz
IX
clear@@
ž@@
Bouch@@
launch@@
subst@@
erto
eci@@
sot@@
impr@@
rec
canal
diag@@
contamin@@
pastr@@
ield
lam
eventu@@
labor@@
aissance
BOR
XX@@
sly
bc@@
botez@@
accur@@
Comun@@
Stad@@
PRO@@
Simion@@
arata
enth@@
distribu@@
amat@@
Ara@@
tus@@
tiz@@
Ars@@
Surv@@
fund@@
Clu@@
ilic
shap@@
Innov@@
Glas@@
Obre@@
trase@@
succ@@
euve
Lt@@
Color@@
klore
poul@@
ulia
iere
lege
colum@@
Mire@@
tai
KM@@
tari@@
sk
dion@@
Cojoc@@
Stiin@@
Vik@@
oody
vania
pend@@
ovol@@
reporter@@
mathem@@
orrow
xim@@
asna
Zagre@@
bg
Arsenie
func@@
punc@@
m.
ASA
ince@@
dispos@@
Plum@@
inuta
oll
usch@@
patron@@
1.4@@
erful
gan@@
aty
cost@@
Nit@@
judg@@
Sergio
elimin@@
ricane
TVR@@
ń
adm@@
epava
guil@@
persecuti@@
sever
amar@@
Gan@@
chet
mund
10.2015
inton
arii
HO
Nicoleta
Jun@@
Cuvi@@
isti
Kyr@@
bat
loc
Seren@@
Tei@@
scour@@
acom@@
1.6@@
Att@@
Nus@@
Nel@@
ocat
Isp@@
Cruc@@
assist@@
tich@@
Jurnalul
deamus
kilogr@@
grat@@
Matthe@@
erape@@
Spi@@
aer
ino@@
sadd@@
tichete
count@@
hou@@
arela
advoc@@
Like
Dall@@
parag@@
DeG@@
Langu@@
predomin@@
Eus@@
param@@
Baghdadi
pregn@@
feminine
raz@@
prest
agul
Kab@@
fet@@
agen@@
tit
aica
inia
ó
autonom@@
Apr@@
zel
Isl@@
aful
teleph@@
ml
Past@@
•
askovic
itants
indi@@
witz
Instrum@@
usin@@
onor@@
aje
Teleg@@
ombud@@
Oce@@
lingu@@
tiu
anha
Haw@@
cale
ps@@
umn
Rusi@@
acul@@
Hrebenciuc
Schau@@
Premier
CN
belong@@
impot@@
annes
incal@@
simil@@
idele
copy@@
................@@
racol@@
asta
defam@@
Djo@@
edings
esel@@
cistig@@
fete
hor
zil@@
certain@@
teles@@
trim@@
Guin@@
esi
sens
ific@@
invol@@
oles@@
tam@@
uster
Luca
sani
stri@@
tte
onian
cam@@
Banca
pronounc@@
pron@@
spect@@
MAG
coast@@
indo@@
divul@@
Chair@@
further@@
Inc@@
Iac@@
reda
Sud
gol
ende
.uk
TASS
vai
huf@@
opolitana
USA@@
icies
oare@@
COP@@
Vint@@
Fioren@@
conten@@
propul@@
decisiv@@
aten
Referen@@
cic@@
hospit@@
appli@@
gow
osov@@
Osl@@
pai@@
oane
Pennet@@
ghe@@
tif
bever@@
bek@@
sequ@@
coala
Alban@@
Carol@@
Cabin@@
lus@@
requ@@
rozen
march@@
chin@@
treas@@
rata
annivers@@
inca
bishopric
mang@@
boiu
yed
bol
ett
Winter@@
stant@@
pc@@
Fuk@@
irom
TY
.co@@
brilli@@
avans
raine
Philipp@@
sang@@
ovia
Ian@@
arda
idem
Energ@@
evici
uge
deleg@@
unu
Tha@@
petrol@@
inea
orex
oved
beek
acra
capr@@
Husse@@
zec@@
depu@@
oran
inal@@
fragment
atedly
promis@@
Villar@@
rock@@
ikh
fond
clo@@
Lili@@
braz@@
horos@@
Hepta
enjo@@
upar@@
gsp@@
unice
Wat@@
suc@@
lions
abled
uit@@
outube
Crim@@
erina
Pion@@
know@@
pret@@
unic
Bron@@
lana
ugos@@
ouses
Coman@@
reexamin@@
mec@@
rog
mor
sic@@
Sep@@
phen@@
kanovic
Eu@@
elen
cadre
onul
oluti@@
atent
duce
productiv@@
situ@@
got@@
tem
ire@@
tice
Chall@@
versi@@
emite
olen
ection@@
utile
griev@@
Bakoy@@
pneum@@
nativ@@
roz@@
avant@@
conqu@@
Caranse@@
Tanasescu
Djokovici
utiful
uss
pion@@
Migr@@
arnic
system@@
ontan
hid@@
unty
isson
avier
young@@
rai@@
frac@@
lez@@
Scol@@
hun@@
arga
Infr@@
Ghimb@@
Seb@@
gel@@
romania
solic@@
DO
Stra@@
Oliv@@
harass@@
Wu@@
Ide@@
aroma
vine
Gau@@
masaj
Bop@@
dej@@
firescu
ilii
garn@@
s.
Tib@@
Grati@@
P.@@
Voron@@
judet
drin
them@@
Sa
indic@@
aken
antrop@@
crest@@
sab@@
sez@@
John@@
uos
Mast@@
eseu
piz@@
peri
Dju@@
osi
Zur@@
balcon@@
embezz@@
quez
nos@@
Ott@@
Avr@@
ipa
ahim
atea
knowled@@
peanu
Rih@@
sek
relev@@
clar@@
Tuz@@
afr@@
food@@
ambl@@
transpor@@
RF@@
SU
ciu
haina
converg@@
Kev@@
amest@@
evo@@
pep@@
nd
vers@@
eums
aeus
elene
Hear@@
ovis@@
ampion@@
blem@@
bot
unga
astian
asas@@
ific
follow@@
arte
dez@@
alom
Krasni@@
inal
ival
Inform@@
raph
consor@@
dei
ski@@
gorit@@
urita
clou@@
ß@@
cuti@@
raf@@
tric@@
eap
inademedia.ro
VO@@
ola@@
fiel@@
tex@@
gif@@
Alon@@
sies
brief@@
resour@@
olf
arem
Nicolescu
authent@@
LEX
unbeliev@@
Alph@@
harmonic
Batr@@
eff@@
celor
inei
IPS
Quest@@
afe
Jord@@
nesses
theat@@
itei
premier
Hidro@@
aland
Mart@@
rag@@
hac@@
atories
flow@@
insu@@
station@@
anse@@
Evalu@@
cabin@@
Turceni
particul@@
Parli@@
gind@@
business@@
sionate
radea
seri
litig@@
Harad@@
ITF
agne
Et@@
6,7
econ@@
genet@@
eck
acel
lider
anci@@
autog@@
ecute
suspect@@
alcohol@@
bul
iljana
usten@@
ziu
zv@@
Munt@@
beta
hofer
anon@@
sider
after@@
Magher@@
Neac@@
program
extrav@@
propri@@
inconven@@
burn@@
inesti
Progres@@
innoc@@
orism
Tax@@
intern
izat
brand@@
anza
persecut@@
iu@@
Scr@@
uls@@
hav@@
jects
Jil@@
ahu
nerships
anz@@
Automob@@
sper@@
omeo
favor@@
sunt
veg@@
gain@@
tricol@@
ocom@@
unts
bench@@
taj
usi
icl@@
doi
Aure@@
Atletico
tip@@
administ@@
Bucure@@
inas@@
aper
lever@@
imental
sanction@@
esul
cyan@@
ighted
imer@@
nost
Instit@@
particular@@
istoric
prog@@
astro@@
Zo@@
aterina
Urd@@
rus
Maras@@
veter@@
UI
gotten
istei
ovan
erele
ureanu
assail@@
prints
lear@@
Func@@
deu
Č@@
Jere@@
meth@@
anat
orum
szky
retor@@
tanc@@
lati@@
Buz@@
gambl@@
Arn@@
porter@@
ideri
aber@@
urements
evar@@
langu@@
illic@@
tism
accent
Camera
edding
reland
erea
apova
ingr@@
ld
cauc@@
FCM
ectr@@
Cu
AX@@
Sput@@
expo
Campulung
apa
alco@@
nar
TS@@
prem
Perez
atire
une@@
moment@@
Compan@@
ocia
retire@@
1.3@@
nici
crist@@
realiz@@
veni
ateg@@
edon
mou@@
Alecsand@@
agi
vari
resc@@
organism
ţ@@
izie
Spl@@
Neigh@@
Sectia
subscrib@@
dator@@
Hallo@@
cover@@
miu
adev@@
aima
lop@@
spaga
fast@@
Nord@@
combat@@
Valcov
UTA
edes
arate
Chis@@
giurgiu@@
Box
Alli@@
poli
ś@@
Andro@@
coni
agub@@
soluti@@
compreh@@
bureauc@@
Cah@@
Most@@
tance
vina
Toy@@
Democr@@
iii
rades
otov
urches
XT
acki
A2
Frunz@@
1.9@@
cath@@
Grav@@
Intern@@
gest@@
maim@@
Decebal
Ferdin@@
aust
intens@@
ales@@
escap@@
ř@@
nici@@
cop
Stol@@
Auto@@
ulting
doba
pat
crema
arat
Pint@@
Ο
prolifer@@
pah@@
ˈ@@
chii
mainst@@
aily
CJ@@
reia
isine
entic
lovi
congest@@
Á@@
Macc@@
í
col
gart
rul
izia
Adina
atran@@
erez
ë@@
Jim@@
Maf@@
kham
sala
spate
matern@@
interf@@
Papadop@@
CEN
pant@@
onel
Magaz@@
dop@@
Gabri@@
decol@@
grip@@
stat
koz@@
incapac@@
extrat@@
noc@@
ueta
panc@@
oa@@
IL
Imagine
amples
dless
plas@@
ular@@
relig@@
fem@@
NG@@
fiu
osen
uals
ofo@@
opping
Intr@@
akir
izon@@
dau
spectacul@@
Cont@@
exus
icip@@
bistr@@
pom@@
Tudorie
liest
eneuve
ASS
bos
rang
Agnies@@
apy
Fund@@
inscrip@@
Ministr@@
hn
oras
fri@@
iene
Cauc@@
apost@@
Turc@@
stitu@@
etich@@
Klem@@
pica
wholes@@
aport
itez
chea
Ug@@
chest@@
rej@@
luna
17,@@
joc@@
reluc@@
ū@@
fles
ambass@@
Limb@@
Loren@@
Romana
Scienti@@
04.@@
aut
diz@@
avan@@
exon@@
inevit@@
Ibrah@@
Hold@@
Finn@@
€
Insul@@
dise@@
ekom
mates
Goz@@
asem@@
ometr@@
Clinc@@
reus@@
Nuc@@
spit@@
Cornel@@
OOOO@@
recol@@
cli@@
Ν@@
acop@@
horizon@@
diagnost@@
ilu@@
fot@@
fie
flagr@@
stom@@
inat
ediei
nad@@
libe@@
hii
plagi@@
eia
Bucovina
reci
loo@@
tourn@@
Olympi@@
ofar
viz@@
Zem@@
oner
ovina
Iis@@
Saraj@@
dney
stoc@@
izica
ospo@@
energet@@
gata
sac
tihad
iata
Elias
Pe
embarg@@
ilei
atoes
ceh
Ljubl@@
skir@@
Ralu@@
orig@@
store@@
dr
mai
through@@
Josep@@
Teleor@@
reneg@@
mare@@
Slo@@
oric@@
pock@@
abul@@
Cea
Achim
pror@@
cancel@@
ayers
itie
UE
izari
Mex@@
opon@@
condemn@@
PAS@@
Gaul@@
DW
automob@@
finul
News.ro
Kund@@
atica
alian
Strateg@@
schem@@
Ombud@@
avail@@
edness
articul@@
iqi
cust@@
dogan
Slem
depres@@
concomit@@
colog@@
ún
ulata
hormon@@
eag
promulg@@
cogn@@
sob@@
elova
refug@@
Valls
into@@
iture
otel
knoc@@
28,@@
cui
Hit@@
maxim
laser
acolo
Iul@@
Doug@@
clin@@
ficial
elder@@
cearu
obstruction@@
veti
1.8@@
Vos@@
Kacz@@
aliste
elie
Jup@@
zu@@
pul
semi@@
ilie
budget@@
sidy
redi@@
ONA@@
omun@@
bab@@
Speci@@
raj
interval
mil
rot
Jin@@
agement
amant@@
prevent@@
eul
boy@@
iros
Centr@@
Chel@@
Molen@@
4,4
Wig@@
aca@@
mere@@
Mitropol@@
sov@@
ondon
benef@@
territor@@
ombat
must@@
apet@@
aton
uson
wee@@
cist@@
vul@@
convinc@@
OC@@
transplant@@
TP@@
ilst
umane
ă
abo
nou
erva
Fio@@
kly
eele
ploy@@
nev@@
imbr@@
alterc@@
R.
HD@@
Norweg@@
oviz@@
subsi@@
uggling
uil@@
eiro
Prah@@
fisa
mut
sovereign@@
infi@@
ibern@@
erse
Argh@@
expen@@
rumin@@
sud@@
XI
recapit@@
aller
atent@@
tom
tut@@
comput@@
Sfantu
Ε@@
coace
ution
gri@@
tori
onest@@
Thurs@@
Carac@@
urie
Mang@@
Plis@@
Obi@@
fum@@
inequ@@
transmis@@
Berlin@@
abat@@
sev@@
uty
potenti@@
Titan@@
itorial
cozon@@
afl@@
tine
peler@@
extinc@@
calcul@@
tras
vre@@
atita
rast@@
lution
amul
tlement
Rex@@
pend
ats@@
metal@@
vascul@@
tribun@@
bourg
Parvan@@
uns@@
pene
1.7@@
elor
erat
airy
Lic@@
apel@@
fort
pline
imag@@
Maced@@
Bun
bri@@
zia
dur
cert
eber
Z.@@
ô@@
intellect@@
ehn@@
Mecan@@
burse
HotNews
Wik@@
Situ@@
nan
Meteor@@
fel
adat
casu@@
Leic@@
enge
pare
Dumitr@@
finale
plat
ß
Manast@@
thodo@@
CON@@
ucle@@
telea
sific@@
tibil@@
ande
Satur@@
TER
bub@@
urop@@
Lom@@
vs.
ider
receiv@@
erei
teries
enian
cart@@
stil@@
alter@@
iile
naire
Fabr@@
acquit@@
ophe
stil
orie
rd
tiile
decis@@
estin@@
cer
gene
Benz@@
uita
Radio@@
tur
yon
iosi
secre@@
opped
iceanu
erious
cris@@
talh@@
adam
Se
recom@@
05.@@
cun@@
MIK
19,@@
giene
iatr@@
rochie
familiar@@
efor@@
Fronti@@
baza
brus@@
erul
Burs@@
liber
trot@@
iop@@
mont@@
ı
inta
toc@@
prosper@@
Flut@@
Detr@@
Econ@@
cutit
cim@@
apos@@
TIC
Fierb@@
cruc@@
ourn@@
alb
muc@@
reci@@
Dos@@
diplom@@
metabol@@
plam@@
bil
Plan@@
esc@@
afir
urea
Ier@@
perul
bass@@
maine
roun
usen
contrab@@
pun
Fem@@
Manag@@
1.0@@
vre
iun
ancel@@
Imper@@
opin@@
Agn@@
fov
.00
ocial
engine@@
Nast@@
Porum@@
propriet@@
Prez@@
asf@@
etn@@
pis@@
Dolce@@
scandal@@
mitted
Program
ý
incident@@
suscep@@
Vojv@@
moun@@
kt
tee
endar
rost@@
E.@@
acne@@
istea
Igl@@
iese
Ital@@
Ray@@
etica
addres@@
lobod@@
Cio@@
FS@@
carcin@@
ratific@@
print@@
exce@@
Capital@@
prod@@
throp@@
cil@@
rau
Ech@@
yal
adea
micr@@
osc
Faro@@
asc
enty
Baciu
avl@@
PRES
ves@@
Jagu@@
REA
sos@@
lug@@
administr@@
andre@@
arding
Ö@@
isc
rand
scop@@
nie
dere
osia
ceal@@
biz@@
exact@@
Swed@@
scot
arenka
purt@@
fiscal@@
Hep@@
discipl@@
Winterkorn
vag@@
ugoslav@@
fati@@
asul
nit
fant@@
Baro@@
arna
igi@@
oduc@@
impi@@
soc
job@@
sibilities
olution
arest
transf@@
ë
orei
Glo@@
uza
apers
ilip
imens
antioxid@@
dema@@
ambiti@@
,@@
prest@@
obser@@
zac@@
tish
flux
ference
astrau
thodox
06.@@
Iones@@
engen
inclu@@
Secur@@
Mb@@
ube
undoub@@
ucu
conced@@
foi
mage
uble
offici@@
nr
domn
Distr@@
Gram@@
monet@@
olul
curr@@
lit.
concord@@
ä
Pf@@
Republ@@
meu
manufac@@
Stock@@
drin@@
Telev@@
addafi
Assist@@
jap@@
PN@@
sigur@@
20,@@
inval@@
tala
conditi@@
union@@
Nich@@
Maram@@
accred@@
terul
stab@@
iums
ibil@@
antiter@@
bai@@
orul
scut@@
grec@@
Hung@@
NU
stang@@
miss@@
oba
arest@@
immin@@
Mangalia
scol@@
curen@@
rut@@
oboda
tir@@
kno@@
mu@@
iliul
ulei@@
comfort@@
Negr@@
acii
Regia
frequ@@
itte
dedic@@
ica.@@
ocol@@
ousin
​
idic
privatiz@@
Solid@@
deti
sery
12.2015
Trand@@
Vio@@
sug@@
circu@@
desir@@
Impl@@
azil
ilib@@
icop@@
5,5
encea
share@@
vitova
Shop@@
cig@@
arit
implement@@
ė@@
Migu@@
civiliz@@
alat@@
alban@@
nem@@
mirea
dable
civ@@
ú@@
vie@@
w.@@
digest@@
duel
ovar
realist
CEE
bankrup@@
gazon
Cret@@
gard
elec@@
plit
osenko
fraudul@@
isp@@
spon@@
mineri@@
Ca
Intensi@@
nist@@
ī@@
tere
cul
utul
echi
opot@@
idays
itala
Unic@@
oga
ettin@@
a-
unz@@
obes@@
actu@@
ifice
eram
pens@@
omana
aura
liga
oana
credi@@
egrad
opp
edn@@
mold@@
dner
sca@@
AJ@@
bele
Μ@@
commissioning
Gher@@
foc
uite
ced@@
tamp@@
atie
fap@@
isoara
gram@@
jurid@@
notori@@
dus
writ@@
Represent@@
celul@@
INTER@@
citiz@@
lighted
recuper@@
Happ@@
Duck@@
sear@@
astele
avil@@
jihad@@
11,@@
ramine
camar@@
opta
stere@@
fica
treat@@
amaria
reach@@
Mü@@
ˈ
libr@@
epi@@
sari
tul
polon@@
enna
ating@@
bomb@@
unele
aude
nite
resul
Suciu
incar@@
turi
cot
UK@@
Iot@@
ADON
onger
oppos@@
sius
heroina
Lionel
Memor@@
redres@@
Patriarch@@
Poj@@
trig@@
Moham@@
anul@@
Liliana
poc@@
Terc@@
adescu
spectac@@
vara
Varou@@
nein@@
stam
fakis
imprison@@
vile
Engl@@
Vladim@@
tow@@
advant@@
thur
opr@@
hars@@
nucle@@
Fotb@@
nod
impas@@
Đ@@
ileg@@
vern@@
andra
azul
Augustin
Ç@@
amanta
impor@@
jos
pari
jour@@
competitiv@@
dea@@
PK@@
nox@@
Wolf@@
qa
nou@@
enem@@
eira
Diacon@@
inchis
lich@@
furi
Festiv@@
noi
outh
salari@@
oce
dely
eai
Galati
lans@@
º@@
esan@@
anu@@
sans@@
mici
moned
Struc@@
Osc@@
Mung@@
ightly
hez
argent@@
bombar@@
Ü@@
Mant@@
Ziil@@
With@@
opti@@
Crac@@
pess@@
fond@@
Commer@@
acie
Cek@@
aditional
nist
celel@@
tele@@
195@@
oret@@
Laus@@
Hing@@
Satu
Juvent@@
gee
cluj@@
prima
ruta
concurs
reces@@
vres
apara
mant@@
genoc@@
scal@@
Dial@@
outrag@@
reimburs@@
canop
illance
Abrah@@
Munc@@
Parliament@@
feas@@
dispens@@
İ@@
Kelv@@
unda
fum
uum
Look
Grupa
chir@@
trist
meier
Swit@@
cistiga
Krem@@
Anamaria
3000
fag@@
pond@@
Franco@@
Sanch@@
ogl@@
Feli@@
nim@@
scu@@
dific@@
ison@@
agas@@
cook@@
ingh@@
anghel@@
Ferg@@
tempor@@
Hamb@@
more@@
amar
dub@@
Ž@@
areness
LG@@
pora
mei
Emerg@@
terasa
SOL@@
centim@@
peis@@
rent@@
Moldov@@
oline
tast@@
iest@@
07.@@
aleg@@
Pref@@
itiv@@
cenz@@
Pipe@@
atre
sourcing
incor@@
Baltica
mie
averde
11.2015
multim@@
Benj@@
Zuck@@
iddle
constru@@
outr@@
asum@@
delic@@
erici
03.@@
cior@@
Bloom@@
lament
echi@@
leaga
asm
cari@@
mica
ishable
sector@@
mau
VIDEO
erve
exac@@
muz@@
ieves
Raul
editori@@
art.@@
Franç@@
dign@@
sophist@@
liban@@
avand
mers@@
How@@
1.500
atari
kam@@
emis
obsc@@
fib@@
elique
Cernav@@
omi
solicit@@
Univers@@
step@@
1,1
fest@@
Anglia
Spor@@
enciuc
Carol
secti@@
Skop@@
concer@@
zah@@
dat@@
erne
secon@@
ulterior
like@@
GAL@@
seas@@
trec@@
Liech@@
happen@@
tsun@@
bata
citeva
antan@@
nota
zij@@
epic@@
mush@@
preg@@
help@@
congel@@
sunt@@
gars
ruc@@
illas
Ahtis@@
cease@@
asso
MRU
verific@@
BCE
ascu
ateral
1.2@@
tare
abila
B1@@
prescrip@@
Ini@@
alniceanu
sul
prim
stie
intu@@
titious
sot
Sina@@
imbal@@
veget@@
ipul@@
usele
race@@
promo@@
mafi@@
alon@@
ł
buy@@
miz@@
impinge
ocentr@@
gon@@
ONG
dus@@
Bihor
Dig@@
forbid@@
ardous
buna
zile
automate
haps
atas@@
ofit@@
enii
etal@@
isen
18,@@
irak@@
ardel@@
Secret@@
Corpor@@
Interv@@
isul
mouth@@
hesion
afac@@
rare@@
sovi@@
paz@@
anxi@@
ć@@
ascend@@
lateral
о@@
Igles@@
Gandul
Jack@@
a.
abei
pension@@
gente
Job@@
2.0@@
adu@@
oras@@
Gim@@
Wars@@
elds
Sos
ο@@
Andre
ujan
arba
mul
а@@
lika
struc@@
lant@@
Ovi@@
elena
inz@@
awab
amber
atura
É@@
issance
apel
Cincin@@
ucis
Ł@@
tact@@
geaba
pian
rapo@@
Lith@@
menten@@
laim@@
BI
bosn@@
VM@@
manul
appar@@
Drac@@
controver@@
uzina
Aeg@@
dale
yog@@
poor@@
sef@@
alba
atins
industr@@
ament@@
eala
fing@@
doctr@@
chef
ezu@@
Play@@
forth@@
XX
mone@@
Bania
Ι@@
Bagd@@
TER@@
thous@@
intervi@@
tarescu
tema
ned@@
Boliv@@
elem@@
nav
ioana
Consum@@
areta
Decre@@
icul
30s
199@@
Reven@@
ocal@@
agit@@
acte
lat
brute
romance
onata
mij@@
Milano
eol@@
garia
cari
figur@@
Luminita
menti@@
destep@@
Shang@@
Marse@@
salut@@
ygen
comen@@
vian
soi
india
alti
Moroc@@
Sci@@
ominations
vicec@@
α@@
teni
Administr@@
Salz@@
rele
enei
cres@@
chec@@
nas
seri@@
olutions
bish
Scand@@
incontest@@
Francisc
cov
sibil@@
ApN
fac
midt
Woz@@
François
stiu
enag@@
cea@@
evit@@
tru
Afgh@@
beton
icala
conces@@
aneously
nati
eata
đ@@
bru
insa
rile
cros@@
electroc@@
dermat@@
impart
raman@@
Mazare
cha@@
legate
censor@@
popr@@
Serg@@
fabric@@
cac@@
dren
Stras@@
regasi
abe
piel@@
erberg
Mai
overn@@
etat
hairdres@@
pod
lyr@@
Ordin@@
Tiras@@
Comis@@
mano@@
reven@@
sung
Iord@@
stup@@
bie
traf@@
advertis@@
б@@
muscul@@
ulu@@
splen@@
sut@@
hosp@@
Brazil@@
cann@@
transm@@
greaca
Turism
Resour@@
itudin@@
abil
Vitea@@
adep@@
marg@@
stele
sacri@@
alist@@
Fron@@
trep@@
Liver@@
unte
agro@@
orice
impo@@
bucati
enor@@
regar@@
Pruna
rana
remia
ò
consorti@@
stad@@
Rw@@
Mechan@@
tez
consu@@
pavil@@
dac@@
sper
utat
artea
tson
action@@
Jenn@@
maf@@
Volks@@
atul
mita
Luf@@
memorand@@
armat
cit
amele
inul
edin@@
zand
dati
diab@@
hect@@
evre@@
enti
tai@@
ilet
dialog
ameli@@
otul
deprec@@
Corup@@
suspici@@
detin
liei
incol@@
itara
ausp@@
Secon@@
т@@
indemn@@
Pak@@
conv@@
09.2015
utii
istina
fili@@
adul
Α
ň
cak
sezon@@
gaze
roen
deg@@
near@@
Un
ρ@@
regas@@
deac
Berdy@@
erce
stins
3.500
sant@@
Wiz@@
continu@@
gres
nagy
heza
cardio
Portugu@@
breanu
vam@@
Kazah@@
Monten@@
orar
ą@@
munition
Sect@@
Face@@
Ó@@
Lion@@
Kog@@
minist@@
ezia
Rotariu
ő
Munch@@
dles
rai
oita
τ@@
rii
retroc@@
dat
essor
omor@@
ainei
Rich@@
iern@@
chei
Valea
uat
Afghan@@
inde
span@@
acest
unea
efic@@
umul
doiu
castig@@
fata
august
Colt@@
3,3
Christian@@
lement@@
mute
expres@@
asu@@
anded
Cretu
impart@@
Hondur@@
tablo@@
neol@@
Transfer@@
vart@@
uror
ordon@@
justment
ľ
nection
inho
olve
nt
ehold@@
access@@
omon
Niculescu
sinel
lire
cica
ember
hyth@@
Arbit@@
genoci@@
jut@@
resusc@@
16,@@
oua
Clim@@
umul@@
atit
Teheran
trip@@
hundre@@
bari@@
equip@@
Ung@@
Phone
н@@
orele
Agricul@@
regie
HG
vira
club@@
incumb@@
mailing
copi@@
pach@@
serie
xen@@
etici
Discipl@@
itam
ioan@@
whe@@
domen@@
recomm@@
smooth@@
shori
indig@@
uzia
unger
recul@@
brid
Narc@@
stia
zhe@@
deop@@
Consil@@
crack@@
haluc@@
arre
inaj
ubar@@
utov
incipi@@
inot@@
Moun@@
prel@@
ectiveness
demar@@
elea
Delo@@
inent
intre@@
deven@@
unti
bacalaureat
vitamin@@
Piatra
æ@@
inalt@@
DRU
recr@@
pensa
haos
uim
devel@@
usian
Box@@
strik@@
equivoc@@
stadion
vii
Aten@@
cerc@@
poz@@
hotel@@
enos
Rapa
succes@@
wond@@
eliano
Maiz@@
anum@@
bah@@
π@@
cistigat
chall@@
vad@@
ö
Danu@@
hack@@
Mondi@@
earch
Environ@@
clan@@
Ş@@
imun@@
Coz@@
tenberg
iaries
XVIII
amana
Compet@@
Televiz@@
lung@@
energetica
olan@@
cla@@
honor@@
intenance
ochel@@
mars
с@@
paci@@
suggest@@
Bened@@
plic
Am
fab@@
certific@@
siri@@
inty
bilant
taj@@
е@@
pocr@@
Pace
Transilvania
arsi
Luxemburg
ç
apters
scl@@
Arte
urbanism
procur@@
Pied@@
aurul
Sae@@
Β@@
esterday
forma
iktas
arile
automot@@
ovei
oriu
Arc@@
riyet
retail@@
Cristiana
iati
giurg@@
Diyarb@@
absent@@
Senat
consi@@
Christof@@
tima
afle
deten@@
Mega
zic@@
oler@@
ź
Aurelia
decap@@
passer@@
ocup
Timis
cont
Cust@@
defe@@
accompan@@
Macedon@@
ariat
21,@@
gura
Κ@@
Mladenovic
197@@
scape
ROM@@
3,7
confisc@@
lant
recid@@
vanz@@
cai@@
Wedn@@
icii
Polic@@
Turkmen@@
alii
lasi
financ@@
anii
Å@@
parc@@
prep@@
Foto
ascal@@
omor
hiatr@@
zhou
infant@@
²
Neighbour@@
ades@@
juc@@
pier@@
reste
Internationale
aju@@
spul@@
Liga
iune
e.
convoc@@
omul
Budget@@
manu@@
intel@@
Cel
isoare
Putere
proced@@
Pw@@
EurAc@@
ibli@@
Infrastruc@@
sol
phia
mea
delean
ased@@
Trez@@
asus
ż@@
figh@@
susten@@
absolv@@
brev@@
IMM
tiul
cine
astru
otice
rogen
second@@
uste
edom
Bangla@@
Davut@@
azz
istice
atate
abis
Febr@@
tensi@@
Promot@@
syst@@
â
arat@@
steria
atore@@
Ó
erta
igat
ardin@@
mascul@@
fland
itage
univ@@
osul
rur@@
vehement
perman@@
adata
incom@@
Violeta
Jap@@
Braila
abrog@@
Dimitrie
itul
flut@@
decum
Ionel
trata
afis@@
rezi
urma
challeng@@
tribune
Hert@@
dura
Ciorb@@
balist@@
za@@
elile
bloc@@
astie
adors
stea
umbre@@
Tbil@@
anter@@
icol
ambi@@
interdic@@
unem
monit@@
έ@@
jug
Antena
demag@@
aici
mod
arter@@
incit@@
buch@@
anun@@
arele
spectr@@
itenc@@
ě@@
nop@@
nistr@@
reduc@@
arab@@
ului
pov@@
earth@@
plati@@
mane
Anad@@
neu@@
isme
OMC
pak@@
deze
intul
atele
cada
sinc@@
Mitch@@
Mazil@@
dai
M.
Apar@@
Viz@@
Intre@@
Protoc@@
1.400
judet@@
anor@@
orientate
support@@
iau
TAG@@
esn
rute
Cec@@
eliber@@
hamid
fier@@
salon
Babes
intei
Columb@@
famil@@
inima
Hamilton
antat
subter@@
mana
nicio
irrig@@
lunar
istan@@
р@@
Parlament@@
ofer@@
bani
pur
Carib@@
adjunct
absor@@
aeri@@
climat@@
uala
gry
tical@@
produc@@
Clin@@
Snow@@
bea
ι@@
uiti
acros@@
ε@@
pugil@@
branc@@
epu@@
peared
laus
odul
κ@@
Construc@@
pseud@@
along@@
entul
iban
χ@@
subv@@
joi
ilegala
tot
taie
prag@@
abona
ostat@@
fuz@@
quare
desi
probl@@
evoc@@
UNPR
entii
г@@
я
turne@@
adres@@
л@@
staf@@
aiba
cran@@
antur@@
piper
deau
Mari
aiele
itand
vad
dri@@
curte
iciuc
Eu
ipher@@
licit@@
fiul
Coleg@@
Felix
ultimat@@
prem@@
tati
atac@@
Fond@@
rebren@@
regiz@@
unci
Nationale
emie
preventi@@
dese@@
Florea
lui
holm
scria
avius
astruc@@
oale
Cezar
intit@@
Busoi
Vara
linie
skirts
Charlotte
olele
intot@@
resim@@
alei
loi@@
adele
odie
retea
tii
elab@@
expend@@
conjunc@@
enul
mari@@
propr@@
isele
parti
plann@@
eiul
и
adei
amical
coron@@
oten@@
vici@@
intem@@
dese
seara
nervo@@
apro@@
MFP
Ő@@
urb
usal@@
obic@@
Prima
у@@
ezie
incr@@
atac
confr@@
fabul@@
ilul
stoc
Torino
Salonic
iam
ecos@@
Guang@@
Stanis@@
urch
pilot@@
alor@@
zam@@
perform@@
sec
fii
modul@@
Luna
embe@@
Í@@
urat
nita
preferen@@
mortal@@
soph@@
elul
Konj@@
CET
anonym@@
face@@
exec@@
grup@@
198@@
Caval@@
ǎ@@
exper@@
Fede@@
±
asim@@
itively
Vinc@@
startup
Sept@@
cate@@
util
toaca
Valori
ospital
dag@@
surg@@
emate
Timof@@
Eti@@
Mala@@
Neboj@@
istica
spor
etea
Dmitri
memb@@
Jennifer
acur@@
promul@@
Buzau
Apostol
vars@@
ambul@@
appro@@
afara
aduc@@
Guill@@
itura
Ś@@
ativa
publ@@
hio
cinem@@
eera
Madagas@@
Isra@@
tob@@
iala
Luxem@@
esc
acter@@
ofi
acta
cand
Construct
Domn@@
adian
arca
Presedin@@
tiri
aaoud
reclam@@
bulg@@
implicate
sarma
Sinaia
Corlat@@
ridic@@
Va
mitting
rivale
ushima
imed@@
Edu@@
icola
genu@@
maint@@
etul
catalog@@
socr@@
dator
solidar@@
ecution
Digi@@
tron@@
ultim@@
etri
medic
marca
Adev@@
banc@@
Grow@@
Dorin
remit@@
ǐ@@
inau
Teh@@
aline@@
divers@@
Piedone
pelita
SUV
ampions
domic@@
Wawrinka
traver@@
odin@@
spati@@
Pantelimon
gest

argument@@
volunt@@
atat
loz@@
Eliz@@
football@@
TIR
rout@@
cal
acor@@
umar
£
oter@@
Hunedoara
Mitit@@
Mistr@@
Simp@@
BER@@
instrum@@
ovar@@
autoc@@
cloth@@
unde
cele
arrative
detain@@
Zamfir
Ne
erau
detox@@
Insp@@
faina
alaure@@
Dumit@@
asum
cuse
avea
calom@@
icile
Ecum@@
euro@@
acuma
Emir@@
Ploiesti
etru
Ank@@
gri
pends
aughters
opune
incant@@
pera
fabricate
urmand
slab
inele
reper@@
arriv@@
rar
cote
ffe@@
poo@@
latina
Garda
Papa
vedere
confor@@
taia
islam@@
itata
obis@@
Fifor
duble
Chere@@
alaureat
Fury
sue@@
anches
ecu@@
utiliz@@
logist@@
viu
usul
recum
ined@@
Gazz@@
otei
atache
spun
Srebren@@
prelimin@@
shoc@@
onice
Chim@@
terg@@
Primaria
Master@@
ADN
Prahova
Imag@@
Ο@@
Politehnica
ROMATSA
ioz@@
siste
spuna
adica
afg@@
remun@@
aculture
ά
brate
warded
rutier
inot
mansa
pasare
Υ@@
Sadd@@
raul
mare
Cum
avut
dand
edere
kamikaze
ranean
Ariz@@
comuna
tare@@
Josip@@
imput@@
entie
3,1
uzie
Sigh@@
legit@@
orii
marit@@
anex@@
ή
retin@@
demis
Lewis
linia
analys@@
avuta
ansa
covici
rique
chip@@
gasi
esal@@
tata
ziar@@
tradition@@
Epi@@
1,7
Izvor
Schul@@
Posta
icai
oase
filtr@@
CEDO
Albe
counc@@
Vice@@
Ι
fosta
ņ@@
baut@@
avind
colo
magistr@@
elui
Aliment@@
reminisc@@
mint@@
encour@@
unor
Cypr@@
eced@@
pson
regularities
bebel@@
ipot@@
itale
arsin
smart@@
aveg@@
umil@@
Grup@@
Campion@@
Cipr@@
relat@@
esu@@
itectural
tinte
Hotar@@
igur@@
loop@@
prior@@
Jurid@@
estica
afone
analist
kozy
tiala
iuni
trand@@
offic@@
destruc@@
alea
frati
defect@@
oretic
ν@@
indea
е
ectiv@@
averse
oport@@
alte
Ceh@@
ucis@@
bod@@
assas@@
Fec@@
ych
libert@@
Elis@@
Occident@@
enery
harescu
Т@@
inii
restim@@
poca
Pantelim@@
Anth@@
uge@@
Serghei
Jiului
Au
strop@@
μ@@
ķ@@
astep@@
excl@@
acuz@@
edil
Gheorg@@
gham
underland
ablo
Daim@@
Admir@@
zap@@
Alcenat
invers@@
derent
regre@@
umor
¡
parli@@
Eve@@
Comer@@
onora
overy
ezii
imob@@
в@@
ч@@
refere@@
insist@@
lery
3,9
adio
unpreced@@
sindic@@
Dolces@@
extras
crim@@
revan@@
clip@@
demonst@@
ologul
naz@@
frant@@
Sevilla
Siria
Ciprian
repercus@@
Roberta
buena
enever
problem@@
grass@@
georg@@
requi@@
bron@@
г
dui
atoria
itari
lact@@
Tayy@@
oasa
Studi@@
Volv@@
bine@@
ilea
а
sigur
Constitu@@
bun
graf@@
к@@
ш@@
desen@@
paroh@@
bai
dori
cei
inloc@@
iord@@
eriu
manc@@
utila
Timmer@@
Otop@@
apta
Mediter@@
ecut@@
vitam@@
entreprene@@
osti
5,7
agricul@@
Tianj@@
cain@@
orad
clad@@
otica
sire
calend@@
intele
antica
uptie
bila
ojan
mortal
episcop@@
leana
grop@@
dogo@@
lux
sint@@
acum
astro
bei
frec@@
rapport@@
istem@@
identific@@
Republica
PFA
Antonia
imt@@
rezon@@
testimon@@
criz@@
candi@@
confidenti@@
toire
considerate
Vest
audia
legi
hioni
bour
fim
arip@@
Vama
mort
Nabuc@@
confirm@@
dee@@
accust@@
uim@@
hep@@
joint@@
armon@@
sociation
invidi@@
circa
ucig@@
inflamm@@
Ambass@@
postate
aradean
jewel@@
Cod
ρ
Califor@@
sume
brad
trat@@
Egy@@
elita
satisfac@@
Commission@@
Siber@@
trist@@
Ce
redus
pof@@
amend@@
decor
Nether@@
scena
aua
precipit@@
Comit@@
uzii
Matteo
Veche
ondon@@
amne
λ@@
curent
reception@@
dna
pasi
desav@@
Comert
duse
aviz@@
iesti
Teodo@@
caros@@
Proi@@
precon@@
salubr@@
recun@@
smech@@
drei
reprosat
spus
fara
sute
Fundament@@
ifica
ώ
tasi
toiu
irig@@
supl@@
σ@@
tarea
itures
curate
aiul
moda
undation
Monet@@
ologica
blemished
acter
Militar
tena
Djind@@
υ@@
piet@@
auto@@
Eras@@
sunet
ologia
somn
tesy
Iosif
lovit@@
sancti@@
pasa
Fond
Golf
Ager@@
nete
ambal@@
exterior
aloc@@
deren@@
inam@@
ε
eturi
р
technic
δ@@
ceri
nii
RFI
doar
raman
unica
ē@@
umpl@@
ruti@@
harta
Paginademedia.ro
Lukas@@
cerut
rass@@
stupe@@
tipar@@
Hristos
theast
inten@@
Seul
ghis@@
seori
etown
tura
cam
BEI
uiri
adur@@
ocup@@
mater@@
Wizz
#
cadav@@
izate
indem
rasa
Mica
ivi
explos@@
avoc@@
yai
exig@@
dul
apuc@@
libera
defend@@
Natur@@
amane
Gonzal@@
adere
Curierul
Philos@@
egala
lumea
Drep@@
ź@@
apog@@
seria
adun@@
ezele
midfiel@@
granite
brele
CCR
ilton
cec
colle@@
Bram@@
redam
ionale
fortunat@@
onews
joara
newsp@@
ü
œ@@
vili
alegi
vita
imii
vanda
dl
opus
ylum
Saud@@
increas@@
valor@@
atice
vern
etice
inara
XIX
5,1
Energie
denly
vand
dans@@
atu@@
gheni
S.C.
max@@
locu@@
tism@@
avent@@
Instr@@
pies@@
logica
Ř@@
atrage
Jess@@
vezi
Marte
incul@@
concern@@
miner@@

retel@@
stud@@
maximele
bourne
Cluj@@
obligate
Rutier
Negru
iuri
Barcel@@
vasul
reac@@
Oltean
stri
mentin@@
apte
ativ
Daesh
activ
impac@@
Santi@@
ingin@@
abuz@@
genul
landa
Revel@@
mn
Latina
calif@@
deciz@@
ulsory
Aeri@@
Octo@@
decal@@
looded
refuge@@
utor@@
Petrosani
Bolog@@
grea
concre@@
Boli
iare
carti@@
unei
mp
feel@@
stran@@
Hidroelectrica
Scrip@@
involv@@
actr@@
limpe@@
Imobil@@
inche@@
repor@@
drone
portar
catastr@@
onat
Propri@@
culpa
nava
evidenti@@
atii
evaz@@
Ciuc
aties
Liturg@@
Epis@@
Wiki@@
esei
Verhe@@
cata
electrica
ilimon
client@@
idential
Papandre@@
elev
ICCJ
aparat
Thessalon@@
mentul
sah@@
threat@@
Golub@@
stii
egovina
Ivo@@
ã
ordine
2.500
tiale
Tiberiu
resolv@@
IFT
rety
stu@@
tortur@@
republic@@
natal
interlop@@
regia
onei
evoluti@@
brea@@
Olymp@@
demn@@
asii
iale
polul
organis@@
Tehn@@
blest@@
incer@@
confection@@
disciplin@@
accel@@
ţ
sud
reveni
Pana
surs@@
Litu@@
respons@@
ministr@@
Diy@@
º
nex
Istan@@
otriv@@
itect@@
relation@@
ioasa
izati
stiti
emise
groz@@
Executi@@
Piata
abilul
cheia
�
Montre@@
instantan@@
locale
caz@@
german
viously
politic
slava
illors
icole
achita
XXI
select@@
lave
astron@@
Parch@@
Ialomita
ugoslav
lend@@
aturing
gras
luata
Kate
ascen@@
Snowden
Polonia
standard@@
uie
debar@@
croata
й
alarm@@
plac
з@@
impre@@
beau
minor@@
epis@@
comun@@
ì
ecologic
öm
Orient@@
Democrata
Elve@@
detin@@
plin
ieu
UNIC@@
Lamped@@
umana
ť@@
Malay@@
А@@
didactic
Sfin@@
achiz@@
contempor@@
odata
clara
homem@@
timp@@
arh
garson@@
erori
derul@@
provinc@@
exerc@@
immedi@@
imbl@@
turc@@
pril@@
urez
Academ@@
ς
atrib@@
ezei
Punc@@
Prim
trium@@
nostr@@
Presa
Financiara
remis@@
Maramures
reconcili@@
seful
malad@@
aparam
Snag@@
Hez@@
munc@@
slov@@
SMURD
artist@@
disastr@@
Toba
ttes
scrie
albe
benz@@
stiripes@@
semn@@
venit@@
Sampdor@@
bilete
cate
prestate
atelier
peror
liberala
roz
urna
Est
Depart@@
sii
ferm@@
Meridion@@
consecuti@@
solicit
intub@@
instr@@
broadcast@@
efort
unan@@
Print@@
interpret@@
spala
percent@@
faz@@
plom@@
indispens@@
protot@@
Raiffe@@
decit
entele
PSG
proxim@@
hotar@@
Terra
colect@@
atare
susc@@
01.@@
Carpath@@
doctor@@
ι
ingham
slab@@
urce
PAC
ʻ@@
travers@@
elib@@
atici
garantie
nationale
desch@@
enele
restaur@@
puna
ustin
М@@
autot@@

pulmon@@
Sovi@@
fani
ikusic
Elisabeta
return@@
mira
siva
ovascul@@
standar@@
derap@@
zul
Lew@@
openh@@
õ@@
&lt;
CSMS
degre@@
statut
aten@@
comprom@@
elef@@
nisa
½
urate
Matte@@
canton@@
Huffing@@
demn
mobilier
ruse
Stefanel
perfecti@@
cumul@@
Opres@@
Dortmund
ο
ilitate
Coel@@
explic@@
Tube
5000
0,1
boli
toren@@
Casp@@
Ecu@@
gros
anele
Nadlac
inl@@
stari
bao
ί@@
scrut@@
vaz@@
contract@@
usii
rezist@@
confir@@
umuri
idul
jurul
miile
every@@
fizic
rosii
asfalt@@
sambata
insum@@
intors
asti
itiei
flac@@
rolul
despre
vedev
eval@@
banda
suna
voia
varf
lansat
deced@@
izb@@
fiti
ioare
Spania
tiza
inile
relor
tren
andarm@@
roman
Haga
urca
Patron@@
Baron@@
hous@@
abili
neste
cuv@@
dragi
teror@@
comita
iute
ceda
penala
Iorg@@
mitul
diav@@
spons@@
pacate
ycles
sora
Function@@
antisem@@
senin
prins
ajun@@
Eurogr@@
prelev@@
hidro@@
Judec@@
elevi
lua
biletul
comun
Elaz@@
rotile
acco
Mosc@@
reze
tam
tinere
impar@@
Ombuds@@
siles
ajelor
echit@@
ivul
icei
corid@@
tigan@@
voi
draga
erenta
echita
forie
estul
golul
ulei
opoz@@
Ambulanta
ajut@@
Dulgh@@
atured
indian
record@@
apore
comis@@
etati
ș
muta
venite
joc
acters
Pamant
magaz@@
folos
idei
tinta
interne
afli
paraz@@
acest@@
civile
pericul@@
appear@@
exem@@
among@@
glum@@
amenintata
surge@@
deces
olii
strig@@
Saak@@
finele
mii
debut@@
4,1
asera
aduna
asez@@
7,5
sare
miting
cald
harest
cereri
calciu
Stanca
iub@@
nast
Ungaria
placa
aniana
usor
noiembrie
cupl@@
mame
γ@@
ologie
spalat
precar@@
ierb@@
adune
rasun@@
ezul
echiv@@
alele
nori
salar@@
speri@@
atile
uture
frum@@
reit@@
medie
plante
cai
intestin@@
rece
polita
cioc@@
moil
champ@@
sondaj
cile
ariile
lume
israel@@
monop@@
Navale
usim
atest@@
Micros@@
Gancea
pieton@@
Madon@@
intens
raut@@
stau
aveau
PSR@@
suma
ideea
vrea
finis@@
Piept@@
veh@@
victoria
3,8
heata
oniei
SEAE
frame@@
marite
cator@@
istorie
PMG
schim@@
earthed
Jona@@
stiin@@
permis
costa
are.com
ectii
ajut
Iancu
ceva
sublin@@
porn@@
erati
excep@@
sparen@@
hiul
Sunt
ordul
antul
curaj
scan@@
avion
uneri
acv@@
sfer@@
itud@@
itori
expi@@
aplic@@
flanc@@
hiper@@
ofen@@
ipes@@
barca
insi
prij@@
Marea
zej
daca
Andor@@
antare
inchei
ambas@@
idere
Spectr@@
manast@@
arati
icele
Muf@@
ceata
turul
sech@@
ceara
Comb@@
mancare
transver@@
acesti
velop@@
atata
obtin@@
hart@@
surv@@
pesti
niuc
nesig@@
zamb@@
incu@@
intor@@
urile
aleg
Kremlin@@
û@@
furia
detene
urma@@
cers@@
umbla
SME@@
ibun@@
meniu
vop@@
pric
izbuc@@
bucur@@
asist@@
mitr@@
Quart@@
ofic@@
amanat
resurse
dusa
auze
itiva
stiri
preven@@
OSDO
Turne@@
sunat
diffic@@
salut
Infrastructura
egida
mondiale
vertebr@@
prison@@
aproxim@@
Servici@@
Cioban@@
derivate
respirator
etate
corec@@
genuin@@
transport@@
autor@@
Shutterstock
SIDA
prost
tutun
ynski
imbol@@
1.000
japon@@
Spiridon
esday
achim
ocaz@@
Bucuresti@@
peric@@
Deveselu
ordin
Cristinel
aveti
ĉ@@
Mehedinti
exag@@
merita
egro
ν
occur@@
Mogos@@
etnic
student@@
respectiv@@
atiei
ashvili
recruit@@
sept@@
tances
Doamne
Asociatia
consec@@
curricul@@
unca
treb@@
Azerbaidjan
md
exter@@
revit@@
30.000
ό
Brasov@@
contra
vehicul@@
Mediterana
Ú
porti
videoc@@
Ploi@@
eches
sali
Dej
л
и@@
ъ@@
Anten@@
aranj@@
baut
©
ľ@@
Tribun@@
cina
Unite
mire@@
presa
Urugu@@
ograf@@
podi@@
Octavian
minte
ajele
dition@@
restitu@@
supermarket@@
militari
Ã
furt
ascul@@
Ö
felic@@
voce
outil@@
Magdal@@
Exim@@
ŵ@@
Viitorul
Nicusor
dure
grec
Syriza
cicatr@@
osii
athon
pse@@
asper@@
regina
afis
gande@@
eanul
ianul
Dunarea
quipe
usile
ù@@
ò@@
turnov@@
oxid@@
flux@@
vase
jected
Balcani
ematica
regale
gentlem@@
inject@@
Constitutiei
invoc@@
cif@@
reprene@@
Comerc@@
alitati
agres@@
formid@@
Portug@@
ONU
Gendarm@@
instein
enerv@@
apela
adult@@
musulman
batal@@
Zona
Jacqu@@
Victor@@
Centrale
æ
macedon@@
Trump
Lucie
interz@@
nership
asului
soldi@@
Sporturilor
&gt;
Libertatea
forgiv@@
profesion@@
refigh@@
exclus
deja
vech@@
orto@@
embas@@
contain@@
transatl@@
sefi
2.000
Voluntari
anghelie
anver@@
ruga
Fisc@@
.000
tona
icopter
announc@@
Sarbu
trof@@
Ziare.com
ikaze
perim@@
Eugenie
Cypri@@
Tudor@@
monitor@@
teh@@
proces
didact@@
Ialom@@
6.000
vechi
ý@@
indow
Stelian
becom@@
Peters@@
Teatrul
handb@@
rost
Mourinho
Toul@@
Antal@@
aparte
urata
petite
Andra
alitate
ceas@@
Charlot@@
Goodbye
spion@@
itat
¦
Petrotel
estival
Giov@@
sterg@@
Damasc@@
Stat
{
erves
Tsipras
pipel@@
effer
titl@@
pret
Dulgheru
sovere@@
Entertainment
avor@@
never@@
patriot@@
Iordache
Ε
}
gratis
‑
Romaneasca
Justitia
neta
febr@@
ituri
eneasca
Virg@@
moldov@@
cupr@@
respir@@
¾
oaie
habar
Botosani

constructor
scand@@
adera
comings
spal@@
Servic@@
asista
Curtea
Bucuresti
ELCEN
ocentrale
Rovinari
european
ingness
eleva
Stabil@@
х
Lukash@@
tez@@
adjunc@@
stun@@
Tineretului
Caragiale
recy
Valent@@
TVA
Nucle@@
ï
prestig@@
à@@
adolescent
ugen
Silvi@@
Wolfsburg
Neptun
Sibiului
Ľ@@
imea
φ@@
η@@
parlament@@
Hyund@@
easi
bassy
resul@@
mele
repet
lasa
cumn@@
atace
plang
schel@@
Janu@@
copia
asem
Ukrain@@
priet@@
2,9
recurs
varietate
Belgia
duri
boic@@
intar@@
incend@@
estre
lice@@
cota
ș@@
vanian
avari@@
impins
Eric@@
teren@@
decret
sind@@
decise
Schwar@@
3,5
memoria
ipost@@
unec@@
chez@@
verde
lims
aror
cabl@@
entat
facuta
progr@@
Ludogo@@
Maastr@@
transformate
masa
Strada
carton@@
fictive
elve@@
grame
ό@@
Patrimon@@
Π@@
ubarak
marul
apoi
ύ@@
rosu
2,2
erii
zona
extre@@
deces@@
ultima
oficiali
ivele
desene
Farul
linga
averi
inata
studiu
concl@@
ą
porto@@
citi
usoara
internata
ematically
zid
4,7
Juras@@
siv
exam@@
anciuc
impun@@
deste
Peuge@@
gazda
AICI
trucuri
astica
tate
Stiri
straine
restabil@@
decis
ajuta
matricul@@
delor
targ@@
5,3
sby
ilum@@
dubi@@
Palest@@
nowned
derea
subcontract@@
Catol@@
Neaga
demers@@
etii
sanii
alerg@@
incendi@@
motoc@@
aduse
slog@@
sovie@@
cinc@@
tonul
esec@@
asig@@
inarea
noroc
iasa
andum
imbog@@
sai
itung
autov@@
soti
faze
laude
ō@@
oferi
genta
abord@@
acei
chile
cad
especi@@
mama
Н@@
Trei
Servicii
pai
п@@
в
о
О@@
tarif@@
Β
whel@@
bazele
sah
А
ardino
estly
Grup
ж@@
ariana
atras
tenis@@
É
raza
jur
illery
ь@@
dona
ь
ы
д@@
³
П@@
tragice
м@@
separati@@
parametr@@
viit@@
Este
tripart@@
capac@@
controvers@@
doll@@
Complex@@
clima
Scorpi@@
fug
imprim@@
else@@
≤
boj@@
itare
2,4
Din
accep@@
armata
municip@@
calculator
Libere
castigate
teama
apoel
perfect@@
except@@
ucise
mest@@
ě
despread
ž
gettable
intox@@
izii
è
traduc@@
ú
Floreasca
Fü@@
obos@@
oubir
regl@@
emisa
Ć@@
rara
anchet@@
Robbie
5,2
acord@@
soever
psd
leac
miscare
chitar@@
icale
ǎ
tei
inedit
intoxic@@
Tourn@@
politica
Barros@@
celui
pana
Transparen@@
compati@@
brat
acum@@
termen
defil@@
UNES@@
cerebr@@
itarist
intii
poti
parte
indeni
minima
amna
Dhab@@
imil@@
tiva
secrete
gama
aeda
atle@@
scot@@
gand
iliei
ettinger
contact@@
tome
curat@@
barbati
izata
ā@@
hopric
plata
bile
bazei
Guine@@
uire
prema
Cô@@
actia
Traffic@@
icesti
Fenerbah@@
situate
comer@@
quate
OEC@@